/**
  ******************************************************************************
  * @file    network_data_params.c
  * @author  AST Embedded Analytics Research Platform
  * @date    Fri Jan  5 19:46:59 2024
  * @brief   AI Tool Automatic Code Generator for Embedded NN computing
  ******************************************************************************
  * Copyright (c) 2024 STMicroelectronics.
  * All rights reserved.
  *
  * This software is licensed under terms that can be found in the LICENSE file
  * in the root directory of this software component.
  * If no LICENSE file comes with this software, it is provided AS-IS.
  ******************************************************************************
  */

#include "network_data_params.h"


/**  Activations Section  ****************************************************/
ai_handle g_network_activations_table[1 + 2] = {
  AI_HANDLE_PTR(AI_MAGIC_MARKER),
  AI_HANDLE_PTR(NULL),
  AI_HANDLE_PTR(AI_MAGIC_MARKER),
};




/**  Weights Section  ********************************************************/
AI_ALIGNED(32)
const ai_u64 s_network_weights_array_u64[2564] = {
  0xbf2c43deU, 0x3edc18ab3fc2cc15U, 0x3c1a216fbd0c4fe2U, 0x3ea78472bcfacef3U,
  0x3d0a86a8bdca0b31U, 0x3e89a9403d69cee1U, 0xbee399fd3ebf4305U, 0x3edcd78b3f31950fU,
  0x3eb2980f3f03df5eU, 0x3dd537fd3e1505b1U, 0x3ecc1a973f3325d5U, 0xbcea3568bdcedb06U,
  0xbe956fbcbe930479U, 0x3e8fbba2bd8b1afeU, 0xbf441fd6bf90c3b4U, 0xbf1a964abec8a73aU,
  0xbf1120a1bd5cdea9U, 0xbf01e0673ec1cee3U, 0x3edd196f3f23fc3dU, 0x3e195b763daaf5abU,
  0x3f1e16243ed63645U, 0x3d3ff7863e03a701U, 0xbe014698bc03139eU, 0x3f42556b3f15c4d3U,
  0xbe4632933deac53dU, 0x3eca03da3ed2235fU, 0xbeb46c1a3e723e36U, 0xbf1c9ee8bf9780b5U,
  0x3ecb4292bea1ea94U, 0x3eb788c43e958b86U, 0x3e4e18ac3e267fcbU, 0xbed5ab313eae3f14U,
  0xbf16e4bbbeacc18fU, 0xbdaab7cb3d4d2aa2U, 0xbe18221cbe4a5217U, 0xbe51777a3e95aeefU,
  0xbf785b9abf8bd658U, 0x3f07dc063f2e14e7U, 0xbf03caa83ee44dceU, 0xbf964bd4bfa3f168U,
  0x3d6cd4b6bee5d7e6U, 0x3f4abb633f0c5cd7U, 0xbf5c573abf3bd538U, 0xbe000cf03de7fd62U,
  0x3da2f04f3e8bb2abU, 0xbeee27523e9b8b29U, 0xbe5f16bbbe6529abU, 0x3e217dc63e5b8b3bU,
  0x3f27b9723f174233U, 0xbf3432cebf5f2262U, 0x380410053ebc8718U, 0xbfa82c7abf4032d7U,
  0xbd2dd73fbe8c8850U, 0xbf254678be834f03U, 0xbf4ef7d2bef00cfbU, 0xbf286de7bf7f7f6dU,
  0xbf4e9aa8bf8464d5U, 0x3ef4c1ea3f3cd341U, 0xbedcc2543e1af083U, 0xbf31d05cbf4eae6cU,
  0xbf8fdd19bf1c381aU, 0xbf2075a5bec5ce10U, 0xbe9212c1be9b278eU, 0xbf497eedbedb84b9U,
  0xbf2eda59bf6213cbU, 0xbf5d3c50bf1fa782U, 0x3e0cf2623e6d2502U, 0x3f040edc3f248948U,
  0x3ed9c4d3beee8954U, 0xbed84d4bbe5b4b98U, 0xbf992600bf92c972U, 0x3e3fb7fa3e265744U,
  0xbeca6d373e47a309U, 0xbef06cdc3ebe679eU, 0x3dd8cd27bd12ab77U, 0x3f4626553f2161abU,
  0xbee765023ebdbeaaU, 0xbe3b00893d892d99U, 0xbf4d0315bee827d0U, 0xbee9e7413eaded7dU,
  0x3f02836a3f089afaU, 0xbea8c8b1bdd46c72U, 0x3ed660b23f35985bU, 0xbefdd5573c381c0cU,
  0x3de8219c3e73b65cU, 0x3ecf6e9fbe1fa757U, 0xbe99676ebe41b81fU, 0xbe70e140beab0a07U,
  0x3e2f46f43e438ed1U, 0xbf3825bebf4a090dU, 0x3d04497bbea9d68dU, 0xbf1552083ed22f23U,
  0x3ecb44ac3e9f0ce5U, 0xbe597947bd909fc7U, 0x3efe52f33f05ddadU, 0x3e36cc513e225dfdU,
  0xbe825ea9be978431U, 0xbf2d9d56befa1354U, 0x3f4e1efa3f2d9f19U, 0xbeab52d3be876b06U,
  0xbe242f2bbe2f292eU, 0x3e6b77bc3e438712U, 0xbf14386cbf7c5488U, 0x3f157f673f40e458U,
  0xbf1c5886be87b094U, 0xbf960738bf692e30U, 0xbd488f923a813fe3U, 0x3f1495ff3f1b8766U,
  0xbf62af4dbf8b1c7dU, 0x3ece610c3e20f981U, 0xbd9f4fd1bda05ce7U, 0x3cf9a8c53b1e9b88U,
  0x3eaec4cfbe8accd4U, 0xbe99b0bebeec10b9U, 0x3e30ab1cbf49b3f9U, 0x3f07bc153f220407U,
  0xbfaa2b41bf7a2db0U, 0x3ee049a0beebc2baU, 0x3f38c8743f166d92U, 0x3eeb682e3ef9e040U,
  0xbf87eee2bf1a6a07U, 0xbf89151abf8fd034U, 0xbe4e0f513dc31334U, 0xbf8155eebf1f5928U,
  0xbf4a38b4bef03464U, 0x3d233d25be593cc3U, 0x3e745237bd5a7f78U, 0xbf6c6423bf13ffe5U,
  0xbeb781c9bdef4c1eU, 0xbf8b3a29bf26348fU, 0xbe9f103f3e6166c8U, 0xbebb79ddbe96d13bU,
  0x3d38bc13be728b2bU, 0xbe76f791be7a88c9U, 0x3e1575053bb747a2U, 0xbebdd23dbe6478dfU,
  0xbdc90f4abe63ae93U, 0xbe7ee936be38ad5eU, 0x3c25511e3d9a5f7bU, 0xbe31e46bbd3fc9b4U,
  0x3e83389dbd727de1U, 0x3e98acec3d8bbbdfU, 0x3d369bf4bdae4ea4U, 0xbd94d07dbe118617U,
  0xbc50038a3dab168eU, 0xbc7ba054bc83d23eU, 0x3cfaa54f3e7be961U, 0x3dc6e7b5bd443a82U,
  0x3de5b494be45b14dU, 0xbecb76e83c85362dU, 0x3c3436e73e2198e7U, 0xbd858d703cf3adf6U,
  0xbe57f7003ec06172U, 0x3e23f156bded7b16U, 0xbde1b155be1224b7U, 0xbe611b883cc58e45U,
  0x3c4b578abe90496dU, 0xbe0bd020be5a69e5U, 0xbe2f95d8be73e02cU, 0xbd078ebbbcf27b75U,
  0x3d6f3f4ebe67d822U, 0xbe0ae77cbc97a216U, 0x3cb28a7abddab6c8U, 0xbdc0ac933acdc6ceU,
  0xbdb044febe4520ffU, 0x3dde0e4fbdb46489U, 0xbe90c4663e5111daU, 0xbd0ba7b13e0557f5U,
  0xbe45938a3ecb647aU, 0xbe7dd0a23dc064bdU, 0x3d7044163e8a2309U, 0xbe4f20edbef0bb7fU,
  0x3c4356ccbebbac8bU, 0xbd359440be483fa7U, 0xbe8e0bbb3d720a1cU, 0x3dc62c353e128517U,
  0xbe5c4cd8bde388e4U, 0x3e0f5b7dbc9ab525U, 0xbcedeac93e0605acU, 0x3dfe48813d493b8bU,
  0xbdf06e7bbdb16cd9U, 0xbe8c92b63df9e1f3U, 0xbe4bfcb7bded5590U, 0x3d58e1543d02fcd4U,
  0x3d25edbcbdb90530U, 0xbe541080bbf100b7U, 0xbdc97499be9f92b2U, 0x3d5d38793dc39252U,
  0x3e1001233c9ff97bU, 0x3c01bad4be4f8eedU, 0x3e7acfb8bdbdea76U, 0xbe7eebc33d649585U,
  0xbe4a79b8be4169cdU, 0xbe9ea353bd0846abU, 0xbbda86e9bdd030cdU, 0xbf8b1445bf8c17d6U,
  0xbf890d23bf8a2c08U, 0xbf870601bf880992U, 0xbf84fedfbf860270U, 0xbf82f7bcbf83fb4eU,
  0xbf80b245bf81f42bU, 0xbf7dd2f0bf7fda13U, 0xbf79c4acbf7b39a2U, 0xbf75b668bf785fa5U,
  0xbf71a824bf745b2aU, 0xbf6d99dfbf6fa102U, 0xbf698b9bbf6b92bdU, 0xbf657d57bf686dc1U,
  0xbf61a13ebf637635U, 0xbf5d60cebf5f67f1U, 0xbf59528abf5b59acU, 0xbf55a6f0bf574b68U,
  0xbf513602bf534d64U, 0xbf4d27bebf4f2ee0U, 0xbf4a0ab7bf4a773dU, 0xbf4526b5bf47e979U,
  0xbf4173babf430413U, 0xbf3cf52dbf3f2283U, 0xbf38f1d2bf3ad74eU, 0xbf3580aebf372feaU,
  0xbf31a96abf32cb02U, 0xbf2ca7c6bf2ebcbeU, 0xbf289749bf2aae79U, 0xbf249913bf26130bU,
  0xbf1f9fc8bf2291f1U, 0xbf1d4b48bf1e7ed2U, 0xbf17e491bf1a7568U, 0xbf13e054bf15ed73U,
  0xbf101c94bf12b2edU, 0xbf0c3525bf0e8239U, 0xbf0827c8bf0a41d6U, 0xbf040e37bf068cfeU,
  0xbf0083bfbf01fcc9U, 0xbef8eb5cbefd30c1U, 0xbef1316bbef3c2a5U, 0xbee83509beeb29f2U,
  0xbede4a10bee3901dU, 0xbed79f48bedb0e69U, 0xbecf7d50bed39460U, 0xbec67d9bbecbbfebU,
  0xbebf084dbec2fe4eU, 0xbeb64f86bebaa804U, 0xbeae0042beb2b69cU, 0xbea5ff0abeaafb31U,
  0xbe9efc16bea36079U, 0xbe965972be9ad29cU, 0xbe8ebee6be92095eU, 0xbe870f23be8b162cU,
  0xbe7f0472be8319c8U, 0xbe6c6b0fbe7808c1U, 0xbe5c8961be64a73eU, 0xbe4d737dbe550764U,
  0xbe3d5587be44e7c4U, 0xbe2ca090be352979U, 0xbe1ae38dbe23bc70U, 0xbe0baac3be12cf83U,
  0xbdf392f5be03af6fU, 0xbdd4502abde3871eU, 0xbdb23ab6bdc3247aU, 0xbd93e72dbda2b05fU,
  0xbd682079bd83f44cU, 0xbd272ef5bd47d426U, 0xbcccc012bd06fbc2U, 0xbc1c490dbc8b92caU,
  0x3bc2a846bafc3122U, 0x3cb7f4bf3c65f62fU, 0x3d1d55b13cfcd499U, 0x3d5d09e43d3cfb08U,
  0x3d8da54c3d7c73f6U, 0x3dac39ba3d9cca6fU, 0x3dcd3cc53dbc36aaU, 0x3ded4ce83ddcd93fU,
  0x3e0753dd3dfd2fe7U, 0x3e1732ef3e102c2aU, 0x3e27684d3e1ed7efU, 0x3e37ae493e2f7163U,
  0x3e48a83e3e3ef297U, 0x3e593d563e516b54U, 0x3e6a6cf63e621ca9U, 0x3e7a0cda3e7221b5U,
  0x3e859ba33e8140b9U, 0x3e8d11b43e88dc76U, 0x3e94bac53e91a09dU, 0x3e9d25de3e99f1a5U,
  0x3ea579083ea1b65cU, 0x3ead36c33ea965dfU, 0x3eb60cfe3eafdd06U, 0x3ebdf3cd3eb9a95eU,
  0x3ec61c553ec1b01eU, 0x3ecd75903eca1ac6U, 0x3ed66bce3ed256d7U, 0x3ede621b3eda8104U,
  0x3ee67ea33ee2705fU, 0x3eeef42c3ee9d9a8U, 0x3ef738cf3ef23157U, 0x3efdeadf3efac5f9U,
  0x3f02bec13f016c3dU, 0x3f0786a73f058d93U, 0x3f0ab5ce3f098dc9U, 0x3f0fa32f3f0d9c0dU,
  0x3f13b1743f11aa52U, 0x3f17bfb83f15b896U, 0x3f1bc5993f1926baU, 0x3f1fdc403f1d5193U,
  0x3f23ea853f21bf43U, 0x3f27f8c93f25f1a7U, 0x3f2c070d3f29ffebU, 0x3f3015513f2e1211U,
  0x3f3423963f321c73U, 0x3f38d3613f362ab8U, 0x3f3c401e3f3a38fcU, 0x3f404e623f3e4740U,
  0x3f448a663f425584U, 0x3f486aeb3f464df2U, 0x3f4c792f3f4a720dU, 0x3f5087733f4e0d46U,
  0x3f5495b83f528e95U, 0x3f58a3fc3f569cdaU, 0x3f5cb2403f5aab1eU, 0x3f60c0843f5eb962U,
  0x3f64cec93f62c7a6U, 0x3f68dd0d3f66d5ebU, 0x3f6ceb513f6ae42fU, 0x9292878a888f8980U,
  0x9387888d8c7f8590U, 0x8e858383828c8d8aU, 0x8e8585938d968288U, 0x8b978f84858c8183U,
  0x91878c928e877f8bU, 0x95898d8a8a879281U, 0x8193958285969289U, 0x95868e8f8e827d8cU,
  0x868f848e8e8b8490U, 0x8a91919496958683U, 0x8a8c8d8785869184U, 0x9496899383838d83U,
  0x928e878c8d8d8e90U, 0x9195928d8883868aU, 0x848e828b878a8580U, 0xa99a91998088677dU,
  0x9d8a766655867077U, 0x8b8d96a8a383928eU, 0x83a16e88979c8257U, 0x6da17069879f7f95U,
  0x9b67b08f70968f8eU, 0x7487585669616c69U, 0x9a5a5d71755f5d60U, 0x7a91959552706f97U,
  0x9c82a091689b88a0U, 0x77689675747a8767U, 0xa974788f8f729e7fU, 0x6d5c68a66b918676U,
  0x66677285868f789dU, 0x9e606492a76d72a0U, 0x81636a5c7d6f5c69U, 0x7d83828784809d94U,
  0x7d8a968f86948b98U, 0x89878c79897d8d86U, 0x908e8f8a7b898b8cU, 0x848b8e748781847fU,
  0x827e807b96838784U, 0x978d8d8c938f9a83U, 0x7c8c7e838594907fU, 0x8a8f8f8a85858f89U,
  0x8a877e868186968dU, 0x89797c948f8a9192U, 0x7c7f939089827893U, 0x877e9887888f8f90U,
  0x8d8b918b9380768bU, 0x837d917a8987768dU, 0x9681858b9284847fU, 0x8c848b8a837f8b89U,
  0x80818b8c87878b8aU, 0x80918f8495868a8aU, 0x8a8991828a847291U, 0x8592898f7f899480U,
  0x929288948c888e88U, 0x88888685918e8e88U, 0x837f8b8e83918192U, 0x7e8b80908a858283U,
  0x968a8d8a85847e83U, 0x89928f848a77898bU, 0x94817f95868c9490U, 0x898d938b808d8f8eU,
  0x84917e95878b888bU, 0x8b8186989484948eU, 0x82858e918583868bU, 0x928c8c978b918787U,
  0x928c8d8088838b80U, 0x8583868c89888990U, 0x82828b84859a7885U, 0x99887f967f859693U,
  0x8e838c88817a8789U, 0x879589848c7f808bU, 0x8a838e9182837f98U, 0x8b87818d9c877685U,
  0x947e8e8f84868c94U, 0x848992908286978dU, 0x858c8c898e8d9079U, 0x87957d8e8d897a8fU,
  0x7b85798885869888U, 0x888a94908f6d9091U, 0x82938185847b8f9aU, 0x7e88828d86887f8bU,
  0x9184888a838b9485U, 0x878b938988818988U, 0x878d8b9785828894U, 0x8f7f9390947e8088U,
  0x8f8a8e8d8f999083U, 0x8681867f8b868c85U, 0x7f848f95938a8183U, 0x8e878e918b808e8bU,
  0x8e8a91869087938cU, 0x8f8680858f848b8bU, 0x7d888f8f8e848c8dU, 0x898e958c7e938f8cU,
  0x938a85917f85937cU, 0x88888189868d7f7fU, 0x8f8d9280888c7f85U, 0x8e8b917f91948980U,
  0x86838982937f9493U, 0x908e92949187868bU, 0x8790837e8b898c91U, 0x80919283908a8788U,
  0x83838585898a8082U, 0x9090888d84869685U, 0x8991938695908494U, 0x7e9184888a80858dU,
  0x8c92899083929192U, 0x8984918b8f848190U, 0x898a8e7c88948590U, 0x9186948588858e8cU,
  0x93958381938b7e8bU, 0x92848e887d8c8e82U, 0x88818d8c8e949281U, 0x8f8d809391818689U,
  0x817f939388949195U, 0x8e838e8b8c85908cU, 0x8a8c948e87898093U, 0x8c838b858a888794U,
  0x8f8295907f7f8b8dU, 0x8991938492958c82U, 0x848c8f8b84898596U, 0x8f8d858c8b818b87U,
  0x8e83878c93828a93U, 0x94958184828f8e7fU, 0x8c978e918087948aU, 0x8a9681957f919092U,
  0x85948a8882888e81U, 0x7f8982838d868d92U, 0x8b85898a86838b86U, 0x62768479789cac91U,
  0x6387868f9c979798U, 0x8a7e806f6e87838fU, 0x806d887a897b948cU, 0x875c9b96776e8179U,
  0x7e975a9094856e80U, 0x8477919589828e96U, 0x8191978886978696U, 0xad7d8397988a9969U,
  0x727b8d838a6f7f54U, 0x97817c8b7d94878aU, 0x6185779681897b8aU, 0x9a97945b98926a81U,
  0x979c938f8b8f9669U, 0x77968f825d91986bU, 0x8391868c978f948eU, 0x8b8d958e988c888bU,
  0x8d928d8683878d94U, 0x928c838383878f98U, 0x8b8b8d8d86888f96U, 0x8b868e8b8787888dU,
  0x918b8d7f8d88878cU, 0x868d9287918d9087U, 0x8f7f93818387818cU, 0x938f9087918b9481U,
  0x888881988285928bU, 0x8f8f8e91878b8897U, 0x8e8185918f8d7f93U, 0x8e8a8c918c818681U,
  0x898c8993838c8982U, 0x84907e9084978289U, 0x8e7f8d8f8e92858aU, 0x8d828b81848e9581U,
  0x868487947e8e928fU, 0x8c7e867d8d8b9090U, 0x8d8883819390897fU, 0x8e8d878e8c7e8385U,
  0x8c8592909087868fU, 0x9087828f878d8390U, 0x818c819193857f7fU, 0x88898b8a83919781U,
  0x8d918c828f878f81U, 0x958494968c8b928fU, 0x7f82948e8095878cU, 0x918e938a847f8680U,
  0x858b8f928c7e7f8cU, 0x85878b7d85967d82U, 0x927f8288817e918dU, 0x7b868d978288898cU,
  0x80948a85838d8a92U, 0x858c977f8f867f8fU, 0x8b8e8c8c977b9982U, 0x7c7b8c8692877691U,
  0x9284789491898c91U, 0x80958b90877e858aU, 0x8180908b8e907e89U, 0x938095947e8c937dU,
  0x878b979091918b7dU, 0x86798e8c8c879581U, 0x7c88828e888e8793U, 0x8d8b837f88858d8cU,
  0x91948d867d8e7b8cU, 0x7f8f80847e888378U, 0x838087908c8e8b77U, 0x9694899186918c87U,
  0x819086808f7e8983U, 0x8f8c879481998d90U, 0x8683887f83967b80U, 0x8b8e8a9387848c82U,
  0x8f89998784828987U, 0x8a84908881858991U, 0x878e91908c8f918eU, 0x898d8e8a8d8a8385U,
  0x86858d7f91828283U, 0x86888c8983878890U, 0x898e7f8886858889U, 0x8d8f8495898e8885U,
  0x80848e938d8c8684U, 0x808d90928481838bU, 0x8b8f978c898e867fU, 0x868989817b91998aU,
  0x848f858c868d848aU, 0x8f7b897c86957f95U, 0x937a908a89878e8bU, 0x7e87887e8d897d83U,
  0x858e7b889a89838dU, 0x8e85848886938681U, 0x8985888e88899085U, 0x95888b908e94908dU,
  0x898f808f88879089U, 0x8689898892878c91U, 0x8d888e9381967e87U, 0x88847f818a90778bU,
  0x8988878490908c8dU, 0x8d8f807e8096868aU, 0x8b8b8a8c88878686U, 0x88897e8587809c82U,
  0x868788867f7b9b8aU, 0x858f8f8b838d7f8fU, 0x808996848f818782U, 0x7c80957b8f878587U,
  0x8588858198968d83U, 0x8487858f81939784U, 0x858b81839698818bU, 0x8c8e857e7e94848aU,
  0x83888b8881867c7cU, 0x898c839b8b807f8dU, 0x8e92978392967d89U, 0x8a80838a82817b94U,
  0x929083897b8a847cU, 0x858e8c898285818fU, 0x808b8784868a837aU, 0x8f8c878b9385827fU,
  0x85877e82767f7d8cU, 0x88818c878c969295U, 0x828f80918f80867bU, 0x839181778a917f88U,
  0x90828d87878b898aU, 0x838881808a8b897eU, 0x937b8887948d8180U, 0x89818c867a7d8692U,
  0x918d837e808b8487U, 0x7e7a8a7d848a8291U, 0x817984848f938481U, 0x8f757c927a8d9485U,
  0x8b798b8486938283U, 0x9986868a84808585U, 0x93787c82848c8080U, 0x8b8a829387888e7fU,
  0x8984908b828b808fU, 0x9292868292929189U, 0x8492968b8b917f8fU, 0x8e837d8479908391U,
  0x8386808795948185U, 0x8b908f8384878690U, 0x8d8f8788888b9785U, 0x7b7d868084948590U,
  0x8e8b937e8791817eU, 0x8091899492838191U, 0x92968c87948c9280U, 0x918c8a9184878f8eU,
  0x858d8e848e91818dU, 0x8c9387918e7f8681U, 0x91848a8e8989828cU, 0x888c93888e848d8fU,
  0x7e8d808f92889189U, 0x8a848591898a8a81U, 0x8d938b8687938a88U, 0x827e898c93918991U,
  0x888986879489928dU, 0x8f9189837f908a91U, 0x9481898083897e8aU, 0x95938a8d7d908d81U,
  0x86868f8b8a938681U, 0x859085828c818e90U, 0x7f8e8081808c8988U, 0x8186837d8583898cU,
  0x84829386838a8e7dU, 0x83907f8f7e8a847eU, 0x8e80898092838b86U, 0x83928993898b8f93U,
  0x8a8c8b8189958085U, 0x9c8b838a8c8a8292U, 0x9793908f95909992U, 0x848b818989878095U,
  0x92937d87968e8e91U, 0x918d8c84858e8a8fU, 0x90938b959684967dU, 0x8c998b8a89948e8eU,
  0x84888a85828c947eU, 0x8f828a8986808b85U, 0x8b8a8a8d818a7f8bU, 0x7f8386818583a184U,
  0x9a8f93918e95868bU, 0x959085877c967d91U, 0x889084838b838189U, 0x7275918a81a3b596U,
  0x80808b9689a59ba1U, 0x848e7b746998938fU, 0x8b738a957e82959cU, 0x7d7e9d90857f867bU,
  0x888b789d8b7e7f7fU, 0x948d9e9a7e96928cU, 0x778a94847f968887U, 0xac7e7d989a8a8a75U,
  0x7e818f888c6c8a73U, 0x95848c90869c929dU, 0x7a7c828d978f837fU, 0x9f9693789a8b7179U,
  0x99a19d867d8d907fU, 0x7c99828480848672U, 0x8a969f7fa693887cU, 0x8b8c84949291a089U,
  0x8186878d8083988cU, 0x84827a897b91998eU, 0x817e858184857a8eU, 0x898095848c938793U,
  0x898b878a86878491U, 0x92938a7f8d858986U, 0x7f8591837e8d7b89U, 0xa48a7f97918e8a81U,
  0x868785908379908eU, 0x8a8a8e9a86819190U, 0x8b837a8f8f8c8491U, 0x85858e928d837b7eU,
  0x809293958b908b8eU, 0x80828a869181867cU, 0x8e8496819199818aU, 0x968c888f8f857d84U,
  0x968793908d7f8085U, 0x8d848f999487878dU, 0x9490837f8c908684U, 0x958f868f828f9b88U,
  0x8e8e8b8a8e7c8984U, 0x90938d8b86918694U, 0x89938a888496928dU, 0x8c8b82808b838197U,
  0x9d809389818a809bU, 0x8d8b879490829584U, 0x8e9383859a83957cU, 0x8193869582959291U,
  0x85937f9386839197U, 0x908b95858e7c9297U, 0x8d8589978090938aU, 0x9590b1ae9d7db38bU,
  0xa797adb3a87eb7a0U, 0x889a7ca081929471U, 0x8e7997938f88779fU, 0x9b93949c99ada597U,
  0xa0b597929f8c9690U, 0x97aeb5aca0a691a4U, 0x90a5a3a493b09a9dU, 0xa186928fb4a674a5U,
  0x9e83ae8dad6f9096U, 0x9ba198a69b7ea7abU, 0xab88898baa9e8987U, 0x9fa8a5a39e8b7497U,
  0x82b47494927ea19aU, 0x85b09ba6a06a9d9aU, 0x86b2a59b7d8cac90U, 0x83918d8489888595U,
  0x8d8786938e878f85U, 0x8d8e8e9280868284U, 0x7f8d859789869784U, 0x8f918b89947e8e93U,
  0x978489928388868cU, 0x867f948f85918890U, 0x8b8e898a81828c8aU, 0x84879791898b938aU,
  0x7e89828e9093888aU, 0x888d8e8681839682U, 0x7d9387918f92858dU, 0x8a91838c8192818eU,
  0x8a8a928486908090U, 0x80838b909093857dU, 0x90898d84828b8695U, 0x8396918f8b898789U,
  0x8a848b949089877eU, 0x879388808e808e93U, 0x868e8e9291968590U, 0x878e808888938485U,
  0x8c80927e88838d80U, 0x928d898294918090U, 0x9285868681808293U, 0x838b8d9281808382U,
  0x8487899491938782U, 0x7f899294898d7e94U, 0x8087898d8c88848eU, 0x909082858a849181U,
  0x9690958084839492U, 0x897e8f8282998383U, 0x8a8294917f879391U, 0x9e8b95a491949887U,
  0x9591898ca1889793U, 0x8a9a8ba77991948cU, 0x80818f8c92907a93U, 0x91a5979a8d97948aU,
  0x949b96a195778a8aU, 0x93a4a0a1929c8f99U, 0x979c9e848b978888U, 0x938688a3929982a4U,
  0x9f7aa2818b858eaaU, 0x8d94898b90949796U, 0x9d7f76919b8f9088U, 0x8d959da895958288U,
  0x8390948f828496a1U, 0x7a9786aba675889aU, 0x8d8d9f91888a8e90U, 0x7e91948c90939398U,
  0x8f879587928c919bU, 0x8c8e8c7c82878598U, 0x89857b9482828d93U, 0x7f7b848f968c8588U,
  0x82868a9382878e87U, 0x8896809285929286U, 0x8d92927c88868c7cU, 0x90958a998c858792U,
  0x838b90937e7d947aU, 0x878a978d809d8986U, 0x8d847d86818d7c8cU, 0x8f8c8c7c8388838aU,
  0x957f8f8b8685887bU, 0x8d928a9387928a7eU, 0x957d8a87978a8286U, 0x8c868a848f86868cU,
  0x89878c8496859790U, 0x898c9597948d8f87U, 0x928381828586818dU, 0x849d7d9894928e85U,
  0x869799868493948dU, 0x85848c948d8e818dU, 0x8286858a82928885U, 0x878a8e94988d7a8fU,
  0x948792818195859bU, 0x828b8785868d8e92U, 0x8f8e8f9096869788U, 0x8a99839e9781888eU,
  0x7e897e958d869b95U, 0x8394878f927b979eU, 0x8b8590908e828a8dU, 0x909391818984908bU,
  0x8e868c8d8e93908eU, 0x8a94948485858290U, 0x8b9587828a8d8b8dU, 0x7f8e8a918b7f8b83U,
  0x7e8f8d8c88879188U, 0x91808d80948b8692U, 0x82938c858d848e8cU, 0x8f8f878f8a8b8c87U,
  0x8e8694898f948e88U, 0x7f8d90838c7f918aU, 0x80918f8d948e8e8dU, 0x8e83918a8d928592U,
  0x7e9090827b8f858fU, 0x8c83848780988b8eU, 0x938288838d849380U, 0x7d898d7d8e869591U,
  0x8a8392817d8a7c80U, 0x8791838888948e87U, 0x7d7d848683858a7aU, 0x827f7f7b90877c81U,
  0x848288977e8c8188U, 0x887d808b817e8e87U, 0x878e8b88807e7f82U, 0x7f8e84908d8d7b8aU,
  0x8b858b7f7e7b8284U, 0x8c7a809091899586U, 0x8b8a8f95838a7d91U, 0x917d7d8382868d86U,
  0x7f7d8e838e857a85U, 0x7f8b85939083787dU, 0x7f7b8b88807d8b88U, 0x7e898c987e9abe9aU,
  0x838c909f8190aaa7U, 0x8796658c509c9282U, 0x8462898d917f828fU, 0x867aa4727f8c7f8dU,
  0x868783a8a76f8c84U, 0x8f91909186a4947aU, 0x8c90928c869d8781U, 0xbd7c7fa37f9d8682U,
  0x8e70938695628875U, 0xa17a8f98859a9da0U, 0x85836e98999b7c7eU, 0xb88a997f8f896994U,
  0x7c9584888f826d88U, 0x728787998a7f7b7cU, 0x938da3849b909c77U, 0x8985818194917793U,
  0x8887817f738f7c84U, 0x809196858f7d888bU, 0x819183878c918b73U, 0x6f987b779488788cU,
  0x896d94898a969089U, 0x8d877e7d7e738a6eU, 0x827c717e847e726fU, 0x8292918867718f85U,
  0x8a84908470828490U, 0x8d7595897e908d73U, 0x86768a9b88858e89U, 0x8e676f886f868a75U,
  0x8c75918b868c8494U, 0x85716f92919b7787U, 0x80717f7488847175U, 0x8d7f7c8e8e839191U,
  0x7d8b87908a858c8aU, 0x8c8488918e80908bU, 0x8e8a8a878d7e8e83U, 0x83809183857e8083U,
  0x8c878b8587928483U, 0x858d8d909589958dU, 0x8a918689958d9182U, 0x938b838a89868591U,
  0x8d878185838c908bU, 0x8192838d8f937f8dU, 0x858b858e83928499U, 0x8794888f89868885U,
  0x857f8f928d898882U, 0x8a878b8c92927f85U, 0x848a86818b84948aU, 0x8082859191857b89U,
  0x91868f9380918282U, 0x8884958b8b83858cU, 0x928c94859193957cU, 0x9291947e8f897e90U,
  0x8a92918a88868387U, 0x858885828a968c80U, 0x8c92928689878f8fU, 0x838693858a969187U,
  0x8b869090858e8c80U, 0x8394878d8c8d8586U, 0x87928b918693898fU, 0x897e919084859f90U,
  0x96959786988b807dU, 0x868c8e849090837eU, 0x8c93877f8d879784U, 0x8086838a8795838eU,
  0x8c8c918991868880U, 0x868c898794838399U, 0x918b86878a8e898aU, 0x8a8c808f917f7f81U,
  0x8683868a99968d86U, 0x948b858a80918988U, 0x91818d807e848988U, 0x9589938b89918e86U,
  0x84958b938886947fU, 0x8984939591859583U, 0x8786928f83878483U, 0x87937e8593968496U,
  0x85809586888d8094U, 0x8885928f90938f87U, 0x8c928c8b8f868e87U, 0x8b8f959193838895U,
  0x85918788938e7f85U, 0x84908e8985818390U, 0x949186938a87918aU, 0x87918f898485858fU,
  0x8c8e958d868f8695U, 0x828b87937f828384U, 0x8392938e868c9186U, 0x969187839382858dU,
  0x8891929292888580U, 0x9786908f878f8c92U, 0x8c87868792928d89U, 0x86889382858e9589U,
  0x8b8e968183929582U, 0x97807e8091859081U, 0x938f8f7e87977f90U, 0x82938c889281938dU,
  0x7f89968d8a908690U, 0x8a919589958e8695U, 0x94938a8592958b8eU, 0x819491848c8a8c90U,
  0x9686858090859384U, 0x89969493928c9486U, 0x8d83827e83938b85U, 0x8c8b99838e83898bU,
  0x8e8c818e8998898eU, 0x83898a9093958b8cU, 0x84878f8385888885U, 0x828493879093858fU,
  0x8e91918a8c868793U, 0x8d928f8b8c8a8d8cU, 0x83868b809590898aU, 0xa584acab829a9b84U,
  0xac8995a1928e9497U, 0x859b81b1769daa90U, 0x80837e968ea187a6U, 0x88a593a488ad9d91U,
  0x95a8a29599878d8cU, 0x90b3a4a780919d9dU, 0x8c969990859e819bU, 0xa2828696a1988ea1U,
  0xab7ab6829a838fa3U, 0x92858c917c909b9eU, 0xaa908492a199978bU, 0x9b958cb49b9f7c79U,
  0x84978f83899890adU, 0x7da78da4af889aa2U, 0x8e969a9b8587978aU, 0x85848e8f898f948dU,
  0x877d7d85828f8285U, 0x82828e8a8090818bU, 0x8e838d8f7f848091U, 0x8f848e94827f8c90U,
  0x8d928a8789958882U, 0x8d898789868a8781U, 0x848b878c8b8b9187U, 0x81908f898186828cU,
  0x7e8b7e8692848e82U, 0x8c7e81918790818cU, 0x91888a868683868fU, 0x8c84818790937c93U,
  0x858b808488878e8fU, 0x8c89837e908c808dU, 0x8a83829390918e91U, 0x888a848594909086U,
  0x808a8f918b8a9091U, 0x8e88849088818892U, 0x937d8c8386808b90U, 0x7b87898f898e7c8bU,
  0x84807e83899a8881U, 0x88888d8e8886807eU, 0x877d7d7f96908085U, 0x9a93807b86918087U,
  0x868492898f907f87U, 0x7d8e928686848193U, 0x8b91987a82898887U, 0x8f8992838c8a7c8aU,
  0x8e88887a88808b8bU, 0x9789828b8c82877bU, 0x86888c8991857f8dU, 0x92868a8589938687U,
  0x83928d928b858a92U, 0x8c868b8a9b898482U, 0x98889093928a8e82U, 0x8e8a918296888394U,
  0x8982858c879a9590U, 0x8d8f8e89857f8486U, 0x858a928190818293U, 0x868f96848f929592U,
  0x7f958d859489808cU, 0x918d7f9388948888U, 0x86948b8b8a84858bU, 0x9387828f8e8b9f8bU,
  0x987f928789928881U, 0x858a859386918391U, 0x898d92898a8e908cU, 0x8a8a8f89868b9582U,
  0x907a87867a897a8bU, 0x8a988e8f8b929583U, 0x8680757f8b897972U, 0x7c8b7f707c96728eU,
  0x8478948882868a88U, 0x80907c768176806eU, 0x9978817678817175U, 0x8e758c8f7e787998U,
  0x8e829b7f71787b87U, 0x8d809a898882918dU, 0x8b817a978e819278U, 0x98738789778e887fU,
  0x7681858485966d90U, 0x8173799b9584748dU, 0x7780897c87827877U, 0x8d8d8685917e8991U,
  0x8d8b878e8e8e8194U, 0x8487808d84858493U, 0x8e7e8c857d917f8bU, 0x9291838e85948287U,
  0x908f919282808299U, 0x8e94819285808293U, 0x938d85859594948fU, 0x8d9280928688858dU,
  0x89868a8a80858786U, 0x859281888d80918aU, 0x867c8983958d9392U, 0x808089868481928dU,
  0x878f90958a8b9488U, 0x8e938693958b918aU, 0x8a84869191959492U, 0x918a7e8388889480U,
  0x8094818b918d9693U, 0x928c7f8f83908d83U, 0x8297878b9381868eU, 0x8a83888a86918e87U,
  0x8b8b868e95898f86U, 0x838390918b899380U, 0x9091858b83888281U, 0x918296818e848590U,
  0x8e948e83858e7e7fU, 0x8a967f87947f858bU, 0x8f8d988c7f928696U, 0x87868087838e828cU,
  0x89877f7b7d837f83U, 0x938888927e878291U, 0x8f8c88838c968885U, 0x838d83917d859a82U,
  0x9485848d897a8885U, 0x83857f8f7b8b7f83U, 0x8a8586818a8b7591U, 0x93948f8984958f91U,
  0x988683878c8a938fU, 0x8090979183838796U, 0x8b96858e83889096U, 0x938d808d9080758eU,
  0x988b848b877b808aU, 0x85918e8e8384848dU, 0x8b888a998f818f83U, 0x84848b9095887a8bU,
  0x838180908a83848fU, 0x7d888c85857c898dU, 0x898289847b8d8881U, 0xa38ba4a68b8aae90U,
  0x998796a1a095aa8eU, 0x899b759c7898a17cU, 0x82738e9694948992U, 0x999598918a9d9998U,
  0x9494a7918f758995U, 0x98a6a2ab858f968bU, 0x8e939e8389958f98U, 0xa68c7a9894917d98U,
  0x9784a4929a6e8394U, 0x94889b9c87859d99U, 0xa783719a9b8f9481U, 0x969c9d9ea28d7385U,
  0x85a1868f83899f9bU, 0x7ca18da9957198a1U, 0x8f8e9c9c968d998bU, 0x8f85777b898e7f9aU,
  0x898d706756917284U, 0x878899938e888594U, 0x8693688891909151U, 0x5e988345917c6a86U,
  0x80589e9a6f868788U, 0x75794b58605e7f4eU, 0x8958606f805d5663U, 0x8492879143729b92U,
  0x837d78895c8b7e8bU, 0x7a6083717e8d8273U, 0x8f7b8498867a8a7fU, 0x7c3c6b914f8d8972U,
  0x7f738c947d9f6185U, 0x8b4c5c7f959a5192U, 0x8154775c8d815f5aU, 0x8a838691888b878dU,
  0x8886848d848e878cU, 0x8f90808d8f858f81U, 0x8d8595808090858dU, 0x93967f8a7f979189U,
  0x8989859786868887U, 0x81958a9081928f7eU, 0x8d928e8c88968593U, 0x948094968a848493U,
  0x978a82898b908895U, 0x948e858694867f92U, 0x8b91938992848292U, 0x908088909383928fU,
  0x7f84918e8e839182U, 0x93869185957f8395U, 0x89948c8d8c878d94U, 0x90928b888a89818cU,
  0x898483898c919285U, 0x8391918588808c83U, 0x9190828d7f889280U, 0x878894918c908093U,
  0x908f948c948b9189U, 0x8c8b8b8991818480U, 0x84928b81858f868dU, 0x8196868a85818a92U,
  0x928d828494888386U, 0x928d908a9287898fU, 0x928d937d8a838d95U, 0x8a908d878f8b8f86U,
  0x8b858e908a958e86U, 0x8d808686818c8d7eU, 0x9192818b878c8c8aU, 0x988b978589877b88U,
  0x8b858b9783898f8eU, 0x819084929a93967cU, 0x858b897f7f997d84U, 0x8e908599908f9088U,
  0x8c8b9491827d8d90U, 0x808a9291917f8e97U, 0x89958b908a8a8c99U, 0x89857e8b91857e98U,
  0x96948d9287858ca0U, 0x7b9393868c86838cU, 0x9a9281828c8d9784U, 0x848b88a1818a8f7fU,
  0x7a8c7d8b99909399U, 0x8f9b89948a74918dU, 0x8b89879587878e93U, 0x83878e7f8e908a85U,
  0x8d82948d81908a86U, 0x838c958d818e8d85U, 0x839385868a8e8d8aU, 0x878f818687859386U,
  0x8b818a93968e8983U, 0x8d8e888e8088948cU, 0x968695958283918fU, 0x938584908485888cU,
  0x8e8f898b90909385U, 0x918d828e88807f84U, 0x868b858f808b878fU, 0x8c83889382838882U,
  0x7f928d7e80958985U, 0x83899190838b968eU, 0x93828f939181838cU, 0x7f8b917d86899391U,
  0x84908d85878f8794U, 0x90869494898b908aU, 0x9480848788948485U, 0x8395868d878a8b81U,
  0x8b848e92817f8d85U, 0x87837e8e8890878dU, 0x7e7e8f84818f8692U, 0x81898c84868d7786U,
  0x9291897f8d8e8e81U, 0x858c8f8f8082948cU, 0x9394878c87878286U, 0x90928e8086828a87U,
  0x808c868494929195U, 0x858e8882867e8a82U, 0x898d7d958a7f7e95U, 0x768e8a948c9f9e90U,
  0x7c989692788fa2a0U, 0x8d887b74828d8190U, 0x8b7e8e8d84779687U, 0x7a7da4618e886b9bU,
  0x94837693a18b9585U, 0x9f8a7d7e8091997bU, 0x908d847f8e9a7876U, 0xa284979e7ea1a081U,
  0x7b82929487708e7bU, 0xa472889186a295a2U, 0x718589987d8a7e92U, 0x9376957f838f708dU,
  0xa0a492808f907676U, 0x8c7d7b817e9f7175U, 0x957fa77ca59b927bU, 0xa48ca3a1628d948cU,
  0xa9567095a0999284U, 0x5bab73a88375a691U, 0x8b7d775d9aa09ca4U, 0x99be9fa45baca56aU,
  0x899bb47e7c628073U, 0x5fb29ba6747b8992U, 0x94939e7a82858092U, 0x905b5898a286a3abU,
  0xb07eb1657e8463b3U, 0x9c9e9596768c866dU, 0xbf808698aa68a258U, 0x86a283b19b917b7eU,
  0x9b9e9b80869fa9abU, 0x7ca990a8b6a096b1U, 0x5a9678849c978d8fU, 0x8f92839085938990U,
  0x8a858e88858f8f8fU, 0x838a947f8b897e8fU, 0x8483879487918f86U, 0x9486937f828f8d83U,
  0x938a818c82968293U, 0x838681948a90858cU, 0x8a84838983838983U, 0x818b8c8b9392947fU,
  0x86968b838996908fU, 0x89898887888d9095U, 0x8184828c90878183U, 0x858a949281938e96U,
  0x8d8b8e7f8c85828cU, 0x977f8f7d8c888b88U, 0x939280868a8e8e8dU, 0x87818291888a8987U,
  0x92958e8f86878183U, 0x96878b8a888b8990U, 0x95918a8c8490958cU, 0x8d85928c88898e86U,
  0x8a86858a89878a8bU, 0x8589839193939082U, 0x878e8c84808e8881U, 0x82828c838e908886U,
  0x898b899192888487U, 0x8e81918f8f8b8791U, 0x858e8e8e93828b8fU, 0x847f8c8e907f9084U,
  0x877f9482928c7c8fU, 0x967b8b7e91988d90U, 0x8b807f87928c918bU, 0x8a8484967f829b7dU,
  0x8e7c7e8f868b8a90U, 0x88878a8f838f838aU, 0x8c80828390938582U, 0x84837e9291878583U,
  0x90968b8a7e7e8a88U, 0x7f8b8694868d8183U, 0x8d9599928a8b8088U, 0x8f9290868386898cU,
  0x9292879086887f83U, 0x839587888c7b9190U, 0x958c8b818587888cU, 0x95888f899289848dU,
  0x779785969487938dU, 0x8193868e8b7b8289U, 0x7d8091828a7e9388U, 0xa2979b8e92837781U,
  0x9792756c5680696cU, 0x7fa18fa7938b958dU, 0x7f9e768d98a2735bU, 0x73a6736d8e907998U,
  0x9458a28468949093U, 0x75916456676f6973U, 0x9457606a775f6a73U, 0x7985868d546f6da3U,
  0xa78c9286659d8e9dU, 0x78788c6c75758765U, 0x966973989276ad82U, 0x7f5c5c97659a8d6bU,
  0x6b677c84888d7ba4U, 0x965d7093a373679bU, 0x935961637a726564U, 0x8b91959b8288848fU,
  0x9287808f867a8782U, 0x8f8d928a7c848982U, 0x90888d837f96798bU, 0x939381888992978bU,
  0x8c8599968c838b89U, 0x7e8f958a8d849196U, 0x9394939183908782U, 0x838e818295907b89U,
  0x898a888a9087889dU, 0x899296848f7f8a82U, 0x9e8a8c91907f878aU, 0x838781918e858e8bU,
  0x8095808295928b91U, 0x7b98898c8c749596U, 0x808f8c888483878eU, 0x7785998a8692b794U,
  0x858d9b978491ab9fU, 0x8f846978719d908bU, 0x7f69899289808b82U, 0x807ba57682897183U,
  0x9290898c9a768e8dU, 0x888f8487858f9f7bU, 0x848d8886859a8a7bU, 0xae7881947c9b9080U,
  0x8d6f88838f688f82U, 0x97808c968d989e9dU, 0x8187788f96907786U, 0xa884988a83867d81U,
  0x8c9a8685887c7487U, 0x7d8d7c8681867478U, 0x90949e85999ca17eU, 0x84847e7e86959282U,
  0x85938f9192927f81U, 0x8784858b8f898384U, 0x848e8389888b8d86U, 0x7c8f878297827a8cU,
  0x93887e798a8f898aU, 0x938490927e8f8a81U, 0x958981908c91938eU, 0x928d928889838d84U,
  0x8c838d86907e8b8fU, 0x8e8f868487917e86U, 0x878594908d8f8f92U, 0x8691938382839591U,
  0x8a89877e818c8585U, 0x8386928582977a88U, 0x88877f7e8792848eU, 0x828c8d8488818f8fU,
  0x848c818f88828786U, 0x899483979288848fU, 0x938d917f8388828eU, 0x949490888a95957eU,
  0x8182969a7f8b8b82U, 0x9193808a8b8d948aU, 0x938f928187968682U, 0x8d848c92958f8689U,
  0x878b967f85918d89U, 0x878f8b8b887f8292U, 0x947f929390888585U, 0x928d829893888687U,
  0x8787848287828b91U, 0x8d878c8898789589U, 0x8b8e84918e839592U, 0x80878983878c8f90U,
  0x848f9385908d908bU, 0x908c838d90838d94U, 0x938a8591918b9583U, 0x817e8d82968c9193U,
  0x83808e8893947e83U, 0x8d888b808f928391U, 0x8b947e8b93929186U, 0x848f8c8b8e899991U,
  0x89918f9695908d8eU, 0x878c7d8d82858e84U, 0x8f8192887e92848fU, 0x7f8587918f7c948fU,
  0x9c8c97918b85848fU, 0x898e848880998988U, 0x9185888682958880U, 0x7b848680817f938eU,
  0x7b92838a8786888cU, 0x8d89898e87888c82U, 0x8a9086938b8b7a87U, 0x8d878887808b8087U,
  0x8691839380848e88U, 0x8c918e988d8e8680U, 0x80899587878a8689U, 0x958a87909791798bU,
  0x8c8e82837f80897cU, 0x7f828a90898e827fU, 0x8289868a8d7f7a91U, 0x7d93888e8b83737fU,
  0x8590888989848187U, 0x8e8c7b948b7c8e8fU, 0x8288928e7f808282U, 0x8c928d828c838b88U,
  0x908c93917e869386U, 0x7e8b84867f928a8cU, 0x867f8b8185858987U, 0x827e81868a7d8e8aU,
  0x8f908b93908f8c8bU, 0x888f9184858a8d7fU, 0x928c828184908186U, 0x8183808481828589U,
  0x837d8e89888b8183U, 0x7e8d95907f8b8188U, 0x85898896908b818eU, 0x9385908489828d7eU,
  0x83897a8b947c8885U, 0x8788909585899485U, 0x837d90847b8c848eU, 0x8e898594818a9284U,
  0x8284928488848985U, 0x7e7f84988d8e8f8eU, 0x8c9182817f8a8c8eU, 0x8a837f9788927e84U,
  0x8596859092969095U, 0x8e93948b88838f90U, 0x8d8f8d9283938c83U, 0x837f948a828f7f93U,
  0x8a85888b828a8a88U, 0x8d92858b94838d8eU, 0x9387948a958b928fU, 0x8f8681908b93848fU,
  0x8490898c81948c84U, 0x858e8881848a837fU, 0x8486938581859083U, 0x8487868986898471U,
  0x8482868c8f7f948cU, 0x7d937b857c988381U, 0x96868c7491806f80U, 0x8b7e7f8e878d777fU,
  0x8492889679778187U, 0x84948a86838a8489U, 0x888b948881888983U, 0x8374808a868d7a7fU,
  0x8d7d857c868c7c85U, 0x76779b878877a290U, 0x8a86859784838074U, 0x8a7f94858f838a80U,
  0x74897c948c727c7dU, 0x8a8281977474868eU, 0x8f848e837c6f8686U, 0x9e9298a582929c92U,
  0x90807a9486899784U, 0x7e9083a384968c86U, 0x8a8c7d79898d7594U, 0x8e988d8b7ca6857dU,
  0x8d8499958c809484U, 0x85a091877f7f8383U, 0x968a918789928b80U, 0xa07b758b92958795U,
  0x937e9f8388787d9dU, 0x96868c938a7c918bU, 0xa5827c91a1929584U, 0x8f8886a58998797bU,
  0x7c888e8a83848f9bU, 0x859b7d9b9982979dU, 0x7a8990898590808aU, 0x7d8480848c888f93U,
  0x8c9383817e8f8288U, 0x9a8e988697889295U, 0x918b898d92869591U, 0x877d95859182798eU,
  0x84857e8b87978498U, 0x8a83828e8c7f8f8fU, 0x8a7f807f818a877cU, 0x908f8e878b94938cU,
  0x90868d8992889887U, 0x83908f8998938284U, 0x8f8296948d88899bU, 0x8c8c837f91889395U,
  0x9892959b90908e84U, 0x9a818a8d7f948b87U, 0x8e8e878e8f8e928aU, 0x9695a2b1a0999a94U,
  0x9891937d5e939593U, 0x9f9e88997b979c7fU, 0x87918aa199908174U, 0x568b8946a1aa2fa2U,
  0x9f6f8da98092989dU, 0x9b9e6f7d6c817f5dU, 0x9672687f7e826e61U, 0x8f9693a7648d8996U,
  0x9a86ad9c8580a99aU, 0x8e58a387809dad93U, 0x904e639aa3868f91U, 0x9871969574987975U,
  0x878388908199449cU, 0x8d6965a79b8f4499U, 0x997b9a69908f7a59U, 0x81808b948a888e91U,
  0x93878f8e8d928b83U, 0x878b94858088848fU, 0x8e878791948b8088U, 0x907f7c878a8a8192U,
  0x858589878c929388U, 0x8995898883898893U, 0x90858b888a908b8cU, 0x8797838386967c80U,
  0x8f8e948683848a7eU, 0x8d87828184868a8dU, 0x868088918a8d8895U, 0x9a848f8286858181U,
  0x807e7d8386838c7eU, 0x818684878b8d8d92U, 0x9883938a8d83888cU, 0x7e947e7f89958e87U,
  0x898c8e8a95829288U, 0x90839394888d8091U, 0x8e958f8f8285928aU, 0x7f8a958f948a8a84U,
  0x808f91818e969284U, 0x9591878f8a82978bU, 0x91918893928b7e94U, 0x8581858688909689U,
  0x92838a9289888e8cU, 0x89878b9181928b90U, 0x958f878c8e828b94U, 0x8e82908f85838b89U,
  0x8d88948180878989U, 0x8480897d8a888682U, 0x8b8d8c8a928b8886U, 0x8783948e90918980U,
  0x9383978c7f948a8dU, 0x86868b8e8f888d81U, 0x8f8d8e857f948b80U, 0x939182807f898a90U,
  0x7f898590968a9097U, 0x8b89919589958f93U, 0x8f8586868d948892U, 0x8d8b808892828494U,
  0x918e908189838c95U, 0x8a907f8183848483U, 0x8787958290908d87U, 0x898a879091817f93U,
  0x84898185958e8c90U, 0x8683888395919583U, 0x9386938f80928d92U, 0x868d84818e878996U,
  0x8f8b849294958990U, 0x84918e8f87918d94U, 0x8581879887919186U, 0x8585958198838782U,
  0x8c8c8e7f84938e85U, 0x8984908989948c8aU, 0x7e8e8f8b8c81828bU, 0x948d898486968a88U,
  0x8c7d9293958a9795U, 0x8f8d9491928c828bU, 0x8d89909188858d98U, 0x8d94898f848e8b7eU,
  0x8d92998d858e9186U, 0x878f918c87968394U, 0x8888897f8e87918aU, 0x9185828f7f889286U,
  0x909390828f818791U, 0x8c8e989182828f8dU, 0x908487958984927fU, 0x89818691928e9093U,
  0x8194818382829086U, 0x898b939185868289U, 0x9691819286919488U, 0x868d9492838f8b87U,
  0x957e8981808d8484U, 0x80858a938e8c8987U, 0x93888b8e8788857fU, 0x8f858e808f88908dU,
  0x9196869385908680U, 0x88857e9085868683U, 0x918c8593818d817dU, 0x8f8d8e9083897f7aU,
  0x828d8293838d8c90U, 0x918e968189908382U, 0x8589839182938589U, 0x8a818e9185889480U,
  0x888d8d848584958dU, 0x7e908e8c85847e88U, 0x8781838294948989U, 0x9590848983858381U,
  0x8e8b8b848e888b81U, 0x8e80838381858d8bU, 0x8e87808391878382U, 0x898c8e8f7e82848aU,
  0x8a8d878789858c85U, 0x838a948283838495U, 0x927f818c8b878e92U, 0x90949394818f8090U,
  0x84918b958e8a8682U, 0x8d918583938c938bU, 0x7d848589928c907fU, 0x7e86938b87968191U,
  0x7e83898d9397848aU, 0x899585888b889284U, 0x898e82948e919782U, 0x7a8e928696858f8bU,
  0x86838d8283917c84U, 0x869293838d938e85U, 0x8190917e88808f97U, 0x87858a8b83968a85U,
  0x8f91838786888588U, 0x898e878a83828789U, 0x8a8a8a8391938d86U, 0x7e8d7c827e8b8b8eU,
  0x8592839385938389U, 0x9788878e80829183U, 0x8d888689878d897fU, 0x8984958b928f8c86U,
  0x7e7e828183977e82U, 0x8a897f82817f8e82U, 0x888c928d8684938bU, 0x8f83837d8283828aU,
  0x8c917f8f8989878aU, 0x8a918c96848b9085U, 0x878092848c889282U, 0x8b85948c8d938b93U,
  0x8d8d877d9182828eU, 0x8183878e7f968480U, 0x9585928882879285U, 0x9084898082849596U,
  0x89928c8881809289U, 0x8682868681868893U, 0x86937f8881847f86U, 0x90808c91808c848fU,
  0x928d95858f82858aU, 0x818b877f928c8b85U, 0x8391838d83918f8dU, 0x808f94978e898b81U,
  0x84858691937c8d89U, 0x82938d878d868d8eU, 0x868a8f898f81917dU, 0x8b8280938e858e80U,
  0x878c7e8580938486U, 0x7d8e8a968785908fU, 0x85958c868e828480U, 0x8b8a8d87938b808aU,
  0x8990827b7d8e767fU, 0x8c809a8e898d8d8fU, 0x90958b998f908884U, 0x8f8d878893889886U,
  0x837e8a7f8c8c8a84U, 0x8289837c8c8a7b91U, 0x95928c907d888580U, 0x7d988983888c7e85U,
  0x959587978a99858fU, 0x7c837f7c947d8082U, 0x8095878d93817f90U, 0x8d8a8197768b8c7fU,
  0x86878592847f8e8eU, 0x94818d8a857a9183U, 0x9184788c8f8e7a96U, 0x9e8c7d8d93847988U,
  0x9384706b768a7083U, 0x7f808d97918e948dU, 0x898d7f8b8c8c8665U, 0x78907d6c7f83818eU,
  0x837198927e8c958fU, 0x7786606e757b8d65U, 0x8572666e8a6d667cU, 0x7d848d975d788b90U,
  0x938a929271968c94U, 0x7c7991848f888b7bU, 0x877d838d90808b84U, 0x7b6d759c71888978U,
  0x7a787e9780936e91U, 0x8b67719191867495U, 0x936b776c9791676fU, 0x838880818d888c8eU,
  0x8d95898792928882U, 0x93848a8b867e8693U, 0x89838990858e8e83U, 0x8e8e8c8895938085U,
  0x938b92948f958385U, 0x8d838e8a92858c8aU, 0x83848e8a8d8a8786U, 0x998c8c8188808890U,
  0x878b8d94878c8684U, 0x9085808291928590U, 0x91928b888d8a8a84U, 0x8f8a8f93888f848bU,
  0x9886988f8c8b8e86U, 0x838286878b8e9789U, 0x859392818f919489U, 0x888d8d838786838fU,
  0x8c8a7d9184829295U, 0x8d8f8a787f829086U, 0x9291868c977c9a84U, 0x8a8784828196857fU,
  0x8b8587808c888d93U, 0x8388819084818e85U, 0x8e8b887f8e94917aU, 0x7f8692927f89868bU,
  0x8c8e82928d818f7eU, 0x827e958191899985U, 0x79788b8f8f8b8190U, 0x938787838a828581U,
  0x958691898c86837fU, 0x918f8d9075958585U, 0x96869591828e937aU, 0x87848a8d7e7f9089U,
  0x947e8286837d8d8cU, 0x8393878e7f869380U, 0x958a8f9086868885U, 0x8f88808e938a9d92U,
  0x918492958d8a9693U, 0x8a7f897d918a8d99U, 0x81818c8d878d898dU, 0x8284838d9082748cU,
  0x8e82847e7d818888U, 0x8a9985898089957eU, 0x848c928d878d888bU, 0x8e918d947e908482U,
  0x838087908e8a938aU, 0x8984898c817e9a8aU, 0x85807d90807e888eU, 0x8d8f7e8188946f90U,
  0x8684696a5994657fU, 0x8581908f91908d97U, 0x7f9273878e969b5fU, 0x5c997f498b7d6d7eU,
  0x8762939184948b81U, 0x7587525664638a5cU, 0x8c5a5c5e71656767U, 0x768380954c659691U,
  0x8e8f757f5c97898aU, 0x7a648d797e938471U, 0x837477927c86988cU, 0x7941698b679d8975U,
  0x836c918c7e8e5e8aU, 0x85526887998c489aU, 0x895b6b55978b575fU, 0x8b8a8f8e8f868f86U,
  0x948d828b8b8b9787U, 0x8e8e8e8c8b918e93U, 0x8c818d8491918b85U, 0x8890909392957f8fU,
  0x8882878691868d86U, 0x95848794908a918fU, 0x93858b828182807eU, 0x8888848f81808583U,
  0x9493938586918689U, 0x9486848d8a888f8aU, 0x837f8f818886948dU, 0x939490859184858aU,
  0x968c878993849287U, 0x91969284848e9188U, 0x8d8e8983898a8391U, 0x91878f8d8a968791U,
  0x8284828d848d8591U, 0x8c7e87878484927fU, 0x7f948e9080828783U, 0x8281867f84808d7eU,
  0x8d907e8f9590878bU, 0x90838783888e8a83U, 0x808e8a95808a908fU, 0x8c91938a81869585U,
  0x87937b8d92868d88U, 0x9181848f7f978281U, 0x90948b8e8b7f9490U, 0x93848a8f8c8c9381U,
  0x8b8a8d8580868d8dU, 0x82868f7b8087858fU, 0x8180918880839081U, 0x8192908c9293808cU,
  0x86908384868f9191U, 0x948f8b878d7f918cU, 0x828b8f8283809282U, 0x8f908d7e968a8688U,
  0x85858c878d92858eU, 0x858e8f91887f8e8fU, 0x8b818f8f93928e81U, 0x7f9489887e908f84U,
  0x878f90969195837eU, 0x91918294828c8a8dU, 0x8a858782808c8b92U, 0x947f8584948c8e8cU,
  0x88928d878e938c7bU, 0x908d857e83978289U, 0x898a928689898381U, 0x818c91848184928aU,
  0x93948e87907e8f96U, 0x8795828a959a888dU, 0x8b917f878e8e7e83U, 0x928e8e8888978896U,
  0x8693868e89868290U, 0x9181858f8a8d918bU, 0x8d90938191828080U, 0x8b8d8d8593817f86U,
  0x859185858396838eU, 0x80808a8b978a948aU, 0x938a8f8e84958b8fU, 0x8b95838395877d88U,
  0x818388978d8f8c87U, 0x83969295918f8a89U, 0x907f8b8d8b958885U, 0x898083818093838aU,
  0x94827f94918e9284U, 0x7f8d898a8e918c92U, 0x8486848390817c96U, 0x8389848b898a8f8aU,
  0x90949786857e9485U, 0x9181868c91887f89U, 0x808181948981938eU, 0x839192978b8f8387U,
  0x8e86868881929090U, 0x818f868e88809188U, 0x9687928f8d8f8a91U, 0x94888d818d838682U,
  0x8c83878792809696U, 0x8e868d929387958aU, 0x94868896958a898aU, 0x8683797e828b7993U,
  0x808a827668807e86U, 0x8e8e8c8d878b8c8dU, 0x7e907b89868b7f72U, 0x808485728c857d88U,
  0x8374959a8d849491U, 0x817a606a747d876fU, 0x937272777f7d7b73U, 0x878c8d916c74878aU,
  0x8e8a7d916d8c8a91U, 0x8f84807990898a82U, 0x858d8a858d859595U, 0x87647d976f897c7cU,
  0x79778f9283947888U, 0x866a75838f8d6a93U, 0x8979847f86887d7bU, 0x7d7d8d918c8c867aU,
  0x8e8496898b7d858aU, 0x84837d969399827fU, 0x8798848492888692U, 0x858f9184818c8d91U,
  0x859495988c8b8492U, 0x848494838c8b7e8aU, 0x7d8c848d93828983U, 0x8a8194888a8c868dU,
  0x8294848298868d94U, 0x89849095878b8d8dU, 0x8c7f938c91998288U, 0x8186918a80889386U,
  0x8a867f86877b9282U, 0x908e8c7d93858993U, 0x868a8a8590848885U, 0x86868581808c8981U,
  0x94888c9184868f84U, 0x7b8f818b7e889183U, 0x878086938f898c88U, 0x8483939590908b84U,
  0x8b8b819a8489907eU, 0x8c838f979484938fU, 0x928888858197848eU, 0x8a8a85958582838aU,
  0x8e84847d8b898f82U, 0x88898794827b8580U, 0x8b8e8494858c8583U, 0x9584868c89867d91U,
  0x7a838385958a8691U, 0x878a888688759092U, 0x8d8a8585898e838cU, 0x9286858e7e7e7880U,
  0x918f786964867a7bU, 0x9088999087938c86U, 0x8390727e8b9d9066U, 0x7891797090917281U,
  0x85688e8c79888785U, 0x82936b667d73806bU, 0x956f6e7a80667769U, 0x8c957f9270767f97U,
  0x968b908668988d9fU, 0x847b97707c8c8075U, 0x9d748c91967e9a83U, 0x84626a9f6e888886U,
  0x7969838e89938096U, 0x8c606c8d98867a8aU, 0x94747c6c937e6675U, 0x95918f99918b888cU,
  0x918c726443977189U, 0x8a97959f91889f96U, 0x7c8660978f9f813bU, 0x37a17510978e0297U,
  0x8e518f8c76839594U, 0x819f46535e6c7526U, 0x8e51495f6a694940U, 0x8795818b2b658a98U,
  0x987e978951898d93U, 0x87319172779c9068U, 0xa24a809994769c90U, 0x7c3d5c91478d8470U,
  0x706f8c868d880ea4U, 0x822c449c8f7d0091U, 0x964f694f9b84622dU, 0x637f8577779aaf9aU,
  0x77848a8f8aa28b97U, 0x847873747a87888bU, 0x8471758480748c8fU, 0x89729a8d807e8484U,
  0x748e659292777588U, 0x7c7d8c907685977fU, 0x828f937779818181U, 0xaf808d8b88828777U,
  0x6e7c917884727e5cU, 0x9a7d8d9883918595U, 0x6e75799389877b87U, 0x928f7b5e8f976077U,
  0x858c9b87878b8070U, 0x76908b896e908b6cU, 0x7c7b838793908d77U, 0x938584868792888bU,
  0x849187828e8a8386U, 0x8c8c8a937f84848bU, 0x808a8c8d90918c8fU, 0x88888a9484908a8eU,
  0x838e8c8b8e918687U, 0x918d83878d8b9582U, 0x8695957f91887d7fU, 0x8987868f8c97858cU,
  0x9290927e8e8a888cU, 0x8a8d8292918d8e94U, 0x8f8a858486848c8cU, 0x858d8382948d8193U,
  0x80827e958389848eU, 0x868c8e838985948bU, 0x8a82928781928d84U, 0x83898f89887d8891U,
  0x8d8290867a7f8a84U, 0x8d8391828d898890U, 0x87938f928c977a7dU, 0x887f888a847d8f8aU,
  0x878684857d998687U, 0x828b897c848a8d89U, 0x8d8a8495818a8a84U, 0x8c8d8b9181837b91U,
  0x8f93838f8f8c8688U, 0x898c8e7f83788e84U, 0x8e8b869386839482U, 0x8881828485849384U,
  0x81828e9890829395U, 0x998f8c9288839e93U, 0x928f898e8b8b7e97U, 0x928aa18e9298808dU,
  0xa09d8977428f7e78U, 0x8a95a0958b958282U, 0x87967195a08b925cU, 0x44998321a0940b95U,
  0xa1568c8f6e8c9898U, 0x9490515770738444U, 0x96594e6682655d4bU, 0x8e94919730788d9eU,
  0x9990889767889e8fU, 0x7d3f976f80999188U, 0x974f8498957e8d9bU, 0x81427398568b8074U,
  0x88779d978f86288cU, 0x8b2f5298959b278eU, 0x875a7c628e7e7045U, 0x8a828c928b958d89U,
  0x9587838091878989U, 0x8b868e899991908dU, 0x8d91958c848d887fU, 0x86968d8d7e82837eU,
  0x869391888d908185U, 0x90907e8a8f918683U, 0x95898c8c8b848b8aU, 0x898e828b84808f91U,
  0x87979487938e8883U, 0x887f918a9194878cU, 0x878b8c928b96808eU, 0x8e8f918e93918b88U,
  0x80858c848a888b82U, 0x9a938a8c81939480U, 0x8f86948387858487U, 0x94799fa075aeca9eU,
  0xa2668ca199a4ada8U, 0x6fa1579b5397a191U, 0x705c7f718b848f99U, 0x8a96b48a619e7783U,
  0x808b9b97a24e8070U, 0x81a58d9c86959b7eU, 0x7892918683928d81U, 0xbb5b768f869d92a3U,
  0x8c6ba3658e4e6e8fU, 0x9d7d929e8aa39795U, 0x92807d8697978d64U, 0xa8908f919196597fU,
  0x97a1a2848b848292U, 0x5e84819e9b9983a1U, 0x748b9b97a59a9d89U, 0x8e8984908f8e9280U,
  0x818f928288909381U, 0x94907c898f928d8cU, 0x948089938b878a88U, 0x92818894848e8c84U,
  0x84928e807b818f93U, 0x8f8d88858886888dU, 0x82838c7e80888b82U, 0x8e8588948e858d8bU,
  0x8e87838d8a8f9289U, 0x8483958691838483U, 0x92897d8f82807b91U, 0x80888e8788818d84U,
  0x9189888a8e829281U, 0x8a9488848086878fU, 0x828f898b957f8880U, 0x8b91727d9a86727fU,
  0x8b8884837a7d6f84U, 0x948ca08393857d8dU, 0x929986887b898471U, 0x90937288898b9699U,
  0x8f718e7e80a1869cU, 0x8f77777f84838291U, 0x87867e8f897b8d85U, 0x758e977382787b7eU,
  0x829a769175a2888eU, 0x71998f6e8d72767eU, 0x8894957f78878b99U, 0x85887a92828a9d87U,
  0x7f75768d8c808c82U, 0x8f888a758f7b8983U, 0x8a8671907d81778fU, 0x8a918d8196888395U,
  0x8681948e848a7f93U, 0x8c8485808b8c8483U, 0x8a8d859495828680U, 0x919383908c819086U,
  0x8d877e818387898eU, 0x8c8593858b82967fU, 0x81857e8b8481908eU, 0x918b848e937f8f8eU,
  0x93828785828e8e82U, 0x8681938e898c868dU, 0x8e96849085898490U, 0x839193807e8a8882U,
  0x8c83989093928c89U, 0x908f8f928f84808fU, 0x90879393878b878dU, 0x8e8a938b887d9685U,
  0x868b818f8b918681U, 0x8f888d887f959586U, 0x8682919088838190U, 0x96978699888e818cU,
  0x80919085898c8a84U, 0x83898b8793828281U, 0x89898f9485938495U, 0x89848d8385887c92U,
  0x8e838d8b84918d8eU, 0x8f81808d8f8f918aU, 0x8f898b8992958a7eU, 0x859385988c938293U,
  0x8d857f90988c9484U, 0x899881878678868bU, 0x838694868f8a858dU, 0x80838684868e8081U,
  0x8e889288848a9480U, 0x908c9390908e808aU, 0x948d82859582977fU, 0x8b85938f8c7f8989U,
  0x90828b8982908f98U, 0x9092828591889280U, 0x8793887f82838e92U, 0x8597958a8a938f86U,
  0x90898a89828d897fU, 0x8f86848083919390U, 0x8c7f858f7e92948cU, 0x9783928590857b86U,
  0x7d808f8e7d8e9185U, 0x8c888e7f85948c89U, 0x818c918b93908b8fU, 0x8491829495888793U,
  0x958e848d82858a84U, 0x8a86818988928c8dU, 0x8f89848e8a898a90U, 0x8b8f86858a8e9189U,
  0x879189828089908aU, 0x7f8f8a82868e8390U, 0x818d907f94898c87U, 0x848d8c86917f8385U,
  0x7f8f878e857f8b7eU, 0x849389859182927fU, 0x918b8494928e8680U, 0x9180919488868985U,
  0x8a9283917d8e8594U, 0x848e8e817e798383U, 0x838c7f9092888492U, 0x8091918c8f898783U,
  0x8d8d8f82958f8180U, 0x907e8a9788918f8eU, 0x8a8e838f8e8c9394U, 0x8f8d8e838a878185U,
  0x848c87838d898b84U, 0x918e818a8490888fU, 0x808a978c848a878fU, 0x8e96979185939282U,
  0x95918681838e9585U, 0x898f84928f948393U, 0x937e898884828190U, 0x8b8a898888889491U,
  0x8d92958c84877f8cU, 0x88888c908d8d8983U, 0x8394937d818c8a85U, 0x838c7f884fa09c96U,
  0x824d857a7ea08492U, 0x61936a8c6f81919cU, 0x956a835c8a88a88dU, 0x76999777598c886aU,
  0x757a8e838e4c7769U, 0x7b8c8b90797f9583U, 0x818a8f707b867683U, 0xaa48638d7d7dad86U,
  0x8c73935d7c666598U, 0x9d7f888175ad847cU, 0x93767a8d9276894cU, 0x93827a8f878d7785U,
  0xa491ac868f937987U, 0x6075758295997985U, 0x6c758979a68e8876U, 0x91928d7f898b8c92U,
  0x7f958392918e8293U, 0x858f878696948d83U, 0x8b89858b898c8790U, 0x88887d8c818f9584U,
  0x9584938e91888399U, 0x888b868d96808586U, 0x918a958b918f8583U, 0x81848697868e8f8fU,
  0x8d838d8486909095U, 0x828c858e838f8e88U, 0x8a97889181918c86U, 0x82858a8c907d9093U,
  0x82808e8e8d8d888dU, 0x958d9582928f9692U, 0x959290899087908dU, 0x8794968f75a6949fU,
  0x94807268629e7c8eU, 0x6ea07092738baa9fU, 0x7b805a839f8d8b56U, 0x4ea1892d8097298cU,
  0x886d8b957c66917cU, 0x6b96566f5a698d2cU, 0x925e684f6b72465cU, 0x966f76a3466a8593U,
  0x98619e826063799eU, 0x8c429a776d9d977dU, 0xa43b6c96936c966cU, 0x8949649060ab7461U,
  0x7087908b7e9c358cU, 0x6f4444a4918b2296U, 0x72577a56a5876a31U, 0x7e7d89908590a996U,
  0x8585938d878da996U, 0x7d827e7c748a8f93U, 0x8673889184838d8fU, 0x7d76a3757d957694U,
  0x8f947796937a9190U, 0x8d8980948095977aU, 0x7d898895849b8186U, 0xa57a8194868d848dU,
  0x7a80909089668d86U, 0x91848d989492a29fU, 0x8d7d86878d9b8086U, 0xad8fa083888e7b8aU,
  0x858f8d8a7f847b8cU, 0x6d798b92807b7380U, 0x8087a57e9693927aU, 0x7e9090878d899b7eU,
  0x7a8390867b838f91U, 0x81897f7888968a88U, 0x8e8c927e878f8088U, 0x877b848b8e8a807fU,
  0x88917d988988828cU, 0x85817f8d7f868984U, 0x8f878f858a878e87U, 0x9d867e957e86817fU,
  0x7d8d838e8a838b76U, 0x927d828d80868f95U, 0x7a907c8b918d8186U, 0x8c7d837c7b8c8290U,
  0x84828083837d7b7cU, 0x87808d91848e8482U, 0x928086878094828cU, 0x8596858998909385U,
  0x8b8f939387889486U, 0x89978a8790908595U, 0x8f90898e848a8e88U, 0x8b90917e97898285U,
  0x898e7c8a90918f84U, 0x858f8a968986948eU, 0x948d898f7e82848cU, 0x85948292808c9a8dU,
  0x8e8c918885958a79U, 0x9181878d8b888983U, 0x7f90959480838a8eU, 0x92928c8495988884U,
  0x98928a887e828383U, 0x958785818b928c85U, 0x8689848186908f8cU, 0x9a8e8d90918f828dU,
  0x9d8a7b6368837485U, 0x8c9b96909b889c91U, 0x8a917d84958d8865U, 0x75966f76938a7687U,
  0x8571999476899387U, 0x848269626c687276U, 0x926c636f7e707269U, 0x7695879368727c94U,
  0x93949185689c82a2U, 0x71739b7880879274U, 0x8d7e7d9487759d7fU, 0x895d7a9f6f948a80U,
  0x6f768488958b749bU, 0x926568958f8371a1U, 0x816a6e748b78766aU, 0x908595808582977aU,
  0x848485898e808f7eU, 0x8b8091868b818790U, 0x9279887f8187868fU, 0x8e90828a88937a8cU,
  0x8f8b817f8c828485U, 0x8194918a878d918dU, 0x838f8a8f83848690U, 0x9488817d8d93768fU,
  0x8b8f837f8d7f8c91U, 0x8e88898a827b8980U, 0x7d7e9693808c8181U, 0x879081857b8a8586U,
  0x7d8385948a7c8e89U, 0x848e848f8c7c7d7dU, 0x947d8a8d798c7f8aU, 0x8389867c838d7e8bU,
  0x85878d8b8a838891U, 0x918b968e8795858cU, 0x9286928886818a79U, 0x948b7887958d9491U,
  0x877d91848c8a968eU, 0x877d827b81808f85U, 0x878b89838d8a9488U, 0x8d90938d7e888087U,
  0x82868a928e8e9094U, 0x8e968985807d8e81U, 0x8e91807f89868a80U, 0x899191868c88817fU,
  0x7f7987918e82918cU, 0x938c859183859081U, 0x817c918f858e899cU, 0x9096898c8a8e8d93U,
  0x7f8e988f87888f91U, 0x978e828d7d8c968cU, 0x827e82928a8c8493U, 0x878482949582898eU,
  0x918d93938a848b86U, 0x868e92848b938291U, 0x8b8e958f878c8681U, 0x9a868487848a998cU,
  0x848e978b917e8f81U, 0x917c848b7f8f8c89U, 0x8c74819096877f96U, 0x8d838d829683878eU,
  0x85828a83908b8787U, 0x8d8d88838a877f87U, 0x928c887e8b8c828cU, 0x8687979b9aa0a998U,
  0x8999968b7c9aa99cU, 0x8584837d8089959bU, 0x8e768f8d89759390U, 0x7c7ea87794887690U,
  0x9a876d949f85849aU, 0x8f988b8d81a19f72U, 0x8785918987958475U, 0xa890919b899aa289U,
  0x7d888d8c8d729a7eU, 0xa372879a83a19a94U, 0x7f817c888b917697U, 0x908b97767f8c6e91U,
  0xa39fa48888937176U, 0x868081947a966f7dU, 0x898da18a98949579U, 0x8f7c9a9d4dabd7a2U,
  0xa1508293a4b6b3b5U, 0x4b9c4e9745909a9aU, 0x884884577e8da6a1U, 0x8c9fcc8742a59665U,
  0x7aa599949f338268U, 0x7d9497a98898ae8bU, 0x7e979a8884968b8dU, 0xda37579a9c91b19eU,
  0x9d60a44b9c2e5e9cU, 0xb6887cac7eb18b92U, 0xa4797992a492864cU, 0xa7909d9ea39d6a7dU,
  0xb3b9bd89859095a5U, 0x419b82a395a49694U, 0x5c97a289b0b69c83U, 0x8e8b8f7d857f7988U,
  0x82948682818d7f7cU, 0x8e8d8f858f917c84U, 0x8387919683928280U, 0x87837c938b858c8dU,
  0x8c868b838a948785U, 0x80897e7f89917c90U, 0x887f818d848d848aU, 0x7d868e8a8c837a91U,
  0x8d8e869482938580U, 0x7f878f8693897e87U, 0x8b99917e8d838283U, 0x868b8e88828c9b87U,
  0x7c858e817c8e828eU, 0x8c89979088848c84U, 0x94878f83927e868eU, 0x677c90908fa8ae9fU,
  0x7994919b8f9c9e92U, 0x9588796d7da78285U, 0x7f73808c9472928dU, 0x8067a28c8f8d8b8fU,
  0x839a66a68a889095U, 0xa184969982879c8cU, 0x85929283758c8c8eU, 0xaf888e9990909f78U,
  0x6e8a888a8a6c906aU, 0x987d8792849aa2a6U, 0x777570968b837d86U, 0xa2948b6293986874U,
  0x998c9e8e918c7d76U, 0x7e918c995d968371U, 0x988c918f9b999782U, 0x89897f7e90868c92U,
  0x878b898d7d8a9382U, 0x80918c8b8398857eU, 0x867e8e928c847f85U, 0x9185898f838c8c87U,
  0x918d83858c7f828eU, 0x86808a7e8b868b90U, 0x838d8b8387867e84U, 0x9c88908a8c878190U,
  0x918d898287899491U, 0x848781878384868aU, 0x7a8d87958788848dU, 0x878b8b908c8a7889U,
  0x857d849282807c85U, 0x84887f849070887dU, 0x817d8185878d8f8fU, 0x9597ad9f8ba19eb3U,
  0x9d80686b52a48a8aU, 0x819871a8698fb49cU, 0x7a75647e979b9068U, 0x43a3942978a71883U,
  0x995e9ead846d967aU, 0x76aa68684f76882dU, 0x975c6b5b696d4c5aU, 0xa88572a83d7d8ca8U,
  0x9059a8786e6a80a3U, 0x8d37988671b4a07fU, 0xa435539ca1819370U, 0x8c47729f63a9635aU,
  0x787b968f7aaa38a7U, 0x714b48ab927c2ba2U, 0x784b874aa4916d29U, 0x8d8b8b8f85847e90U,
  0x8c8c8b85838a878dU, 0x8b8f848d8e949192U, 0x888e848f857f8a81U, 0x8e81838f868d868eU,
  0x8387858e8697918bU, 0x91839287958c8289U, 0x928a888d8d95898cU, 0x818b847c908e9986U,
  0x8b928b8c86909593U, 0x8d8b92898e948793U, 0x8c8c918c8f87908dU, 0x888f868389848f83U,
  0x96948791848e8980U, 0x9181908a869b7e82U, 0x939195828c8e8189U, 0x8089968295918282U,
  0x8f9a939182928781U, 0x8a80998b8a8e878bU, 0x98838f978b8b8f86U, 0x907f858c868c8889U,
  0x8680808799888693U, 0x92818f907f8a8b82U, 0x828a89918f939084U, 0x8a9794808d7e9681U,
  0x7f80929382958486U, 0x8f90938585968981U, 0x94908a7f8c7e8099U, 0x86827e8695887e88U,
  0x81918c838d897f86U, 0x888d858a8a998683U, 0x8688887f988d8586U, 0x8b9492838d80897dU,
  0x957b918d917e9394U, 0x8b8b8f8a8d818d86U, 0x828f898a8f8e7783U, 0x8d8a8f817e88908eU,
  0x929496908c8c827eU, 0x928b8a877d8c8792U, 0x9081838983968994U, 0x977c8e8a93838291U,
  0x937e8c838084838cU, 0x8c9183827f7e8f91U, 0x8284917f8b868a7eU, 0x8382808c858e8f87U,
  0x7e8b8c848a7b9286U, 0x7c958c8b817b8397U, 0x8089948e7e899482U, 0xc4a4e0e584b7aca8U,
  0xc07c7f827f9f929aU, 0x82cf71c557c7d6a2U, 0x446e6a8eb9ac8786U, 0x73ba918789d76c9fU,
  0xaf90b7eb8d62b897U, 0x87e0858f608d8d7bU, 0xa07c896b4b8d7171U, 0xb37472d8848877c9U,
  0xcb43ff857a5691caU, 0x8c5db1806baaeca2U, 0xd8421bc4f088b37bU, 0xa68a88cc89c61259U,
  0x6d99899569b074c4U, 0x738e66ecb76d6ab9U, 0x9277936e9e938767U, 0x3e83b49f3d7fde37U,
  0xbdd41330bc1a7452U, 0xbd8a9f223d690982U, 0x3d639069bd819abbU, 0x3d748988bddaa0eaU,
  0xbbcd13b8bdb8aa3fU, 0x3d00eff53d5447c5U, 0xbd894140bd845a36U, 0xbd94929bbd8950a7U,
  0xbdd1619abd7cd634U, 0x3d8285f4bd1eeec6U, 0xbd89dce3be67e557U, 0xbde18a75bd45fcdfU,
  0x3d286e183b192525U, 0x39ff980cbd45f4f4U, 0x3df115b5be8bc18aU, 0xbdadb16cbd5ca073U,
  0x3d83f0c6bd783279U, 0xbe5ba1243d6696aaU, 0xbd8b476bbcb0817aU, 0x3a073871bd8492baU,
  0xbd4cc3653d14257aU, 0xbe1296a73d27ef73U, 0x3cb3e4243df7acd6U, 0x3d9294ecbd560aaaU,
  0xbd9af60cbd95ad70U, 0x3dc45a5fbe255785U, 0xbd988c8ebd6b1691U, 0x3e8b9ac53ca75cf3U,
  0xbe7373373d4b0be6U, 0x3cf53314bd660591U, 0x3d64186ebd82d22aU, 0x3d7a44223d1822d3U,
  0xbc0118c5bdd9478bU, 0xbe35ce8dbdbe7924U, 0x3d7b06703cc92af4U, 0x3d224ee83d6f3f63U,
  0xbd9eed413d40d06cU, 0xbda6d040bcc7c3aaU, 0x3dce578f3d91d512U, 0x3d6c86713e703317U,
  0xbd8c1a9f3c8a043fU, 0x3d5e5ac23dd86cd4U, 0xbd8cdedbbd9955deU, 0x3d8743fa3d3ecef7U,
  0xbdca0b6e3cb51381U, 0x3e41d8fb3d41181eU, 0xbda39e0bbe86b5a7U, 0xbd03ab993d032caeU,
  0xbd71abc1be8ddadfU, 0xbccc6c0bbe8f4ecbU, 0xbd89d5ba3debd29dU, 0xbd86a3f33d353b00U,
  0x3d36b9fdbd971ef1U, 0x3d7737edbe1455aaU, 0xbe52c480be5c1a9bU, 0x3cc52bd6be0e93b9U,
  0xbdb341f73e348e4fU, 0x3d01a545bd50dab1U, 0xbe9b718ebe332d96U, 0xbe378e69bc28fed5U,
  0xbe928d57bcf4cbf6U, 0xbd77bf36bd3c8caaU, 0xbed7f0553d31b0e7U, 0x3e4bc2b73b293320U,
  0xbb051a5abcb253b1U, 0xbb743ef83be54f52U, 0x3b217293bb25f8e2U, 0xbc32deb5bd9a2c7dU,
  0xbcba3690bcc2ee8eU, 0xbbfcfcb1baa98cffU, 0x3c840c33bc80a617U, 0xbc7885edbbbaa46dU,
  0xbd18a3a7bb0c5fd3U, 0x3c7e68c0bd20d0d3U, 0x39e214763d9ecbf2U, 0xb9ae4231ba903474U,
  0x3c9cbbe2bc6cd169U, 0xbb76325138543e5aU, 0x3d89094ebe255399U, 0xbbb21577baa24ed3U,
  0x3ada3576babf05afU, 0x3c568fce39b61f14U, 0xbc17512e39d4ded2U, 0xbd7e42483b0a1cd2U,
  0xbb25e10f3b321c40U, 0xbc341815bae057c1U, 0x3b2545263e1c882aU, 0x3c82b9e7ba0d159fU,
  0xbac43fa1bb006d32U, 0x3e078fb7bdb0f35eU, 0xbbfc3fdabb8012b8U, 0x3e4db126bb0bbdeeU,
  0xbe07160e3c42ec6bU, 0x3bb272d4bbca3be4U, 0xbab16f4f3b4162ffU, 0xb921dc81bbe574e4U,
  0xbd533065bcad2284U, 0xbe34143ebab8c2aeU, 0x3b22b252bab785b5U, 0xbb8385eb3bda8b6eU,
  0xbb60360bba3b83afU, 0xbc27e337bbba8766U, 0x3d0875b8baf7aa65U, 0x3af342913dbbf1a0U,
  0x3baa39e3bc734cc6U, 0x3b08100a3e0d8a93U, 0xbbb85900bc426fd2U, 0x3c3b513d3b19534bU,
  0xbaf10ee33d6c4bcdU, 0x3de74618bb0e627dU, 0xbd6fc9ebbe89db7dU, 0x3c69ef8a393b0709U,
  0xbaa66b25be5b0c1dU, 0x3a03acacbc61a391U, 0xbad0795e3d91f28eU, 0xbb8a5a923b7e176bU,
  0xbaada2e8bb3a782eU, 0x3c25aaf43dc29313U, 0xbdf4f17ebe6898d5U, 0x3af348e5bd119644U,
  0xbbccc1653e0b0f78U, 0xbc6405663c1bad28U, 0x3e10bf9abdd31d26U, 0xbcf83a0b3c9825c4U,
  0xbe6f366fbb265229U, 0xbaa4d73a3a951be0U, 0x3e68e1a7bb6409bcU, 0xba8d263f3d920536U,
  0xbbf9463dbd3294d5U, 0x3c15309abafc1b61U, 0x3a21e2ec3937eb62U, 0xbd02cf703a15fa11U,
  0xbc7d804dbb31ac55U, 0xbb095f37bc1851ecU, 0xbc44a4dbbc82f47bU, 0xbad9a7783b32a202U,
  0x3bac370cbb94748fU, 0xbc9a9131bde41da4U, 0xbe60e4d23ca06e62U, 0x3b38af213a89e25fU,
  0xbc318367bc4a4ff1U, 0x3a2b12f53cca11f4U, 0xbe318812ba03e186U, 0xbab02d14bd46ece8U,
  0x3ac46ab2bad374cfU, 0xb98d3c5f3afb7a16U, 0xbb0b3e1bbc478e7bU, 0x3b9a043fbbc70a2fU,
  0x3acdfe72bd9b7402U, 0xbba475ecbb2bbe49U, 0xbe68a130bd88ff8fU, 0x3a224caa3a2d2b95U,
  0x3a2c314d3cbcfb02U, 0xbd8fae38bb03cedcU, 0x3b38a4a53e3c136dU, 0xbb2bfac53aa03543U,
  0x3c649d9dbd0ae65dU, 0xbb325affbe0929dfU, 0x3bb0ce893b93b960U, 0xba125e7bbb5a825dU,
  0xbc3f8f16baa93c61U, 0x3b9a4a5b3cba90dfU, 0x3c6acf693cb3b947U, 0x3bae6fb03afb3d4aU,
  0xb8870728ba242ec8U, 0x3ada245ab903d8aeU, 0xbacf95a7bbefc69bU, 0xbd1cb76d3d4057b2U,
  0xbb8399893b2e8a43U, 0xbe3c7e233bbeb3e5U, 0xbbb1ebb03b50ae47U, 0x3a0206c139bbe9d2U,
  0xbd0620553bdb2bf6U, 0xbb4a5186ba9f3038U, 0xbde28b74bd1de07dU, 0xbafe78cd3b4cb491U,
  0xbdc16b4d3cce5338U, 0xbe82c77e3a448888U, 0x3d86cef93a121c98U, 0xba6320083b06f4a2U,
  0xbabca2463b7740f3U, 0xbde3cd1a3a550631U, 0x3ba755783b9b6a06U, 0xbca6052fbde626f5U,
  0xbd3a7ee43b005e9fU, 0x3c65806dbbed3287U, 0xbdadfeb9bb0e54bcU, 0x3cf4091fbe11b2adU,
  0x3b8734d9bd49b4f5U, 0x3b81be3f3db8e322U, 0xbb2d8c6e3b0fb033U, 0x3e5cae673ede4fcbU,
};


ai_handle g_network_weights_table[1 + 2] = {
  AI_HANDLE_PTR(AI_MAGIC_MARKER),
  AI_HANDLE_PTR(s_network_weights_array_u64),
  AI_HANDLE_PTR(AI_MAGIC_MARKER),
};

