/**
  ******************************************************************************
  * @file    network_data_params.c
  * @author  AST Embedded Analytics Research Platform
  * @date    Sat Jan  6 19:25:16 2024
  * @brief   AI Tool Automatic Code Generator for Embedded NN computing
  ******************************************************************************
  * Copyright (c) 2024 STMicroelectronics.
  * All rights reserved.
  *
  * This software is licensed under terms that can be found in the LICENSE file
  * in the root directory of this software component.
  * If no LICENSE file comes with this software, it is provided AS-IS.
  ******************************************************************************
  */

#include "network_data_params.h"


/**  Activations Section  ****************************************************/
ai_handle g_network_activations_table[1 + 2] = {
  AI_HANDLE_PTR(AI_MAGIC_MARKER),
  AI_HANDLE_PTR(NULL),
  AI_HANDLE_PTR(AI_MAGIC_MARKER),
};




/**  Weights Section  ********************************************************/
AI_ALIGNED(32)
const ai_u64 s_network_weights_array_u64[5605] = {
  0xc002cf14U, 0x3f31e5a93eed73c7U, 0x3d3bd6893e8f5e0cU, 0xbd332e34bf0c336cU,
  0xbd1f5a803eb9f209U, 0xbebb8f7ebe20fa57U, 0x3ed64b6a3e97f31aU, 0x3ed038abbeb8bc89U,
  0x3e00e0163e19461fU, 0x3ebdb83a3e369049U, 0x3e43b09bbda37c21U, 0xbd001dbe3e1a2242U,
  0xbe76850c3e6d5587U, 0xbea94ac0be0ce524U, 0xbedcad313f524babU, 0xbe9bca5d3d8c09c7U,
  0x3e807a05be7f403cU, 0x3efc6852bf2c68feU, 0x3f3af7c5bea8da22U, 0xbe804b673de9710eU,
  0x3ddaf9d63f211989U, 0xbde1ca813c7823ddU, 0x3e14acdb3c289df6U, 0x3e424febbe1f3751U,
  0x3ecf4c193ecce7bcU, 0x3dd893ffbddacadbU, 0x3e1814ec3dd96559U, 0xbf85b447bf0c5ca5U,
  0xbf0fbaddbe829975U, 0xbe05f4ac3f83e519U, 0x3e598bd93e0f9220U, 0x3e831aeb3de36155U,
  0xbdce74ecbe532258U, 0x3f0dccd5beb40b44U, 0x3dbd16b63d94be69U, 0x3ee1b76abe244effU,
  0xbf4ff2debecd6172U, 0x3ef481c3be9edb1eU, 0x3e983b653e80a796U, 0xbf8ea621bf1aaae1U,
  0xbea16740bf093794U, 0x3ea400b53f58da7cU, 0xbe9a151b3e66a9aaU, 0x3eb13d45be339f2fU,
  0x3eb4fce0be64d855U, 0x3ee9376ebd847fa2U, 0xbe3a57c4bee9927fU, 0x3d4bb7c33f09682cU,
  0x3f126d3dbe43905cU, 0xbf05041e3e1e0990U, 0x3ec07d9abf580a09U, 0xbf043de7be556f23U,
  0xbe1ba0f4bed47ba9U, 0xbded04263e680ea9U, 0x3eb4a4bbbe8d6956U, 0xbe255583beada4e1U,
  0xbf0c86b3bf15f22bU, 0x3f83c0d7beafb40eU, 0xbc8eb0773e950a3bU, 0xbe9b6c95bf0199d9U,
  0x3e81e83ebd81a5d0U, 0x3d0bfc78bef4151eU, 0x3ceaaeefbf1581a1U, 0xbdf0a06c3d58a9d8U,
  0xbd17f451bebed3d8U, 0xbe7ced9fbf124f47U, 0x3f80d727bf049438U, 0x3bfc1fc1bd8d2c85U,
  0xbe10012d3e19ff29U, 0xbeb1ab6c3ef01598U, 0xbed2e9b0be586805U, 0x3d827689bf617bcbU,
  0x3e8ec6e5bd7a20aaU, 0x3f1390bdbe79c15dU, 0xbea56d4fbf0ff6deU, 0x3ef01f9ebcdafc14U,
  0x3ea75fb23f0ec1a5U, 0x3d8a3be1befe2b69U, 0xbecc93ecbe84c323U, 0x3f3aaa8dbe4f158bU,
  0xbdf85e8bbf17d3d3U, 0x3e91cde93e4db295U, 0x3ed22866be87fc25U, 0x3dcf9b623e204a60U,
  0x3edf77e9bed8b981U, 0xbec0a79cbd530391U, 0x3d0f7be83f61c744U, 0xbf1f8e9fbeb85bd3U,
  0x3e7ef5f43d833851U, 0xbe40fa25be170e92U, 0xbf109420bc20eceaU, 0x3eaafaa83ea92586U,
  0xbd5377dbbeec9496U, 0x3e0683633c850460U, 0x3e5d432abe9b3582U, 0x3e3192a83eac5bd4U,
  0xbeace03fbe22571aU, 0xbcc600ef3db50c82U, 0x3e96610dbe77c321U, 0x3d0c45473ee1a287U,
  0x3c85df04bb50a54bU, 0x3e891c8cbd1bc885U, 0xbf31e7b5be5ff191U, 0x3e8ca5acbe53f4c9U,
  0x3cda5bed3e8479f3U, 0xbf302249bec4faa1U, 0xbdf07944bf010cb9U, 0x3ef3e79b3eb7ee41U,
  0xbf1c920f3c497939U, 0xbe91551ebea7acfeU, 0x3d8db50d3f5a2afdU, 0x3ed8c4e3be1aa9f5U,
  0xbecbef57beab1b36U, 0xbd2f08df3f7f4438U, 0xbf36cabcbe8082eeU, 0x3efa74fb3d392840U,
  0xbeb442203eb21073U, 0xbf2e687fbe5849cbU, 0x3ed696fd3e54e514U, 0x3d2dc3133f316ad2U,
  0xbd93a0803d5d4394U, 0xbe4e0912beecee86U, 0x3e425c59bf545406U, 0xbeae65e3bccfd438U,
  0x3e3f0483be571114U, 0xbde584c1bf07ce13U, 0xbeb7aa743e9ed959U, 0xbe8f35943ed18c6bU,
  0x3c3d6ab2bf587acbU, 0x3cdd83b8bd5839a9U, 0x3f010447be963132U, 0x3e8d96b6bf1e0c89U,
  0x3f0413f53e879de1U, 0x3f2024f5be38a621U, 0x3e2d57abbf0f94ccU, 0x3c1ee7083ebca423U,
  0xbea8311b3d6c33a4U, 0x3e545574bf2c5209U, 0x3f27cdaabef2a2c1U, 0x3ef523963eb78b6eU,
  0xbebf114bbdd8e53fU, 0x3ead58d83c8f4956U, 0x3dfc416dbf013399U, 0x3d04ba0cbf088e6eU,
  0xbee39d28be831673U, 0xbf10a50fbe697161U, 0x3ea963583f842f85U, 0xbeb000f8bd1dd220U,
  0xbeea1870be3ef88dU, 0x3e544897bf6bd7daU, 0xbf44c581beb5a9f0U, 0xbcd482ca3d88e438U,
  0x3e0ddbf9becb291fU, 0xbeab774cbdf542eaU, 0xbf1375bbbdd1e062U, 0xbd80afa73f7b8e24U,
  0xbe3342e83e6002b3U, 0x3dad726ebdaa95d2U, 0xbf18ceaf3e158a7dU, 0x3f379e093d5b5717U,
  0x3de79262be8c3df1U, 0x3dfaf7d63efd5729U, 0xbe9eb2b43da325eaU, 0x3ebbf276be59453fU,
  0xbeb0fea33ea31f00U, 0xbf13f9c0bd9f4b0fU, 0xbdab5374bf09ab01U, 0x3e995ababe1b951cU,
  0xbed69b593c37c98eU, 0x3f032219be84928fU, 0x3dc16a7ebf1b2aecU, 0xbe18052d3e199ba6U,
  0xbbf976aa3cd20eb6U, 0xbe7045c0bd17413dU, 0xbf528edcbee58b5fU, 0x3f0f60e8bd85be1eU,
  0xbea7bc8fbec538feU, 0x3e5bf3f43e021939U, 0x3f05d32a3e4ff3b8U, 0xbeedfafe3ef5420aU,
  0x3f077e31bd1a5796U, 0xbef4bbe3be0303f7U, 0xbde2ef803f891a71U, 0xbf37f5bdbe5e3867U,
  0xbd1d11a2bd927db4U, 0x3ce2602b3e18ed72U, 0xbf67768ebf04f797U, 0x3e91333dbe0a4788U,
  0xbe4990c93e6d6bfcU, 0xbf010e903e41ada9U, 0xbe1dc9b7bebb9e3bU, 0x3ecd1c923f2b758bU,
  0x3f3a6c6bbec17aa5U, 0x3da7cf86bf00f2e3U, 0x3e0896b13f0956dcU, 0xbe9cca0c3ea9ef58U,
  0x3d1b628c3d393727U, 0x3c57cdb4bd45363dU, 0xbde7b8e3bb3d6c46U, 0xbe0c3308bdda94d5U,
  0xbdd7933abc002444U, 0xbe0faa75be5536c1U, 0xbe029cf8be367c6cU, 0xbdc3583ebe94f6ecU,
  0xbdfce3febe331384U, 0xbd0934fabe097cf2U, 0xbdec9380be6f0c48U, 0xbc33cc26bd1bf0d0U,
  0x3bbdff25bde2fbfdU, 0xbdd49ababe69586cU, 0xbd83749fbd4f2fb9U, 0xbaba34f73cf512eaU,
  0x3cfeb026be3e07e7U, 0xbe483bf9bd067d0cU, 0xbd508e843e13353cU, 0x3d7b2b49bcb2e030U,
  0xbe44963dbe0ebbf3U, 0xbeb088e3be9f4aacU, 0xbddadaef3cde4b5dU, 0xbdb37259be219b64U,
  0x3bfcf4873cf0bfcaU, 0x3ccc9e4fbe5fb5fdU, 0xbdbe4085bd50fcb3U, 0xbdc5f158bebed2bbU,
  0xbe664c963db899f4U, 0xbe3895a03e57ff53U, 0xbd44f4933d3e5c94U, 0xbd9df6793eb3b0ceU,
  0x3d57a503be6e768bU, 0xbe2d6729be14ae77U, 0x3e412525ba9ef289U, 0xbe371905be8e4346U,
  0xbdf7765bbdcf2d69U, 0xbd0cb8e2bd9a526cU, 0x3cf117693d88eacfU, 0x3e2215dc3db3a18bU,
  0xbe824e2dbe6f98a7U, 0xbcb1f27d3e8db7b7U, 0xbd8b8203be097de8U, 0xbe0fdbc5bebd3abdU,
  0xbdd9a743bde9be39U, 0xbcb93239be15979aU, 0xbdde3791be01d766U, 0x3df741f9be1b83e3U,
  0xbccff890be2bb391U, 0xbc07f9f63e9a4a6cU, 0xbd7d4d94be9ab25aU, 0x3da5debabec28bb0U,
  0x3e5d37653db8b289U, 0x3bed30b63daec9d7U, 0x3e08147bbd99adfdU, 0xbd94a459be24c0b6U,
  0xbe4e0d6ebe90ab6eU, 0x3d67f02abeb3cbffU, 0xbde49458bdb009f4U, 0x3d75a1debde5297aU,
  0xbd806f8fbe4b4719U, 0xbe7bf7ae3d95ec3aU, 0xbd352eeebe10c043U, 0xbe2feb493dae62d8U,
  0x3e0a1c13be13e6b6U, 0xbc6d36f7bc670f41U, 0x3d585a7f3d826ba7U, 0x3cdc112d3ddc48c4U,
  0xbd5ae4363da1b45fU, 0x3db72146bd8e8772U, 0xbccf9d1c3dd4e843U, 0xbe042e0b3e104fa1U,
  0x3d0dce1d3ca0adeeU, 0x3d633abf3df21dc6U, 0xbe2b004d3def4a19U, 0xbe4dac613da299f8U,
  0xbdbba3243e1da8cfU, 0xbdfb014d3d8cee12U, 0x3d9a33233dad390cU, 0xbb94aef1be05842cU,
  0x3da94db43e1cfca2U, 0x3d93db34bd940ef6U, 0x3d076ca0bd783ecaU, 0xbd805fb43d20e13fU,
  0x3dcf4517bdab53abU, 0x3e05b14a3e2a6b22U, 0x3d04ff3ebdb5f7a2U, 0x3dc4b3d33e1cf2c0U,
  0xbe1e0d15be11187cU, 0xbdc7ac293cc34471U, 0xbdfb2d483d0b396aU, 0xbe2559fcbc32d8d9U,
  0xbd75d261bdcc006fU, 0x3e0c52c4bd620bcdU, 0xbd82c8563cefe204U, 0xbd9bdfd3be349cb1U,
  0xbd418f7b3e124eeeU, 0xbe08f4ee3c905291U, 0xbdc0a69e3e067aceU, 0xbcf478263e051516U,
  0xbda14b4b3d812e0cU, 0xbd0578cbbcce270dU, 0xbdb97cafbdad8fdaU, 0xbe2c24ebbd9f5550U,
  0x3da17488bd398857U, 0x3cb06b2fbe850649U, 0xbe380f493d86ea67U, 0xbd9d0a7a3e0977c0U,
  0xbdbaa193be10c8abU, 0x3c3440c6bdcc62ccU, 0xbc9511563b9628d7U, 0xbd0ceab23e0bb0f4U,
  0xbe40724ebe711700U, 0xbd3cd1e8bdf38286U, 0x3d9242233d8b3cdeU, 0x3d0f110f3daf4ddfU,
  0xbe0b69ae3dab3854U, 0xbde46b8e3d4a99e2U, 0xbdb91202bd0f78d4U, 0x3d2aa1a73be9a4a1U,
  0xbe7886763e4755c5U, 0xbc672c023e17af5eU, 0x3df3418ebe0b4d7cU, 0xbe174efb3dcb8f92U,
  0xbe722ab73ddcb8c0U, 0xbd427e99bb40ed0aU, 0xbdb7330a3db2e585U, 0x3dd7f11cbcc68400U,
  0x3b090da9bcab0c38U, 0x3df0006d3cb35e2dU, 0xbdb06eb6bd55ebdeU, 0x3c2402803d53c8f2U,
  0x3e4fc2f7bdfac11bU, 0xbcc02ae1bc901665U, 0x3e64609d3e544abbU, 0xbc222642bba64458U,
  0xbd15dbac3e311f1dU, 0x3d6f28c7bd0d1f4aU, 0xbd61c0e73e18b057U, 0x3d92a2b13dddb3f2U,
  0xbca6dc24bd4af271U, 0x3d125085be108eb1U, 0x3d158409bd7edb80U, 0xbd8f76a13e611667U,
  0xbd78df633e4ee2eaU, 0xbdb188a8bd330153U, 0x3d9bf4f63ca405e8U, 0xbe2506b53ddff937U,
  0xbd5278d2bcd88055U, 0xbb26ed123d82fa71U, 0xbced0bb23df3357bU, 0xbc91e56dbd4d6dedU,
  0xbcfe70053e6dc89cU, 0xbe0b58f23e0047d1U, 0x3c9612563d8b99ccU, 0xbdea9d0f3da5e896U,
  0x3eb6b6063e626807U, 0xbe797a8fbd1903a3U, 0xbe57d9593c9cd580U, 0xbc2634ef3d0880cbU,
  0xbea01aa33d4b76cdU, 0x3de913dbba67ebadU, 0x3cec3724bd615ae8U, 0x3d1af3cabda39666U,
  0x3e4dcb26bdfb1bfaU, 0x3db0ffc73e2d0047U, 0xbcce9cfbbcd096acU, 0x3d9a81f53d5f6877U,
  0xbd81c7d03e0f99c6U, 0x3df8bd70bc43e84aU, 0xbe593b6ebd2dd70fU, 0x3d820628bcfce980U,
  0xbd55118c3d9af028U, 0x3cfd41173b4235f7U, 0xbdf8aba73e48f9ddU, 0x3d8fe673bda12e7eU,
  0x3e401d3c3da74d86U, 0x3d111306b9ed59c2U, 0xbe640e413d2a44c7U, 0x3e84a392bcfe404dU,
  0x3dbe76b8be1516d3U, 0x3d9dff693d79f33fU, 0xbdc9e219be019362U, 0x3cfe5a6839fe66d7U,
  0xbc41c063be2243e7U, 0x3d344328bd4367d0U, 0xbd90c4053ddb3b86U, 0x3cb06e03bda4eea4U,
  0x3d8084c4bd266ecaU, 0x3d3bbfd23b90877bU, 0xbdd93dccbdff9bdeU, 0x3dd45c363e2d8f2cU,
  0xbd660e253e158d56U, 0x3b7e535abe094c8cU, 0x3dd2ad11bd0366f4U, 0x3d49a998be4e8098U,
  0xbd151b74bb4bba8aU, 0x3df777b0bd7aeaadU, 0x3e54d22e3eb04684U, 0x3dc29fef3c04c1d2U,
  0xbdeb5abb3e95db77U, 0xbda852b83e2a1b30U, 0xbe85c78a3e300f7fU, 0x3c3da7c33e8c2d46U,
  0x3e15bd21bdcf00cdU, 0xbef95a173dc672e0U, 0xbec0220a3d2fc337U, 0xbe5ae4773ec6aeacU,
  0x3d1816c93e45e506U, 0x3e65ed2f3e4a7e6bU, 0xbe930a8dbe59a902U, 0x3de381943e2db304U,
  0x3eda7df23d527333U, 0x3e837f18be371ceeU, 0x3d326cab3e1ca195U, 0x3eb057b13e3c9ff6U,
  0x3e5d63d13e0f1155U, 0x3da6d3e53beea979U, 0x3ea00af43df0f7c0U, 0xbd7767babe2a1127U,
  0xbd672d0a3ddbe52eU, 0x3e3ed2cebd366940U, 0xbe67a7e53ef1527aU, 0x3d2f3d98be0f6b0bU,
  0xbe016758bde7dc3aU, 0xbe1d1c043d07c4aeU, 0xbe370e8abe894842U, 0xbe97014f3e2cb323U,
  0xbe274e4bbda1715eU, 0xbea8505e3e35a59aU, 0x3e93db343ef29ebbU, 0xbcca63ce3edc56faU,
  0xbd77409fbe2fec1bU, 0xbe2d0c543d9421a1U, 0xbe6c0ce83cfd0a53U, 0x3e9a6ca93e355b37U,
  0x3d356aa3bea3837eU, 0x3e0995a43e0b3714U, 0xbe3ae4e53e37aac2U, 0x3e4cc218bda696c2U,
  0x3e3b3647be3dccb0U, 0xbd7aa8e53e20df2eU, 0xbe9d25c73ed62f95U, 0xbe9e5fd6bd9c7ac7U,
  0xbd7d4af6be2e75aaU, 0x3e2c19a43ed2d37cU, 0x3e725c503c5d9a7fU, 0xbdbb24dd3e0a17f6U,
  0x3dc97b943ca355ebU, 0xbe632a983e7dc22aU, 0xbda976d93e2ba392U, 0xbd8784cc3e053f06U,
  0x3dc932113dd2322cU, 0x3ebb1563bda65cb0U, 0xbd9c0be53ead50c0U, 0xbe44612b3cc06d50U,
  0x3e5968e3bd973071U, 0x3e191ad03ee66e47U, 0x3cc840a53e12fe1aU, 0xbdd8a6fcbe7258eaU,
  0x3c28039a3e472961U, 0xbdf15719bce80c2eU, 0x3db08e123e61d533U, 0x3e29a400bdbda668U,
  0xbe483b07be34321bU, 0x3e7b8c893e5c6de6U, 0xbde655d73d684249U, 0xbd19749c3e521cabU,
  0x3e1945abbcc7c7adU, 0xbd456b333dc30e9aU, 0xbb8b08123e17999eU, 0x3d9dce55bd8f6637U,
  0xbdd293e9bda28bc7U, 0xbe14c4bcbdacbe6aU, 0xbde5e9743e3fe316U, 0xbc167b563e3d0af1U,
  0xbe2af36ebddb89c0U, 0xbe0e2ef4bd14e49cU, 0xbe5f2d9cbd41f295U, 0xbe6542dbbd8d0c91U,
  0xbe18a78abdaecc17U, 0xbba2cc443dd009b4U, 0xbc466780bdc95aa9U, 0xbdb48ca83e9efeb2U,
  0xbe12ed23bd1937c7U, 0xbd55276ebd4d727dU, 0xbd9f5d7f3d9e0e66U, 0x3e10b4973e1dcb50U,
  0xbe02eaa2bd120bf3U, 0xbdb2dcb93ba4f036U, 0x3d00b8c53de45a4aU, 0xbde3f0b8bd880a97U,
  0x3dd2aba13dc6c023U, 0x3dbbcf84be098202U, 0xbe0e0326bc81885dU, 0x3de8b090bddc6696U,
  0x3d6332783ecb1187U, 0x3e11c2d8bdcacb45U, 0x3dd07c36bd616df6U, 0xbe7812233cfeef6fU,
  0xbd52b8b0bd5ee4aeU, 0xbde4c253bd68d53cU, 0xbe093e34bc5a9005U, 0x3d0241b93e2c8cabU,
  0xbd4ba14a3c76f677U, 0x3cb4bcb53e3f5efdU, 0xbdd4c67cbde3605fU, 0x3cb12793bd8eac7eU,
  0xbd6dfff7bd3660e8U, 0xbe3036aebdb0c9adU, 0x3db2c572bdc819fdU, 0x3e1bbe86be1af127U,
  0x3c4bae99bdac1953U, 0x3d368c49be43b095U, 0xbe667093bde17c35U, 0xbda85905bdac4090U,
  0xbc99f7743caa38fdU, 0xbdedd826bd2724eeU, 0x3e62ade8bdc028e0U, 0x3e00d4d4bd199dacU,
  0x3d607fffbe243480U, 0x3daa1157bd9fdd7eU, 0xbc16fe93be0f1284U, 0xbbee33b63dac404fU,
  0x3e027e3b3d498ee3U, 0x3e2e60b7bd06a8c0U, 0x3d8ad0d4be468525U, 0x3e0822ee3d7684abU,
  0xbe15729f3ba2874aU, 0x3e31a5483ea49c32U, 0x3e31eb633d3ad2d6U, 0x3ce8ada23ed94150U,
  0x3df780b1bd9c0414U, 0xbdd012523de228a9U, 0x3e63858b3ed07c50U, 0x3ea20ba7be716215U,
  0xbedae718bdbd7ae8U, 0xbe4faeaf3d4e4491U, 0xbea448b23ed34a49U, 0x3e1310bcbc2d1326U,
  0x3eb85f5c3e97a120U, 0xbe973db5be2798c7U, 0x3e2b97693ea4e68bU, 0x3ebb25193ddd5897U,
  0x3e2b7a5cbea03dd3U, 0xbd5059b73df311aeU, 0x3ec4fb4d3dec4d29U, 0xbdb4680b3e3d7ed5U,
  0x3e91d92cbe04299fU, 0x3ec91e93bd7f158bU, 0xbe14e7d3be938063U, 0x3e1c3aa5be855cb7U,
  0x3e08ca7c3d29a901U, 0x3c4911e63f315ce2U, 0x3da00c56be9e9073U, 0x3e6be285bed1a4bfU,
  0xbe74ad233e36201eU, 0xbe0278c0bef483b9U, 0xbea1254b3e9ff5b0U, 0xbc6ab6473dd98cacU,
  0xbf0ad2753e6b9ecbU, 0x3ed2dd1b3f071050U, 0xbd5358d43e934481U, 0x3d2fd9313e1325f8U,
  0x3c84afc73e468dceU, 0xbe9defba3da5d124U, 0x3d34f7853e2a9db3U, 0xbd7ae0bdbefd89fdU,
  0x3e91d919bd431a0fU, 0xbcf069c3bd8e187cU, 0x3eb5b7ab3a34d164U, 0x3e2ee5aebde0f59eU,
  0xbc0223413e70a1edU, 0xbe95c3e93e9fa73aU, 0xbe63572abcfab7b0U, 0xbe4010d5be710754U,
  0xbdc947c63ee9d9fcU, 0x3e795ce63e85df63U, 0xbeaf658d3db78547U, 0x3ced43fbbbd8ced6U,
  0xbeb9280f3dbbc188U, 0xbe90245bbc558d02U, 0x3d8787a83e6acec4U, 0x3e0e9737be29b2dfU,
  0x3ed8b7f13e26241bU, 0xbddb78263ed7ae62U, 0xbdd6dad33e4fe903U, 0x3e3c53263db0a2f9U,
  0x3debb0eb3edf65e4U, 0xbe88b54f3e91e676U, 0xbd58042dbe8fcebfU, 0x3bc59a333e855012U,
  0xbd07a8cebcbd2721U, 0x3d50cc22bdb92c5bU, 0x3db073443d60a2ddU, 0x3d9a2ab43d4df956U,
  0x3da2453f3c66e004U, 0xbd627dd23ce794f2U, 0x3cef9c8dbe585a79U, 0x3d526dbcbe0254aeU,
  0xbc54a7d9be0c213aU, 0x3cd669163d7de013U, 0x3d42aa0d3cdc3bfbU, 0xbceb941dbe1314d6U,
  0xbd288e0abdd43a3aU, 0x3ccdfb2fbd42e3c6U, 0xbdcefbb23996eb9eU, 0x3b9c0393bd11b5bcU,
  0xbc9933843e12c305U, 0xbc3af4fcbca62badU, 0x3da1a6f23be98228U, 0x3dcbd5403d3b009eU,
  0x3db84b4abc4fc564U, 0xbe0843fd3dd0abe2U, 0x3dbc60a23db9a582U, 0x3bb015fe3c0a831dU,
  0xbd2242c6bd1502c9U, 0x3bbf4216bdd1062cU, 0x3de96e283b1ef4a3U, 0x3c97fd3ebe05b0efU,
  0xbcd92a0a3dcd333bU, 0x3cac4d09be034cfdU, 0xbd11cb7c3c5a8a38U, 0x3e1e5d59bd3abba2U,
  0xbd0431b6bdb68c57U, 0x3c94ed59bd79587dU, 0x3baec2d83cd2aa21U, 0x3d474d933dadbfaeU,
  0xbdc53e3cbda7b196U, 0xbe9a9aacb9416f1dU, 0xbd576626bd400ba2U, 0x3c5bf1afbcb54637U,
  0xbdb2b203bd54f620U, 0xb8535d24bc90fe60U, 0x3cad778abdac2b09U, 0xbd40ae4dbc217694U,
  0xbd14da7dbd206efdU, 0xbd1ca7be3da62baeU, 0x3e07f966bdaf5650U, 0xbe2434da3d667ce1U,
  0xbd63b9febc60535cU, 0x3dafd186bdb9c84bU, 0xbc1980c13cb5fbbbU, 0xbe0a12373d0ec7cfU,
  0x3d26f444bcb03a0bU, 0x3cd35c4a3d64aed9U, 0xbd182764bbf84b42U, 0x3d9463b9bd137c3aU,
  0xbc8fa037be0c8412U, 0xbe0c563a3d32e0edU, 0x3d68331cbd6a4b30U, 0x3dd280b6bd0a0c51U,
  0x3d10480cbd116398U, 0x3dc6fb18bbd0a4b4U, 0xbda9963d3da4da41U, 0x3c233ca3bdc3e80eU,
  0xba160deb3c485069U, 0xbe8b36d23e1eb30fU, 0xbd2efcc3be63265cU, 0xbe2f2408be16d2feU,
  0xbe48b80dbeaa89e0U, 0x3d8c6005be74a8e6U, 0x3e06d2b5bd19bd07U, 0x3df1ba34be2b419dU,
  0x3ed219dcbe081b28U, 0xbcc90fc3bec5e9f6U, 0xbe86b012bd2eee1fU, 0x3ed7d674bd60a3ddU,
  0x3e9c3469be6586fbU, 0x3dcf84b0bec91d89U, 0x3d2e215ebe502af6U, 0xbe3f631ebe2f6f82U,
  0x3ebc7f8c3eadf8f9U, 0xbe2f4d623cce8294U, 0xbeb8a4b03c6acbd9U, 0xbd5e57ee3e041fbeU,
  0xbd4c9303be80f0e0U, 0xbec46612be17651eU, 0xbe9355c6bb16f31cU, 0x3d655d663e07a9e9U,
  0xbe786b2cbea819a1U, 0x3e9ee68b3da6aa3bU, 0xbcf2e58abecfaeefU, 0xbbdfd2a3be624b3eU,
  0x3ec31a9bbea0db66U, 0xbd967344bd83692bU, 0x3d3aebd4bd126d42U, 0x3ea8136fbe8bc593U,
  0x3dc8cceb3dd6dbd8U, 0x3e74bbebbd4d6f71U, 0x3f0327abbe589324U, 0x3e513a29be1aead2U,
  0xbda2dae6be695e9cU, 0x3e30d5c3bef7c737U, 0x3d31ec463d4cc4bfU, 0xbc8d2923bd5c2c02U,
  0x3e40a2c7bc1f5855U, 0xbe3442fcbe83c1c2U, 0x3e3024873e326872U, 0xbd5482adbeb67c1eU,
  0x3d880241bea2bfe1U, 0xbd9a669c3e98ece8U, 0xbdfd3f0e3db0b17bU, 0x3ed43615be8e2203U,
  0x3e1acd6abec77a00U, 0x3e9de4b03e962b35U, 0x3e6a1d363d4df60fU, 0xbe85bf8ebedb6c14U,
  0xbeaff8213c5ba016U, 0xbc9ea668be6e65a1U, 0xbe12de6ebe92bfe9U, 0x3e136485bdfbc27cU,
  0xbd00ec37bea1e6f0U, 0x3e6b3e593db5e90aU, 0xbeae3962be982aa4U, 0xbe3bccc13d812f4eU,
  0x3def8d79bea77c37U, 0x3ecba2f53cee3223U, 0xbe173466bea0c743U, 0x3bf3d1cabe8d9cfeU,
  0xbddc0e55bea76b87U, 0xbd6ea40d3e3e1848U, 0xbd7acaa3bd9faf30U, 0xbe2c544abd88bd7bU,
  0x3c0a1d6cbd53979dU, 0xbe95b233bc8b0662U, 0xbe82db85bd0eb3e0U, 0xbe773f12be814b92U,
  0xbd52dfbf3d090186U, 0x3e4af6f6bce883caU, 0xbeb4330bbe2d4328U, 0x3cc467703cb82d72U,
  0x3e243e62bea12913U, 0xbdcd227abd2ac0a2U, 0xbdd17862be8df011U, 0x3ccbb3e83d250dfeU,
  0xbe02d1ebbe47bb72U, 0xbe339358be0ccec0U, 0x3cb43133bd8cc02eU, 0xbe27ecb5be6e53c4U,
  0xbc1ebc43be32fc20U, 0xbe3166ac3d8f9974U, 0xbe563a9ebdd96ed2U, 0x3e2e1cbebe5a2b4bU,
  0xbe8759aebba63353U, 0xbdf0725b3ba82b6cU, 0xbcb97ebcbd8a8bedU, 0xbe356d8dbd1756c0U,
  0xbdd86210bdb5c07cU, 0xbe4f2eb8be4d8041U, 0xbd0ea0b8bd4659bdU, 0xbd921340bde3d845U,
  0xbe23717d3dfe7df0U, 0xbea5bf5abd3cad6eU, 0x3e30c10dbd97c7a3U, 0x3c9471c3bd99e27aU,
  0x3c4c3d4dbd98ba76U, 0xbdc9c8f2bd6c3986U, 0xbe4ca232be384891U, 0x3d03886cbe8d6b09U,
  0xbd66aeadbe816abeU, 0xbeb2c46cbcd02e7cU, 0xbdfebebbbd7432b6U, 0xbe27fd9b3c3ed46cU,
  0xbdac3c7e3d7a3cfaU, 0xbc4c2668bc43a9fdU, 0xbd6d60b23d0110b3U, 0x3d6a3643be5abd50U,
  0xbe0e9349bb2fbf3dU, 0xbea111ccbd9f2844U, 0xbe714fbcbd9659a3U, 0xbe222db6be347da6U,
  0xbea4e0d73d053e7cU, 0x3e78d5c0bd2da9d5U, 0xbdb45b67be6099e3U, 0xbe174dd2be139d2eU,
  0xbdcca03bbe841c2eU, 0xbdcad3313cac9ef5U, 0x3ea4d4d33dc1a9f6U, 0xbae28bc1be7a4696U,
  0xbd64e83abdc4cf79U, 0xbe9f9278bdcd3f14U, 0x3e8ca6a8be600880U, 0xbbc7c89fbe28b436U,
  0xbdc1fce8be0c6180U, 0xbe67d612be9f2b10U, 0x3c11a43ebd17a294U, 0x3d267def3e025536U,
  0xbe0e588c3d87af06U, 0xbdd471a5be0b37f6U, 0xbc339996bdaa9282U, 0xbbd9ec123d71fea7U,
  0x3d29c24e3c87a470U, 0x3d5c5a2b3d8bb422U, 0xbe263d4f3d78e924U, 0xbdfa00073d678280U,
  0xbe16d3683d6c708bU, 0xbd29fc73bd667371U, 0xbd3e8b3e3dc390d2U, 0xbdc18bc2bd9e6255U,
  0xba7c389c3c1dc10fU, 0x3c4129293d8f71fcU, 0x3d860e2d3cffa2c5U, 0x3d5511dbbdf2c9e0U,
  0x3acbcaf2bde300ebU, 0xbd319a37bcee2d86U, 0xbe0c5fd93d4ef17dU, 0xbe2b95d33cf3215bU,
  0x3d9ea45a3d6235a0U, 0xbc2baa053dc92e84U, 0x3d865f95bc04c2ffU, 0xbd8d2ad63d735496U,
  0xbd3197c13c46b1d4U, 0xbdd86704bd16620aU, 0x3dc30f97be3448cdU, 0x3ce938e93e0343c3U,
  0x3cc3a773be222660U, 0x3ca5fb5abda15302U, 0x3dda64a9bdc06dabU, 0xbd1eac37bdd40489U,
  0xbc6592dd3d94f377U, 0xbcc67e73bd47558fU, 0xbc8b62a5bdd6e0dcU, 0x3d87c8f43da7d848U,
  0xbe013c0dbcfd9bfeU, 0x3d2fd58ebe52935cU, 0xbca24a3cbe636cffU, 0xbd7f44543c88a829U,
  0x3d42d1fc3e095ff1U, 0x3df0fc71bdbe7a85U, 0xbdceab81bd058712U, 0xbd90315bbc402115U,
  0x3db3f986bdf7a080U, 0xbd0d80bfbde88d09U, 0x3d3b8b5ebd40b2fdU, 0x3d994f87bb30ce23U,
  0xbd90d9e6bdc462bdU, 0x3d7d1cccbd3d738aU, 0xbdce69983e1adb33U, 0xbe1b6bc53d260e73U,
  0xbd62ffaabd4548c4U, 0xbd0bb621be2fe0b5U, 0xbd4bb40dbca14809U, 0xbc5670c03d94a96bU,
  0xbc7d26d93e203268U, 0xbd3a84fbbd386567U, 0xbdd77bb1be66431fU, 0x3d0bec613d491802U,
  0xbd91d4de3df00f88U, 0x3d0b3844bddaeee3U, 0xbd44e2febc3b692fU, 0xbdd6f692bd89b957U,
  0x3c4299433c9aea37U, 0xbe1218863e05b093U, 0xbc948be3bdc18f1bU, 0xbd8f4966bd5d9bdaU,
  0xbc42110c3c6a7cc2U, 0x3e3ec44e3dfa92ecU, 0x3db2244dbd2307c6U, 0x3ddc3d59bd377defU,
  0xbc19b154bde959cfU, 0x3e04de593de26a7cU, 0xbd976aeb3d49868fU, 0x3da279c23e275524U,
  0xbd6930ddbdb3b86fU, 0x3db94f903b329091U, 0x3d8a2a3bbe04f2f9U, 0xbd249df33b98e385U,
  0xb8551b31bd29b3d8U, 0x3de6aabdbba1a780U, 0x3e170dc13d08ec25U, 0xbd4254b33b4afff7U,
  0x3e224aff3e0dca95U, 0x3e1c0b13bd368ef7U, 0xbc2938903dbb8f14U, 0x3db813083cd6bdfdU,
  0x3dcbc7a83d5b47beU, 0xbe1149623d8061d0U, 0x3e1659b13dc43ef1U, 0xbcad1f783c5d2ef1U,
  0x3d8f0bd33e7dc5d1U, 0xbd78f4ed3dc8ba06U, 0xbde11d303e709780U, 0x3c37ac333d04c809U,
  0x3dda366abd34a958U, 0x3da6f2d3be2bdae8U, 0xbdf362833dcf7b60U, 0xbd3b46513d34863bU,
  0xbc5a8be0bda25516U, 0x3da761fe3c3e9733U, 0xbda52c463e484eaaU, 0xbd154a043e317a0eU,
  0x3d431120bde4279dU, 0x3e626c9a3c02b49fU, 0x3c87fbf53db6b2faU, 0x3d894bc4bd3b438dU,
  0x3e2b738cbdfe7b77U, 0x3c176c9fbdfba74aU, 0xbde154123dbbcde1U, 0x3e1f7fc73ccb6479U,
  0xbbc912ea3e2aecd9U, 0x3e1cfdf0be0ffd2eU, 0xbc91b315bd3a1885U, 0x3da30bc73de3de57U,
  0xbd7a72dfbc0428cdU, 0x3da1f0f8bdbb1cacU, 0xbe0aebf53d2594ceU, 0x3e1483783d4de8c7U,
  0x3dc90330bd7ff5daU, 0xb943d358bdfd1133U, 0x3dd3dfaa3e36d783U, 0xbddb65acbc74aad3U,
  0x3d13c558bcc854f1U, 0xbca72fe73e54b51bU, 0xbda699c33e29cc74U, 0xbc99bb833db328e9U,
  0xbda5b2c13dbc02e7U, 0xbdb8f7203c6bc54dU, 0xbc5dce57bda19699U, 0xbc4ac7a23b1cd524U,
  0xbd38020dbe0be414U, 0xbdce2fbe3c75060aU, 0xbe0d8892be652a58U, 0x3cad6b2dbe4c180eU,
  0xbcc92ce0bdd02108U, 0x3dad2e6ebd936845U, 0x3e379d32bdc6757fU, 0x3ddd41d1be67ea91U,
  0xbe5ee0c7bdad9f1aU, 0x3e66e4b0bd638976U, 0x3e7b9f94bd066e5fU, 0x3c860db8be899cfdU,
  0x3d6fd095be4b60a0U, 0xbdaf42a2bd53e2f3U, 0x3d2aa8183e754533U, 0xbe1069aebdd98e89U,
  0xbe70bdf93cb93a70U, 0xbc48299abda7a6c4U, 0xbe1edc1bbd5427b9U, 0xbe8b2a0abc4192d6U,
  0xbdadfbd0bb7ca2f4U, 0x3dc7bc983e211d31U, 0xbc12f5c0bdfec022U, 0x3d929d2cbc104d30U,
  0xbd0def3cbe3d5d3aU, 0xbd892569bcfb3661U, 0x3e05f2cbbe611edfU, 0xbc184422be155dc6U,
  0x3dd10e8fbd26e064U, 0x3e0e5d2fbdbfb7c3U, 0x3d96c2b33caf3d2cU, 0x3e1fc163bd4a01deU,
  0x3dedfbab3cfc10b8U, 0xbb68c610bddef96fU, 0x3cc09b0dbe82e8a6U, 0x3e05e87bbe90d513U,
  0xbad9aeefbb37d3baU, 0xbe049862bddfaf94U, 0x3db17bb4bd12b950U, 0xbe62ae0dbd8fa0a0U,
  0xbdb648653def9e51U, 0xbdd49466be4835d2U, 0x3da683f4be635f03U, 0xbe1c6d903da58834U,
  0xbd3becd43cdb5657U, 0x3e473d64be2f83c7U, 0xbc998277beae3885U, 0x3e13ca573d47e26eU,
  0x3dc9c00f3d0cfdccU, 0xbda5a743be899a34U, 0xbd429f47bd062c67U, 0xbddc725dbcbbe854U,
  0xbdfd691ebdad9ff6U, 0xbd97d628bd17a286U, 0x3d2d8d5dbe701150U, 0x3e2ee937bcf80a65U,
  0xbc772006be1b33c6U, 0xbc85f8393c3f2791U, 0x3d3720bdbe87f3b9U, 0x3dda8bf43cebe970U,
  0xbd28d423bdf28324U, 0xbdcfbcc0be38f778U, 0xbdaa852abdebd9c9U, 0xbddfb2f73d89b9c1U,
  0xbdaaeecdbd6c39ceU, 0x3d875d0b3c724c8fU, 0x3c80602dbdb63550U, 0x3cdaea123d0f0c14U,
  0xbd1a2b17bc83172bU, 0xbd17537cbdd41149U, 0x3b6a0f243dc5a504U, 0x3dc6a461bd9932b1U,
  0x3c879f90be07897cU, 0xbd26444cbdf87b09U, 0xbce00c6a3d4f4c61U, 0x3d484e68bd8c082aU,
  0x3dc47b2cbce5c6bbU, 0x3db04a5abba4dcc7U, 0x3dad1426bcfb4cf7U, 0xbe19b485bc361021U,
  0x3cec6142bb87c43fU, 0xbd2f180b3d3f0682U, 0x3d0f47143ddbce0cU, 0xbdbcafffb946db8aU,
  0xbdade9f0bcb27e30U, 0x3c7483a73de7065dU, 0xbded085e3ce73bf5U, 0x3d994a90bdcce9faU,
  0xbd13027bbb9bda37U, 0x3cfbb8f7bdaeba55U, 0x3c4b4668bd96e1c0U, 0x3d81085bbd1bdcfeU,
  0xbd3f4569bde6f6a9U, 0xbd3b823abdd1c9bfU, 0x3d9851f4bded22f3U, 0xbe0edf2fbd2a59acU,
  0x3de3b7f9bd5e3028U, 0x3d931c50bd3ebdffU, 0x3d952bc7be3b47adU, 0xbb641611bc9e6f63U,
  0x3da74bf3bd025551U, 0xbd56b3e8bd3dc223U, 0xbe61deef3c758c30U, 0xbd72dbbabd11f2dfU,
  0xbd3d786cbdab114dU, 0xbd0f4e7abd448356U, 0x3cd9ee613d74d6deU, 0xbd06c819be58fcc3U,
  0xbd75a7f9bda36d52U, 0xbd006459bcc68cd6U, 0x3d022a973dd9ca6dU, 0x3d278b86bd608357U,
  0xbddf10e43d409b71U, 0xbdeaf3c2be2f3206U, 0x3dbffd9dbc9af84dU, 0xbc4463a83d71ee46U,
  0xbd0dbf7dbd56ec80U, 0x3cf3ec59bc9f1a18U, 0x3d7eb5f3bd602e08U, 0x3db3eab6bc04d3a1U,
  0x3dc25183bd482f47U, 0x3c3e10e5bdeff948U, 0xbe72debf3d36be00U, 0x3d4a9c943ddf0898U,
  0x3dcb22a8bd6a458cU, 0x3d058751bdd7286fU, 0x3b942e753d1c9475U, 0x3c3a5af13caac032U,
  0xbc878ef8bd0721a6U, 0x3bf75e163d9ecfbeU, 0xbe55d869bd7a2cffU, 0xbd90e66ebe30d0f0U,
  0x3e045089be41d480U, 0x3dcfb3453d437992U, 0x3dc518373e0c5690U, 0x3cd384f33dbc0f07U,
  0xbd2d49103d823a3bU, 0x3e96c278bce80703U, 0xbe085ed7bcd1570fU, 0x3b023d893cb27fcfU,
  0x3e4515953e55f666U, 0x3e975c0bbe6a87c4U, 0xbd1d4953bdc0bfd5U, 0x3d8252383dfd9073U,
  0x3d5b7f84bd88465bU, 0x3e0380b73e987b0eU, 0x3d12fe8a3d64f663U, 0xbbecd26b3e8b389aU,
  0xbca6d9ac3e3b7e09U, 0x3dfd5e253e41908eU, 0x3d88757c3e7d3a74U, 0x3e2c30f0bb899608U,
  0xbda947033e5f77c5U, 0xbe68cd363e33761aU, 0x3e8d06b6bb2fcf25U, 0xbe5de1923cf481faU,
  0x3e1cccc6be4725c7U, 0x3ed363203d0d0920U, 0x3ecadf30bd6ae7f2U, 0xbd1e7e033d6eff1fU,
  0x3e871064beb284fdU, 0xbdc199693d66d506U, 0x3e27a3813dd4c979U, 0x3f006dbebe6521acU,
  0x3dddc84abcc2b0a0U, 0x3c960d013cf438e1U, 0x3e8111c0bdabbd22U, 0x3ea80a9cbe7600a6U,
  0xbae0a7b7bdfe6bb8U, 0x3d4ccb0e3e6fbe7dU, 0x3e75e6dd3e8a8f82U, 0x3c2ad7433e685b34U,
  0xbe1802d43e071b6aU, 0xbd14ec533de4f546U, 0x3dc2c50d3e96ec9aU, 0xbe2f6c68bd32a27aU,
  0x3ebb11ec3e890dbaU, 0x3c1c46963bb11d9bU, 0x3e920b613e8c2bdfU, 0x3e637a373e006aeaU,
  0xbb48050e3e02b046U, 0xbe925c32bdb06233U, 0x3cfffbccbe811f34U, 0x3e915accbeaf4ff9U,
  0x3daa0aa73d5dbfd2U, 0xbcc74e6a3e1a838dU, 0x3ef1ff3b3e572f7fU, 0xbe4340573d1b3680U,
  0xbe3aebdabe324c64U, 0x3e44fd503d5eff03U, 0x3ea6bd05bb0d7524U, 0x3e94ec16be8dfcc2U,
  0x3c8cea47bde5a828U, 0xbd81ae1abe19123aU, 0xbe2526d93bd8a060U, 0xbd8c7726be82d6b7U,
  0x3db48ff53dd2ab6bU, 0x3d1f8c2abd95befdU, 0x3e15d20b3cf65d05U, 0xbbaa156e3c8a1b1dU,
  0x3e2eebf83ddb22a7U, 0x3cc18a32bdbe64b0U, 0x3d88b332be0383d0U, 0x3e53703fbe92c4adU,
  0x3d958485bddd5531U, 0xba8cf9aa3e45b363U, 0x3d34f839be89c5eeU, 0x3e4e67cebe76f650U,
  0x3dacc274be03163bU, 0x3db7f660bdd4c6b9U, 0xbe008f643dad15aaU, 0xbae34200bdc0bba7U,
  0xbd8e1cb03d84b953U, 0xbdf8edcf3ddc075dU, 0xbc25990e3df849b0U, 0xbd1fceb7bd649e13U,
  0x3d6a73703df5503cU, 0xbd62f4e13d7ea7c2U, 0x3dd96708bd4329f3U, 0xbdeb32753df5d925U,
  0x3e151beabe2e31aeU, 0x3d2399963be3f92aU, 0x3e7f180f3e0960daU, 0x3ca56109bdd4e146U,
  0xbe3b6e15be0425f6U, 0x3d9a4d9fbdcbffd2U, 0xbe795f25bdfa4b9cU, 0x3c9241debdecdeebU,
  0x3d8d5533be19ca64U, 0x3e1a931abe7943efU, 0x3e33c0b7be3d4e01U, 0x3e8344303e15575eU,
  0xbe23de5abe04d9d1U, 0xbdf2ea1abd8eb7b7U, 0x3c4c25803cb22d77U, 0xbdc822a8be229798U,
  0xbe7a66f8bcfa7ce3U, 0x3bd1eaf2ba81c0c3U, 0x3da339b3be34af25U, 0xbe65aa3cbdf20bf3U,
  0xbdb936cbbb40feefU, 0x3d3f86d73e276eddU, 0x3e4909c5be0d5343U, 0xbe37dfe4bd4e2407U,
  0xbe2e222ebe830e7cU, 0x3e3e4e33be0d2c60U, 0x3d606102bd348d98U, 0x3e14f8a73db50db2U,
  0x3dc2ea7639a4392aU, 0xbaec411abca186caU, 0xbbf97605bdc3f341U, 0x3c3912aebcdebeb7U,
  0x3c269aeebe322fc8U, 0xbd73c55f3dac04f0U, 0x3e46f8b13da37b81U, 0x3de82978bdd296f6U,
  0x3dd43ec5be3023c1U, 0x3e167d04ba3f94c5U, 0x3e11be713ca18a70U, 0xbda526553c180026U,
  0x3dce9c763be07034U, 0xbd32c3debd221e56U, 0xbd9c9fc13cc89586U, 0xbd3eafe03d2344e1U,
  0x3d26ef4b3c856d03U, 0xbddb15ef3c2f7222U, 0x3bff0db0bbd5a884U, 0xbdd3cba4bd913132U,
  0x3d38230ebbe1a83dU, 0xbc25d1803dfb0e72U, 0xbd5c83c73d2ed964U, 0x3da4d5473de0cf2bU,
  0xbdb067003bdd2fe0U, 0xbd316c523c853493U, 0xbe430b64bc3b3586U, 0xbdaff7f43d6820a8U,
  0xbcb6eeb5bd2dab9aU, 0xbd7871573d0f8daeU, 0x3d698e56bdcc8eb3U, 0x3ddeb5cb3d7c2517U,
  0x3db299b5bde9a677U, 0xbcdd41bdbdec8eeeU, 0xbd2fc6533d01351cU, 0xbe06cae0be2f5576U,
  0x3db44fd8bd900294U, 0xbce976353d1078a0U, 0xbe12f549bd95fd9fU, 0xbd683f41bd4910e6U,
  0x3c5303ad3da04a90U, 0x3ce0f9a9bdb81ce6U, 0xbdd0bfd5bdb5af72U, 0xbcda97263c83e4edU,
  0x3ba1d94fbcb69690U, 0xbd61d3583d3788cdU, 0xbdf971963d0758ffU, 0xbd1420653df3feb2U,
  0xbdae04bc3dbeba0aU, 0xbcb1e2c2bcf2fad5U, 0xbc241736bdb82697U, 0xbcd072fcbe0056b8U,
  0xbb605459bdc5de52U, 0x3c8c1624bd4cb5cfU, 0xbd9d21c7bdca17e8U, 0xbe5c98713d3fa99cU,
  0xbd5851613da047b4U, 0x3c56a8a63c01a9a1U, 0x3ca8ae8abdce19e5U, 0x3d103f45bcbc6c7bU,
  0x3cd2e1c7bd43d8b2U, 0xbc224a5ebe1c18bdU, 0x3c8b3f7bbb316ddbU, 0xbd303fa03d5353bdU,
  0x3da523ed3da91db0U, 0xbdb4232cbcf20b7aU, 0x3b928ccfbd7db516U, 0x3d54b1b33d7e2952U,
  0x3d3e1ec1bdb18cfbU, 0xbcf66b223db568b9U, 0x3caaeb473daef004U, 0x3e0237fcbe373786U,
  0xbc404490bd1e43abU, 0xbd997b0abda7425eU, 0xbd868f2cbde2449aU, 0xbe2b59833d9fab87U,
  0x3d0c9802bd4780c6U, 0x3c0ed50cba36fa59U, 0xbdb791f6bd60fb90U, 0x3da52c17bcf07d7cU,
  0x3b99fe0fbc53cbf9U, 0xbddb7f1bbda186f4U, 0x3ca576563d95e611U, 0xbe00f514bd364566U,
  0xbce7f5f2bd211fe9U, 0xbcf39344bc1ddb37U, 0xbd17aa5fbd315ed6U, 0x3d06a7763de32984U,
  0xbc38dedfbd885ae8U, 0xbc445756bdc45a3cU, 0xbe063319bda5c9d1U, 0xbd6e9da5bde554b1U,
  0xbd0320dbbd89fe32U, 0xbdc1f402bddb0b8eU, 0xbd56976b3cf1c2d5U, 0x3dadff653c2b79faU,
  0xbd5f05dabe031734U, 0x3ddd006f3d235816U, 0x3db7ba933b82e7e7U, 0xbd64f5c3be173253U,
  0x3d00ae2f3d9a07a7U, 0xbaf551fc3d830694U, 0x3c88ee99bd41c5ecU, 0xbc70d21c3d47bf1cU,
  0x3ccaf5b53c98ab64U, 0xbc30de54bde21114U, 0xbc15e91dbc40e9fcU, 0xbc8796f13d256a69U,
  0x3da76588bbfe0825U, 0xbd922bbd3c901909U, 0xbb0ce79e3d92d353U, 0xbd1ecdbdbd6292d1U,
  0xbdd9709bbc71d265U, 0x3b1aca40bc0ca72cU, 0x3c6eaf5dbdc33c11U, 0x3db564f6bd37e319U,
  0x3cc72496bce309baU, 0x3da227863d223de6U, 0xbd5a28efbcfc1f53U, 0x3c5327593d72d150U,
  0xbd3367033cb64fdbU, 0xbbeb866d3bc8e0b2U, 0xbb67e1783dacfec4U, 0xbbc4bc36bd480aadU,
  0x3c660a363cc12442U, 0xbd15034a3d6b2164U, 0x3d242e30bdebb968U, 0xbdb09bb5bdf09fb8U,
  0xbd86222abcacf5d5U, 0x3da76e94bb7649cfU, 0xbd618d21bdabb7b6U, 0x3cd89627bd161136U,
  0x3dba32703d082138U, 0xbd63e226bd898be1U, 0x3d2783c1bd6474baU, 0x3c50db773d8017c0U,
  0x3e0ed4b53c9fd137U, 0xbcab897b3c8fc227U, 0xbd5cd8343b28f4b9U, 0x3d716f4ebd534bd0U,
  0xbd9349983d4f59f2U, 0xbc88afad3ca30087U, 0xbce1b51fbd292e3cU, 0x3d1d717abb605ac9U,
  0x3e051b47bcbb1de9U, 0xbdb3469c3cc48188U, 0x3e021fb33df5bf6dU, 0xbb448e1bbd2ec56cU,
  0xbe426717be011bc3U, 0x3d3768eabe28068cU, 0xbd4788e23de0f079U, 0xbeaf21753e8f8383U,
  0x3e39c419bda121eeU, 0xbddefb753c8ec0f5U, 0xbddff5763dcc8261U, 0xbe9c8df93e4cd166U,
  0x3de4839dbcfe3953U, 0xbe069eea3dd00bb6U, 0xbe107c853dbb08b8U, 0x3cb28f90be8fb17bU,
  0xbe2f87703dd6097cU, 0xbd743505be0a2186U, 0x3da61dc6be089b21U, 0xbde2933bbdd4ae73U,
  0xbd9c1810be011d3dU, 0x3d3df1d93e56f8d3U, 0xbcab803cbebcb89bU, 0x3da1220d3c37b204U,
  0xbe81c68c3b1a1918U, 0xbd0c26873d58fc30U, 0xbe328f533d791a7bU, 0xbe9e070bbe254182U,
  0xbdc4ecfc3de07dcfU, 0x3e3987a3bd23ddeaU, 0xbe1da0653e140ccfU, 0xbc46ac30beb6d1f6U,
  0xbe18c9663e1688bfU, 0xbe5c28cb3d9877ffU, 0x3ccca4eabd032f24U, 0xbd98dcdfbd476d49U,
  0xbe5d99d5bd48431eU, 0xbe7ac98a3db81186U, 0xbd00ac40be04858fU, 0xbdaa32dfbe2c0f29U,
  0x3d95a9c13ce6d65aU, 0x3d3147d7be8996a2U, 0xbd03ed7a3d0a3a9cU, 0x3d3f85dd3d180c72U,
  0xbe101470be8e3c23U, 0xba3c56463d999bf6U, 0xbe5e95f9bd389ec3U, 0xbcc4d055bde6970dU,
  0xbe64a09dbeb4c054U, 0xbdc74d98be98605eU, 0x3da01a91be4f5c93U, 0x3e0ddbe63eacc60dU,
  0xbd3c36d13cd62dfeU, 0xbdeb36003e3679abU, 0xbd284824bc808eadU, 0x3e25c9453de3dd5fU,
  0xbe99d91b3de96cb8U, 0x3d90a8db3dc644a4U, 0x3df566bcbdf0ac38U, 0xbe3ef6f1be16b70aU,
  0xbeb28e873e7ccdcbU, 0xbab44fc13df2831eU, 0xbde8958fbcc22595U, 0x3e044ff63e061e50U,
  0x3e5b3f7abd356b06U, 0x3c7c99d93c010880U, 0xbdb40046be8ba41cU, 0xbe6acf1bbdc79290U,
  0xbda61e023ded3be2U, 0x3e43defe3e2db537U, 0x3e077ac93de84c99U, 0x3de106e03d08eb9cU,
  0x3d65017abe627b39U, 0x3c5243453eb42d54U, 0x3d538055bdcec98cU, 0xbc7ca5593d539d6cU,
  0xbe823f963eb11bbbU, 0xbe4e92a83e587c95U, 0xbcf973753c23550dU, 0xbe297683bc47a1ecU,
  0x3e3c3192bc00f59dU, 0x3c62fbe23e1a4aa4U, 0x3e1a92c4bcafc2d3U, 0x3d1d99fdbdae32f2U,
  0x3e035761be122e3dU, 0x3e83893cbce9c002U, 0xbc5bb779bdcae94eU, 0x3df985d83d8b2620U,
  0x3c5321a13d9b1d5cU, 0xbd8abe84be691083U, 0x3c344c4c3e601c14U, 0xbdf95006be876b33U,
  0x3e04ed203ce11dd7U, 0xbc46cd4a3ed95215U, 0x3ba5c7bd3e812823U, 0xbe723a8d3d2a29dfU,
  0xbc9914fd3e73e8cdU, 0x3e2d9d6ebe4a498cU, 0xbdb2cffa3e28568fU, 0xbde64cba3ed00e78U,
  0xbde77aefbb251905U, 0xbe073fbf3d431710U, 0xbe3489f73e7518bbU, 0xbe8770ad3e058fe8U,
  0x3e4427b5bd32e7abU, 0x3e4b51a63d0c035dU, 0x3da29cac3e02d4baU, 0x3dcd71583cc7b1c6U,
  0x3e262d92be106e25U, 0x3ec94050be13b237U, 0xbe1e0541bbf81ac2U, 0x3dd58ec8bdd7613bU,
  0x3aa97b713ec31e29U, 0x3e6bd38ebc1e01daU, 0x3e00c1f73e96f050U, 0x3d9f6fb33e806e37U,
  0xbcd56c823d70c18bU, 0xbe7b47cbbea3887aU, 0xbea57fae3d93167dU, 0x3cabd2383e6a7042U,
  0x3d208ea63dd662b3U, 0x3e54dd4fbc52c89eU, 0x3d5d29db3eb78a8bU, 0xbe8b9fc2be748cd4U,
  0xbd451355be18c348U, 0x3da0c4093dd94661U, 0xbeb51bd63e965711U, 0xbdc03db63e52925bU,
  0xbe665d333c1210a8U, 0x3d61ae2cbd4d6633U, 0xbe0f3140bc3913aeU, 0xbd447c383d7d4ad5U,
  0x3dad907cbd6dc461U, 0xbdb2dde9bb96d64fU, 0xbcc4cda83e143637U, 0x3d475a9ebd804297U,
  0xbd4f296e3e50c3fbU, 0x3dcb2a233dd0c6f3U, 0x3cfe52b23bebc9b1U, 0x3dbe87c93e326831U,
  0x3e1cb4c0bdc4e795U, 0x3d59b0053d36b6beU, 0x3dce258bbd29d1d4U, 0xbd373f4f3df646aaU,
  0x3e15d34fbd739910U, 0x3dcd66e13b9730d8U, 0xbb332a8a3da57bddU, 0x3c0bb8bebd0f8ec4U,
  0x3e03d4903e0a4edbU, 0xbd85d3ee3d55e4e7U, 0xbd634c083d5707d8U, 0x3dda792f3d846140U,
  0xbd98fecc3e2f6395U, 0x3e9470cc3e24a95eU, 0x3d7be26fbd98898aU, 0x3dd12c75bddffab5U,
  0xbcdce644bda37765U, 0x3e4b8531bdbe0794U, 0x3e1bdb193ea48159U, 0x3dbe31a7be4b9515U,
  0x3d782420be59ca61U, 0x3bcd3b263c810e0cU, 0x3c58b046be7a9461U, 0xbc43b0563e2f1e09U,
  0x3d783e22bd4816e7U, 0xbe2c127a3d0378aaU, 0x3ec678303e3f8a6dU, 0x3de0508c3dfed350U,
  0x3de5e8173d6c4e88U, 0x3d8426173e1eb339U, 0x3c99b95abcbccf43U, 0xbc888e043e094230U,
  0x3d582be63b856445U, 0x3e0f83c2bda8ae24U, 0xbda4e2fbbca621a4U, 0x3e798f103d1dd978U,
  0xbd723bc8bb0f031dU, 0x3dde2e1bbc80b2b8U, 0xbddbdb523da26ed8U, 0x3dec25aa3df7137aU,
  0x3d1f66fbbe559a01U, 0xbe2614933e28de57U, 0xbccdbb7e3e1a1786U, 0xbda1a178bcac16abU,
  0x3dc612df3bd0384aU, 0xbd0de4e33b4b9f49U, 0xbe02f8c93bbea4fdU, 0x3e49231b3e298a79U,
  0xbd92ca5cbdd996daU, 0xbdc39715bc2f1fe1U, 0x3dc620153e0f53f8U, 0x3de7bc3b3dea371aU,
  0x3cd3f483bdc7e012U, 0x3cf776ea3dd152b2U, 0xbcb7df0abca67a53U, 0xbd2ffbb23d6e95c1U,
  0x3dcf190c3cc0d721U, 0xbe12b55dbe1eaf5bU, 0xbe05c7d8392e6f9aU, 0x3dd2f250bd351af0U,
  0x3d4035543d7efb7cU, 0x3e9c9a063e999717U, 0x3e0dd1283cc2e3b1U, 0x3dd4216bbb991ddeU,
  0x3df7a2453e0e274dU, 0x3d13e4aabd788431U, 0x3e3a99343da574f3U, 0xbdd612d73da60336U,
  0xbb99aed83dc35782U, 0x3db2cd1bbd1c9413U, 0x3d29bb7b3e4fb1aaU, 0x3e28b6683e0e3f84U,
  0xbd9638653d568270U, 0x3d6624573da97649U, 0x3c24c1da3d6ff7a9U, 0xbb5e6978bd5799a2U,
  0x3d9e6113bd110ae8U, 0x3e1bc81e3e764f87U, 0x3db5cdb43d970c85U, 0x3d94e3eb3dba36f9U,
  0x3d9888f93d71fb43U, 0x3da85f453e030596U, 0xbdc4aee9bdb9f9e5U, 0x3e4c1e8d3e2588aeU,
  0xbdad74c13e287293U, 0xbda8a0663e7e86d2U, 0xbe1ff1633d8ed2caU, 0xbd760bbf3db2832cU,
  0x3e97be06be30553dU, 0xbdf4f3273debe221U, 0xbdc867473e3e5bc9U, 0x3e002e1f3d2fa037U,
  0x3e080ddc3e3d794fU, 0xbe55edf03e3255dbU, 0xbddcc1583c078efdU, 0x3c89bfc6bd0ff68eU,
  0x3decd524bd630cd2U, 0x3d83290e3ddd6ac4U, 0x3d9fe8893de15906U, 0x3e34ac343d27930eU,
  0x3db08512bdcb6d86U, 0xb794490d3e8ab425U, 0x3cb5d8d6bd46e99cU, 0x3dd9db7f3e50379aU,
  0x3e25d8353daecec0U, 0xbe04fe5a3e0bf159U, 0x3e8f2e053d5ff92aU, 0x3d8e8a263d82471fU,
  0xbd825aa83c0bbc73U, 0xbe45aae0be0016cdU, 0xbda292ce3d65359cU, 0x3ce937a03d502115U,
  0x3d7052b0bd4e5c34U, 0x3d609c7d3e6845cbU, 0xbe113171be443acbU, 0x3e5bef1cbd316408U,
  0x3df6b6793d9f2964U, 0xbe27ae463db94013U, 0x3d91a6693dfe5618U, 0xbdab79123e84551cU,
  0x3e1b7a9f3d6a02faU, 0x3d2cd93ebdf28a82U, 0x3e089df3bde3a455U, 0x3cd651d53dd62559U,
  0x3c59abf13e115f33U, 0xbdb07e79bdc8245eU, 0xbe0ec631bd9268f4U, 0x3e42f483bd670dc3U,
  0x3d9f055a3d2ee130U, 0xbe4e3a6f3e13de8bU, 0x3dfac65dbcc69ce8U, 0xbe10a1ec3e217c2bU,
  0xbdfa7c833e5e1b5aU, 0xbdd9accc3e4b10faU, 0xba9f4defbc841f09U, 0xbe2852dd3e16bdc6U,
  0xbde694a23d91553bU, 0xbde7f84fbe01d34bU, 0xbd1ef8853d19e32cU, 0x3dd54cf0be2a1239U,
  0x3df848c9bd081de1U, 0xbe036b09be15aebdU, 0xbcd21198be012f21U, 0x3e0f97253e3eb48eU,
  0xbd4a0ac6be798d81U, 0x3e084ba1bc8f566aU, 0xbddc3661bd04b9c0U, 0x3df39a0e3daca5e5U,
  0xbe34c5bb3e05aa8cU, 0xbe81109dbd7351e1U, 0xbdef17133dc498b3U, 0x3e5125e53c97d32eU,
  0x3b8a9fca3e1b803dU, 0x3e05793ebebbd23aU, 0xbe37130a3e539f8fU, 0xbe2427c33e5c7eb0U,
  0xbe24cba73decf971U, 0x3d26df1e3dffdcefU, 0xbd99ab5a3d74708dU, 0xbdb494e73cdadbd3U,
  0xbc8919a83c67e50fU, 0xbde7402ebe39c3e5U, 0x3e076aeb3d419de3U, 0xbdd023dbbe0c5d8bU,
  0xbd8b49943c8500a2U, 0x3deba6653df11acbU, 0xbe47903dbe5946faU, 0xbc064729bc5ac0f7U,
  0xbe5007263d4d2febU, 0xbde64b8abcdbce0cU, 0xbe39fe2ebe8581baU, 0xbe05c364be6fa0aeU,
  0x3e00792f3c11bf9aU, 0xbc81fcab3ea863c0U, 0xbe4c6be2bc9c1bf2U, 0xbe1018bc3dc86853U,
  0xba0d0216bc060664U, 0x3cbbabf13d98af6fU, 0xbe2b87d43e0d9863U, 0x3db316063e110f19U,
  0x3d9e23ffbb8d6542U, 0xbe7a8ee4bd489222U, 0xbe3d68903e924ab4U, 0xbd3f10a33d4a1435U,
  0xbe2106b13d4865edU, 0x3e1d4c173cf0834dU, 0x3e08d3d3be160f21U, 0x3b88f4ca3c1a78daU,
  0x3c4a26cb3d3538e7U, 0xbd091c623dfeb7f2U, 0xbda883a6bd4a25c7U, 0xbe89e431bd944df6U,
  0xbd900d3bbd471f16U, 0xbd95ec6c3cfd4266U, 0xbbeeaaa43e02b454U, 0xbd3a2c6f3d7fd4b1U,
  0xbda176c53e5d7e51U, 0xbc55dd6d3cdfb4b5U, 0x3dc474ae3dfe8b62U, 0xbd9f2d733de563e2U,
  0xbb157954bdafb13aU, 0xbd34d6c53dc17495U, 0x3c0e6f173d5357afU, 0xbd2342753d860bc3U,
  0xbe07d1c1be1ea6f8U, 0xbc6086b7bde65bd5U, 0xbdf4e1b3bd6092e3U, 0xbe1e3fcfbd98cbd9U,
  0x3d29a1b7bd546dd3U, 0x3d793916bccfd655U, 0xbd8cfc023cf0d3d0U, 0xbdf10f853c0aef2bU,
  0xbde45c2dbc828610U, 0x3d0b90053ddd6623U, 0x3c8c47eebd3ed733U, 0xbe22d1f23d94fa8dU,
  0xbdf9043cbdf05131U, 0xbc6cc9ee3d8d9df6U, 0x3c4685a5bd4b7fa1U, 0x3dac75c3bdd9d627U,
  0x3d0a9f74bd3a57d8U, 0xbd8193673cae8949U, 0x3c985ac8bb8520b4U, 0xbdab1c22bcfbf4a8U,
  0x3d7164a23cf935a0U, 0x3e270282bdb34072U, 0xbe346a1fbd0a002aU, 0xbe2660793bc5dcd3U,
  0xbcf405b7bdeff4dbU, 0xbcd44f77bd66979fU, 0xbd5f11df3e01875eU, 0xbb8afcc7bc8e24d8U,
  0xbd81aab13d6db88bU, 0xbc2ced00bc684b5fU, 0xbd184df7bc2f908eU, 0x3d8c3520bdc671a0U,
  0xbe2d82be3dbe45aeU, 0xbd5fd6e33d7788c5U, 0x3e04ce50bdc8bf7eU, 0x3d8616173d27e3daU,
  0xbc2b1a9ebde58b19U, 0xbca5b592be301b17U, 0xbe371a77bb93937fU, 0x3d9356913d17b4caU,
  0xbd347bc2bd2dfea5U, 0x3e12afebbc742096U, 0xbde6ec6a3d936033U, 0x3daa9a56bd9df007U,
  0xbcd6d6723d9884c6U, 0xbcf76488be390d42U, 0x3cea71dcbbf169f1U, 0x3cafae7bbd8afbdbU,
  0x3d5a8b0d3d10589cU, 0x3e229796bd991146U, 0x3d799aee3e2e62f2U, 0xbd63ef2c3d9d8d6bU,
  0xbc43d878bd82d2a6U, 0x3cfa2ec0be48839dU, 0xbc4bd1b8bb338c1cU, 0x3d74e4fcbdf36f5dU,
  0xbe2705873e410d20U, 0x3e1de6a4bde46792U, 0x3c0c6728bd95b64fU, 0xbdba2ed0bdab8228U,
  0xbc4244d23dcf8c18U, 0xbdb1b2423d438f5cU, 0x3e0caf3dbc803cfbU, 0x3dac1f7abd8b1084U,
  0xbd277403be06e041U, 0xbd35d849bda9d9ceU, 0x3cd67a4bbe82cadbU, 0x3e01441cbe1bffa2U,
  0xbdf5b43bbe5f89bbU, 0xbdaba9afbe74293bU, 0xbd5534093e19f3beU, 0x3d5431efbe69c138U,
  0x3e0c086fbe003eb2U, 0xbd2d84bcbd89b81dU, 0x3dba381ebde72f8bU, 0x3d858db93d149951U,
  0xbdc25f85bd331d77U, 0xbe798a14bdfb68e3U, 0x3dc9aa2bbe1df435U, 0xbde39f453e17191bU,
  0xbd581991be0e60f1U, 0xbde820a0bc5f27a9U, 0xbca7e2cb3e543d28U, 0xbe671c16bd035ea4U,
  0x3d5dcd54bbf03340U, 0xbda5e7113d0b90bdU, 0xbe8acf483e1015a6U, 0x3d00d6cf3e37b3d5U,
  0xbe4c4861be52f98fU, 0xbe1cc30cbe46dffcU, 0xbcd0b1c5be35c55aU, 0x3e72ec86be1ea145U,
  0x3d23a30dbe1e6da4U, 0x3d44d5c0bd6f5f57U, 0x3dd2e008bd6a5f1cU, 0xbe2664c2be277fd3U,
  0xbd0877e8bdc568faU, 0xbdd62712be24f93cU, 0xbdeb7c7fbea1126dU, 0xbdee0f84bdb57f3bU,
  0x3a6ea5323df85a45U, 0xbe7a80bb3e02fac6U, 0xbe8fe6db3e40c535U, 0xbdb97489bd4b9c8eU,
  0x3bd5bd38be4f4946U, 0xbe48efe93d707a2eU, 0x3e0cf3cebd6def74U, 0x3e13e86c3e792724U,
  0xbe84012fbda246acU, 0xbe0e0df03da80ea4U, 0xbe6391213df95cf7U, 0xbd5e834c3dc0e193U,
  0xbe398ee23ce58ac7U, 0x3e23856fbda2125bU, 0xbd84c6313e0e5f97U, 0x3baf87703c677f6eU,
  0x3dbd3c61bdfc5f53U, 0x3d8a81d23dd30c72U, 0xbcfb6f433ce94502U, 0x3cd5adddbe5ca148U,
  0x3dac1497bd6b3722U, 0x3e13749bbd8bc99eU, 0x3b39f4a9bd9f9ae8U, 0x3c2c31ddbd92c78eU,
  0x3d87eb3fbde7844fU, 0x3dea1a61bd336300U, 0xbbcc09c5be08f07eU, 0xbca79a78bdb2bcc1U,
  0xbabac058bdfc6640U, 0xbe1fbfcfbd6efd3bU, 0x3dfe5b5cbdaebe5cU, 0x3c8a86443d2d1d35U,
  0xbdb6fddc3e0ee89cU, 0xbd83cdd73b9d4bb3U, 0x3c97d9af3d86a54eU, 0x3cc0f16b3dc504a7U,
  0xbd5cdc7e3c42431aU, 0xb88f9f71be05ab83U, 0xbdc155583d9589f7U, 0x3dc24a83bdd251b5U,
  0x3d62e0373c90d7a1U, 0x3d80e445be2d0eebU, 0xbd3b6b74bc89b05fU, 0xbdc2baa1bc2a54baU,
  0x3d8fd3d4bd1476f3U, 0xbd9b05d63bcd718eU, 0x3dd22238bdf7efc0U, 0x3d6cc275bbbb7d4cU,
  0x3c2c8b01be244554U, 0xbb97ea5a3d738a45U, 0x3db01bf0bddf4430U, 0xbcd3c0e2bdd2f28aU,
  0xbe36dda7bdef8d67U, 0x3be5618abd92057eU, 0x3c9dea1bbc1eb8e4U, 0xbdead8ee3d759a47U,
  0x3c36f4c2bd042220U, 0x3d2457a4bde17cd8U, 0xbd8a5ad63d2021f9U, 0xbdaced58be0a71a4U,
  0xbd8444e73dba034cU, 0x3d40e080bd5417d6U, 0xbdcaf594bcf36ddaU, 0xbdf13646bdad20d7U,
  0xbd4f9892bdb3c9e4U, 0x3dcb64ce3dad1a00U, 0xbc2dce1abc7c13b0U, 0x3dedfa7abd854bd4U,
  0x3dae89bdbd8f1092U, 0x3dbde2a13d0073c3U, 0x3e0398f73da55236U, 0xbb0a43b2bdeb7715U,
  0xbde152e73cdee2cbU, 0xbd37e4b23de1cbe4U, 0x3dcf560bbd5d04b5U, 0x3d8ae66ebdd44901U,
  0x3dd9d4ec3c2ed5bcU, 0x3df91f7bbe3f2208U, 0xbda119babbbbe972U, 0x3de825f53c888b44U,
  0x3d5ca08cbbdc644aU, 0xbc4b8912bd2b0b27U, 0xbe0eb73d3ce96bdaU, 0xbd914968bc953020U,
  0x3dc12025be7ceaf3U, 0xbca97f2b3dacd436U, 0x3e114a65bdb8cd0eU, 0x3d93f33e3c8029a0U,
  0x3e15d112bdb0e019U, 0xbd3828b9bd85d17eU, 0x3d3ac945bd025bb5U, 0x3d80ea51bcb5b5e7U,
  0xbd1c832abd188f58U, 0x3e22af93bcd36661U, 0x3bd09fc7bc40d84cU, 0x3d5f16cebd4dd0f1U,
  0xbe37aba7bc6a017dU, 0xbd9d3c67be66f657U, 0xbde3fc4f3d1d146aU, 0xbe40a64cbe39d392U,
  0xbde9f2f9be63b0e5U, 0x3cc674863e278e70U, 0x3e1ba69fbe0c74bfU, 0x3cd0c953be3263c8U,
  0xbd6a7f92bddf7fbeU, 0x3daa107fbe1eb278U, 0xbd6c9e2d3da513a5U, 0x3de450433cb51db2U,
  0xbe07c1e5bd1f368cU, 0x3deeb3a2bdc662d0U, 0x3db07fda3d3e504eU, 0x3d954e3cbe1dfd23U,
  0xbc0eb9103d876d35U, 0x3d0fe88b3e00c854U, 0xbde03ccbbc0f4c53U, 0x3e1b5a3e3d052d2aU,
  0xbe08374abe004389U, 0xbe6d90323d5038e2U, 0x3c8666d63e1bf0cbU, 0x3c7133e2be6ebfa8U,
  0xbdafe429be22aec8U, 0x3d8fd978bdb93fc1U, 0x3e08b238be4c6ff9U, 0xbd5414a7bd91c21aU,
  0x3cd420e73d834c96U, 0x3cbea5a63cd219f1U, 0xbd3ffae9be39bca5U, 0xbd9f4552bdbc093bU,
  0xbc8b4d50baa1779aU, 0x3cf08c63be681e2dU, 0xbd8eb9d8bb93deedU, 0xbd30f8bc3a89d8b5U,
  0xbd8191043d459738U, 0xbe07b42c3c9e6c2aU, 0x3d4be1aabe290fd0U, 0xbd1157bcbe3622c2U,
  0xbdb122793dd8e1c2U, 0xbdc4036dbc08e0f3U, 0x3d35e9553e3e9ae2U, 0xbccfe497bc1112f6U,
  0xba10a0b73dbf864cU, 0xbdd5ee1a3d4b0d23U, 0x3da157dfbdc17da9U, 0xbdc71be3bd9b1501U,
  0xbce99af33d992298U, 0xbd74c6b4bd2736ceU, 0x3e09d0423d8c7d33U, 0xbafbd6d7bc8b3711U,
  0xbce4c3c0bd9cd58cU, 0xbdc833adbda9320cU, 0xbdc14b13bdadfb26U, 0x3bc4d2b9bd50474dU,
  0x3e146abbbc0f7072U, 0xbe4ba691bd4d6e83U, 0x3d72a3e23dafd0dfU, 0x3d9dd65ebd9edc8cU,
  0x3d4286233de047bbU, 0xbdcebb5fbc513694U, 0x3d8a1ac3bcd97e52U, 0xbdaef256bdbb3a3eU,
  0xbce7acb8bde1d84bU, 0x3a9e068dbcaa659cU, 0xbe49ba11be252fd2U, 0xbd20d6123cb794a8U,
  0xbcb0d89e3d81013cU, 0xbd4cd1853c4938cfU, 0x3e226688bd8781c1U, 0xbc3f03f63cb5e178U,
  0xbdcbc2a6bdc594afU, 0xbd3c32bc3d49d0b6U, 0xbe15e3ffbc23661eU, 0x3e136c0c3dd976aeU,
  0xbdf2948bbe35c68fU, 0xbd9c93f13d865a92U, 0xbde2679bbddb56a4U, 0x3dd180ec3d9a5cb3U,
  0xbd9af1aa3dc080d4U, 0xbb5ac0723a6fb231U, 0x3da201993d026983U, 0x3d42a278bd0d61e7U,
  0xbd875bd73c23341cU, 0xbd31ffedbde5c90fU, 0x3d8c1a8b3d147af1U, 0x3da232ebbe15e0d5U,
  0xbe713a223ba9ea99U, 0xbe2f9e12bd2483b6U, 0xbd978116bd69fd1eU, 0xbdda75a73d96ddedU,
  0xbcb425633d02022bU, 0x3d826b443d1adec2U, 0x3c405e84be5eb967U, 0xbd395087bd3cdcc3U,
  0xbd3b5cdb3dcc1da8U, 0xbdc61aeebd980b86U, 0xbbd425553d7d2933U, 0xbe29de2fbcf63b71U,
  0x3dfd02d6bcbfc2b2U, 0x3d66899f3d0aa084U, 0xbd044ac7bd359711U, 0xbdba6456be306c52U,
  0xbd0b1cf4bd0dad1dU, 0x3d9e4298bd2a11a4U, 0xbdaf7167be18677dU, 0x3d9c07013b0b4aebU,
  0xbdde4528bc953a6bU, 0x3e30111dbbe77310U, 0x3d5650653d2075b0U, 0x3ce01cb9bdd71738U,
  0x3dada882be4e255dU, 0xbe1477c2bdeb3c30U, 0xbd50a8ce3df23632U, 0x3cfde07a3d99c211U,
  0x3e28bee4bd423343U, 0xbddf98a9bd97c332U, 0xbd6879d33d098098U, 0x3db818d2bcf453cfU,
  0xbc5d2d453e3307dcU, 0x3dfaa7953d145ab5U, 0x3e4b73323d86b84aU, 0x3e042cc9bc88cfe9U,
  0xbcf430c2bd8e294fU, 0x3e4e4ca43dbed7e6U, 0x3e56d1ebbe137799U, 0x3c06516fbce34288U,
  0x3dc6eb333c46e36eU, 0x3ddad6fbbd8b3a0aU, 0x3d4160c53dcdf1d4U, 0x3dcec6d8bd5a663bU,
  0xbd42bb3d3db7ac48U, 0xbd2f595fbbfef1ebU, 0xbd6a2f95bd89ef20U, 0x3c31e175bafe8181U,
  0xbdcaf2fd3d67ad92U, 0x3dca6f263e1d10cfU, 0xbd154dcfbd33ae50U, 0x3de2200538cf7b6aU,
  0x3d3b9ca7bd21148dU, 0xbc389e18bdbc241fU, 0x3e5808763e154f6fU, 0x3e0a38d3bd2a8767U,
  0x3e3a36723b923d8fU, 0x3e072f9dbcbe443bU, 0xbd0f5a4abdbba311U, 0x3da2ae413e27b8c0U,
  0x3e2bc6febda124deU, 0xbd291fe1bdf2cc7dU, 0x3e24178f3db593dbU, 0x3e060f53bc847340U,
  0x3daee6223d002072U, 0xbd3f51913d34c366U, 0x3d2c83dd3cc49d4dU, 0xbdae2feb3d82d248U,
  0xbe00c0923d32d65eU, 0x3e1bef2bbd7f27afU, 0x3d150b82bd442a01U, 0x3d68d76f3d409234U,
  0xbdbaa8a03d4edc8aU, 0x3e50fcf7bd430556U, 0x3d5a77473d09d477U, 0x3e27a9023dbe583cU,
  0x3d5ec8a0be08e94bU, 0xbe19503c3deff22aU, 0xbe030b193e24a427U, 0xbd8294a73dc6b682U,
  0x3c2c5e93bd867ce3U, 0xbd105a9c3c03b962U, 0x3d1b2937bd438401U, 0x3e3f65233df039c3U,
  0xbd2356e5bd15e4b5U, 0x3d6158fd3da2e7ddU, 0x3d8383843c763605U, 0x3e010ed63de3cec2U,
  0x3dc96d103c220619U, 0x3d7855213d1c3adfU, 0xbda52af13ce94426U, 0xbcb669873db8b6cdU,
  0xbdb022703d40a4c3U, 0xbc98bb083d1f8cddU, 0x3d8a1f893dc4cd4aU, 0xbd9f5da0be10ff53U,
  0xbe368f8bbcd0474aU, 0xb9e9e37d3dc57304U, 0xbc2f6448bd1dd9b0U, 0x3d87e7d6bc0cd9e5U,
  0xbd4a6fe1bc2756e5U, 0xbd322dbd3e01c213U, 0xbde93b12bb771b76U, 0x3d9081003d1c4818U,
  0xbd31535cbcc49aedU, 0xbda2f718be09e7d5U, 0xbbfff9873d9f17e3U, 0x3d1498dabdc48b0aU,
  0x3d12c3f13affa3a5U, 0xbe0db56dbe3ec78fU, 0xbdcbb33fbe055cf5U, 0xbe387092bd129e36U,
  0xbe1b85a33d04f05aU, 0xbd2c2906bd85bd9cU, 0xbe04f205bd673f31U, 0xbd1cbcb23e00cec6U,
  0xbdb13fc83d7edceeU, 0xbe4bcc323d1dea37U, 0x3ca428433de836c1U, 0xbe0f4ecfbde121efU,
  0xbc98c4bebdabe8bcU, 0xbde29b4dbe3e4454U, 0x3ae2d6423dfaeff5U, 0xbd51202c3c8a15dcU,
  0xbbadb9043d1f80feU, 0x3d6eebfb3c99e2e0U, 0x3d30e530bcec9bdaU, 0xbdfb3912bd438c39U,
  0xbdb9a0713c03c2c9U, 0x3d987e5dbe2b82f3U, 0x3db983c4be2cb875U, 0xbe594ae4bcda82efU,
  0xbe1529e0bd61057cU, 0xbda1b96c3c4f0705U, 0xbe2da98fbd5d61c1U, 0xbdb9945a3de1cdf7U,
  0x3c8d2cd4bdafd1e3U, 0x3d3fa1a1bdc50618U, 0xbdbc05bdb98798cdU, 0xbd74d115bd54b38fU,
  0xbddcafb23d43ac73U, 0xbc8f46f2bcfafb87U, 0xbe28b7e2bd517686U, 0x3c216bc3bd965551U,
  0xbcf7ac1dbd07d7d2U, 0x3d717b93bdf5b478U, 0x3cb1e467bdbb2e31U, 0xbdbd4d52bd03d08fU,
  0x3cf341dcbdbb5496U, 0xbd35135b3a3c6826U, 0x3e3a05a4bcd640a0U, 0xbdc2f385bde6b03fU,
  0xbd158a60bdee442fU, 0xbc6d682fbd6c7183U, 0xbd62d5d2be0197a8U, 0xbce523353d6e254fU,
  0x3cf2800f3c130e3fU, 0x3dcc9d903dc3ee92U, 0x3b0ea29dbe26e0c1U, 0x3db5221a3df48516U,
  0xbd3665d8bcbe50abU, 0x3d6cf336bd6677daU, 0x3b86de65bd245e07U, 0xbc77c65ebb968406U,
  0x3d01849d3d74404bU, 0x3d70b4753d6c22b2U, 0x3db18b7abdba2b8fU, 0xbcb44f32bd21583bU,
  0x3c0b8a70bdaa0f31U, 0x3c0990473dacf69dU, 0xbe35344c3d06b59bU, 0xbdf0a935bbf3c8cbU,
  0xbcf535b4bd9b029eU, 0x3d2ddf643e071121U, 0x3b20cbc53ce00496U, 0x3cda5a71bdbfb14eU,
  0xbcb6d7813be10315U, 0x3cd91727bdfb4bbfU, 0xbdb3cda5bd93f81aU, 0x3d2d94e9bbbc90abU,
  0xbcbeb53b3ce2299fU, 0x3e01ab18be16df3dU, 0x3d6d0240be38eb02U, 0x3daaedd5bdb54ff7U,
  0xbd4329e73ddb5653U, 0x3dfa3597bda462dbU, 0xbd4dbc50bdf3d09bU, 0x3d697543be0d5a16U,
  0xbcb2069d3e0b6ca0U, 0x3ccdc5b7be184185U, 0x3dbb3a40bd1e00b6U, 0x3decc89a3d3fb988U,
  0xbd9582a13d96e17fU, 0xbd7a5f263afce812U, 0x3cc3899abd7d9796U, 0xbd899a0a3dea755fU,
  0xbd1c47a53e31f84cU, 0xbdad27bfbdda2fe1U, 0xbd6bede4bd3cc164U, 0xbe2ece3a3d821dc7U,
  0x3ba376e7bd631398U, 0x3cde2bf4bc4a5db6U, 0xbd83324b3d89b3daU, 0x3d1082b1be2504b4U,
  0x3dc21c8abdd561e7U, 0xbd015c8fbd975e4aU, 0x3da6d9d63db0da7cU, 0xbced578ebe16b578U,
  0x3d14d602bd9629fbU, 0x3d301c5c3d8bb7a2U, 0xbc8d75be3e1aeedfU, 0xbdc749943dd1dfd7U,
  0xbd422be93d33b4e2U, 0xbce841b4bdb355deU, 0xbb3b8440bd9a3a46U, 0x3caa3a0bbc36516dU,
  0x3dc08ad13d620f6cU, 0xbb0807b1bc9c8540U, 0x3cc41aa93dc27e8eU, 0xbdddebae3e0eca7cU,
  0xbbd7947bbd012262U, 0xbdbb9c10bbef26adU, 0x3c47ccbfbd8628f8U, 0x3b88b4cf3da51367U,
  0xbdd87fd2bd93f935U, 0xbd1004143e0d0cb5U, 0x3e15bc9abdd5b666U, 0x3da0817b3d2373ddU,
  0x3e1a2d8d3e3489aaU, 0xbc6bf4633da5a0b9U, 0x3d0dc0433d0e8f1eU, 0x3e1e44453d2808b2U,
  0xbe068e85bcfd07feU, 0xbcd0f8523e4b1953U, 0xbe147c50bdaa085cU, 0x3b9ebac9bddc55e3U,
  0x3c567c4abdd43a36U, 0x3d973f2f3e632ae1U, 0x3cb086743e012f91U, 0xbd0a316e3cef3bacU,
  0x3d24c7443df097a5U, 0xbe297f143e11367eU, 0x3d60dbe93ca05adeU, 0x3e1a7790bd18a6baU,
  0x3d64e4133d8306dcU, 0xbd09d1863d241005U, 0xbd9ed9233d5d557eU, 0xbe3642a8bc9864d7U,
  0xbcf3efa73cdcc305U, 0xbc68e60abd0870b2U, 0x3e33a0383e0c4c9cU, 0xbe78e2d4bc7371deU,
  0xbea3a41d3dc4a78aU, 0xbdfa48a33d71562cU, 0xbd95c1c43d174cc3U, 0x3c996c49be027c1fU,
  0xbc4a43a2be4368f5U, 0xbd5e68f63d3b14dfU, 0x3e1f2735be120cd1U, 0x3dcc89553df2f3f1U,
  0xbd1be72fbce6b3b0U, 0x3c7317d43e0f87ccU, 0x3e0530f7bd31bed3U, 0x3db91bcebdcaf2abU,
  0xbcb1261b3d597378U, 0x3b90d0d83e159b80U, 0xbd8a3f063e1321faU, 0xbd5eabe7bdd52defU,
  0xbe0f97c03e0ab02aU, 0x3e0304923c5cd94dU, 0x3de64b913d98e765U, 0xbd0e56073d9c6136U,
  0xbd8bd002bd4c3e81U, 0x3e50e21e3bab6f1dU, 0x3df600b4bde5f8ceU, 0xbccdd347bde78f1dU,
  0xbe249f81be14d935U, 0xbcf46b643c21e561U, 0x3cf05c88bd290359U, 0x3d489f00be07f0d5U,
  0xbdf3eb283ade4cdbU, 0xbd8c3a36bdc50889U, 0x3dd72fd93d922676U, 0xbd86c27cbcc3bfe7U,
  0xbd9d1661bbc6269fU, 0x3db9699b3d68a542U, 0xbdb67af13e331f05U, 0xbcd1431dbd888051U,
  0x3e1a1518bd87082eU, 0xbc1d7b4b3d27572aU, 0xbe522aee3d25e847U, 0x3d2c71edbd1a8c1eU,
  0xbe121c6ebcb63471U, 0xbe5549293d188bbdU, 0x3e82b59fbdec7eceU, 0xbd9b4df03eb3cbe0U,
  0xbce9adbb3e77a5f5U, 0xbc9fe21abd5af741U, 0xbea1177a3e58acbfU, 0x3d39cbcc3ebf354eU,
  0x3d96745c3a73f154U, 0x3e619a1dbd9733c7U, 0xbe0414ef3d8bfe87U, 0xbe2ea392be258ff8U,
  0x3d56e951bd6f94f9U, 0xbe81f4a1be185ec8U, 0xbd00f5a1bd29f9d6U, 0xbd8e39f03c4328c3U,
  0xbde636093b947addU, 0x3d36909c3c6b261aU, 0x3ddb7a2f3dd18915U, 0xbd12b174bd695670U,
  0xbdabcff63e32be15U, 0x3d88b64f3e10f1ceU, 0xbe27358b3e34fdb2U, 0xbe3003dfbd84d732U,
  0xbc8b25f03e193a43U, 0x3e57fe4d3dc3284fU, 0x3e1aee113d8a02d3U, 0x3def340dbdfb75f7U,
  0xbd4bde70bdec400aU, 0x3d93aab73ebbd11aU, 0x3d9e6a013d36e9a2U, 0x3d550c43bdc38056U,
  0xbdb697d6bc42651fU, 0x3d76d9d8bdee8408U, 0xbe15bb29bde28a1aU, 0xbd930885beaf41e5U,
  0xbc9cdec5be17db05U, 0x3e4512953dd645a0U, 0xbdc9f8f03c7f4f8aU, 0xbe3d8f433e211fb7U,
  0x3e054da83ea35cedU, 0xbdb183ed3e32c67fU, 0xbbc5a6153deb7ebbU, 0x3dd69001bd8e17f8U,
  0x3d6d0834bb9e6839U, 0x3cfff0983d9564efU, 0x3e4000cabe09e75aU, 0x3e33d26c3d87d630U,
  0xbdec70643e4794a5U, 0xbcd7fce2be3bd01cU, 0xbdce55d5be39b9e4U, 0x3db9239cbda143e7U,
  0x3e403b423e4ad598U, 0xbd0992613eea2b98U, 0xbe375e6c3e894f37U, 0x3c38591cbe2092d3U,
  0x3c8f00e5bdc8e6bbU, 0x3aa7778b3e17d05eU, 0x3e59de25be25e585U, 0xbdf74cd7bd9a0ff4U,
  0x3e824ae3be17f00dU, 0x3e88c8a93cda82bbU, 0x3e0e4ca8be3322bfU, 0xbe7614b8bec2bdafU,
  0xbe6b735ebd4f362cU, 0xbc5968a13d23088eU, 0x3e4114603cc59cf5U, 0xbc7940853de2a7e5U,
  0x3bd1a051bbd87978U, 0xbdba6fb3bdc6c96aU, 0xbe072b713ea70024U, 0xbbdacdacbe49c367U,
  0x3d55f7efbe09abd4U, 0xbe58393e3e949cb4U, 0xbe4b96f13e8679b8U, 0xbd0fb0073d60bf02U,
  0xbe6b0e143e42deb3U, 0x3e4ab54abc8d8cb7U, 0xbdd0220e3e2843b8U, 0x3e1f7e6fbdb7dcebU,
  0x3e21feacbe87272dU, 0x3e2a639ebda41c3eU, 0x3db245ac3e3a4be7U, 0xbe5bb08fbe0f6050U,
  0x3e855257bd66b82eU, 0x3d9652e3bd75ffcbU, 0x3dbc3bc0be9963deU, 0x3d8b3bcd3e9d80c6U,
  0xbe8df49ebe3b26fbU, 0x3cc4d92fbcc9ad3aU, 0xbd6eb1093eba4a85U, 0xbc28d0763e23c5ecU,
  0xbe83bfb6bd76a8c5U, 0x3e062f523e8b35f5U, 0xbac990663db040feU, 0xbe72be983e8d8d19U,
  0xbe2488363e86601dU, 0xbe34183e3e58af52U, 0xbd7feb2e3db4b643U, 0xbe2257cb3e983d99U,
  0xbe0572483dbfac92U, 0x3dea1c3f3d081259U, 0x3e639a203e906920U, 0x3e48094b3d5d3b77U,
  0x3e003b973e044e19U, 0xbc09546dbd2d7918U, 0x3e9632bdbcc4c607U, 0x3dd31cf9bc4e65a4U,
  0x3d577c2abe5e7214U, 0xbdd132933e93007bU, 0x3ea696f43e797e05U, 0x3e3a43da3e9080d0U,
  0x3db8a0873e89b48eU, 0xbe6cea2c3ce87b57U, 0xbeba64b3bea862b1U, 0xbeceb3dc3df6cdc7U,
  0x3cd29ee23de7ccfcU, 0x3dde52143e0cc860U, 0xbd4ffaea3dc1f7adU, 0xbdaca7d73e9f9b88U,
  0xbdac3e9dbe601383U, 0xbc7b63c6be8c3883U, 0xbdfeaac73e00dcdbU, 0xbe9007713e6fae5bU,
  0xbe236b1b3e1f4741U, 0xbe95f6d43e078ea6U, 0x3e40b6013d82c051U, 0xbe1cd08dbdbf7de6U,
  0xbd0ce2643ca674cfU, 0x3d8c4997bd0734beU, 0xbe1a61b43cb3a65cU, 0xbda370b83cad1a77U,
  0x3d07a0c1be2cb06bU, 0xbce25f393d647fe8U, 0x3de91e383d1cfa42U, 0x3be9cc7b3e0430a1U,
  0x3de5b9dabd44e348U, 0x3c72d32a3c3bade6U, 0x3dba0aaabc3936e9U, 0x3ca3a81abd5203f2U,
  0xbde9b1f43d59ff09U, 0xbdb6ba743d324332U, 0x3d9f9f13bd41dae7U, 0x3ce388373d88b447U,
  0x3d1cad24bd4ddec5U, 0xbd1bb03abd8803c1U, 0xbc767a81be02b9d6U, 0xbe39bd80bdc3cac4U,
  0xbd5753c0bd64f72dU, 0xbcc245833e17e3deU, 0x3ce5c6623ddeec5bU, 0x3dd891a2bd816cf2U,
  0x3c60c3f4be4a07b1U, 0x3cba7ea9bcf734b9U, 0x3d22b243bcbf77b5U, 0x3db6ddd0bd1a3943U,
  0xbd1d7cb3be0c8598U, 0x3dac1e61be29604fU, 0x3d492548bd09602aU, 0xbe11a0b2bd95d83aU,
  0xbd937e88bd1f2bbfU, 0x3e0bbd673d671dbbU, 0xbd9d2523bd93b095U, 0xbca4eea73a6d4ec6U,
  0x3d7a8e70bb327bd1U, 0xbb6a3f2d3dec66beU, 0xbdaf9b803d88db7cU, 0xbd48ca9cbdbf16f8U,
  0x3d0a2ba1bdbe9e07U, 0x3c9b0109bdcaa91fU, 0x3d97afe8bdc6571cU, 0xbd46facc3cf46775U,
  0x3b6495683d4d8117U, 0xbd8f2c4fbe2d4acdU, 0x3b4c621a3c8dd9dbU, 0xbdb366883d1d6addU,
  0x3dff6ba03db1df06U, 0x3d2eb660bdf3b641U, 0xbd97c05a3d5a560bU, 0xbdb5eee43e2468c2U,
  0xbe32184d3dcebc5cU, 0xbc2b68cbbc1eb3cdU, 0x3bfa2def3c890648U, 0xbdce5646bdf63c53U,
  0xbd07f9193deb2a29U, 0x3db2e0e4bb84b54eU, 0xbd10a7383df5323cU, 0xbd928159bc075d49U,
  0x3d855aba3dd8adf4U, 0xbd0733e9bd6235bfU, 0xbca7232c3d0ca516U, 0x3b46c51fbca2b210U,
  0x3d0b8eefbd45637cU, 0xbce04eef3db7a629U, 0x3dcdfc77bdd1147fU, 0x3d9ea275bdd95fbeU,
  0x3d7d7fa43d19cd41U, 0x3ce6521e3de6ec88U, 0xbc792faa3dc976e3U, 0x3d75b284bd790340U,
  0x3db9e296bcc72238U, 0x3db373d0be3cb62dU, 0x3cc3c5cb39bca25eU, 0x3d7a2d8f383ed8e3U,
  0xbd1563f9be1ac1d1U, 0x3d994a6fbe475572U, 0x3e2f2fd43d32df60U, 0x3dc9b2513cd6fd97U,
  0xbe7323383ca7bbbaU, 0x3db687bdbcbeb468U, 0x3c6e87453de03952U, 0xbdfa54063d5fc4b6U,
  0x3d835537bd437699U, 0x3b3da34a3d75b8beU, 0x3daf6c0b3ce0607fU, 0xbd8646613d967e08U,
  0x3d447d14bd819eb8U, 0x3c9f320abd276fe3U, 0x3e40bfbebd04807fU, 0xbbed32a1be04b635U,
  0x3d8bd4273d668ad5U, 0x3db80422be255ca9U, 0x3dce3f81bc4cc553U, 0xb8c6416e3c493d3eU,
  0xbdb7c8efbd825b7dU, 0x3d70bd0dbdc62b5fU, 0x3d0b0052bdb8ac80U, 0x3dcfb374be4b4c86U,
  0x3db5b32abd96821dU, 0x3d8109213cca9cdaU, 0xbd9c9f06bca27db5U, 0xbe0b4601bceb89d0U,
  0xbdb92036bd249a91U, 0x3e02084dbdfa0e88U, 0xbe2653013d90796fU, 0x3db9378fbd4f81f5U,
  0x3e18d426bbfa5bd2U, 0xbde4b75fbd2d70abU, 0x3d4794223d9c7e3aU, 0x3d9f55e3bdb4eaa9U,
  0xbc45362dbe41dbabU, 0xbe6e7ab03cddf0d0U, 0x3c7b32d0be6cd1acU, 0xbbf60d8f3c22e1a4U,
  0xbd2fdbb13d001aebU, 0x3bca90623d513e36U, 0x3d0e35823d32962aU, 0x3dcd3d42bd1cb65eU,
  0x3e063e20bd6127adU, 0x3db4acd03cc612b8U, 0x3df7bb77bdf22a6bU, 0xbe1e0cdb3d4354e2U,
  0x3df2d77c3cfcda1aU, 0x3cbfaf62bca43fbfU, 0xbb7de02ebe597907U, 0x3d7672083d88aecfU,
  0xbbb318733da64ef3U, 0xbdc7ed273af70152U, 0x3d08fd533db90174U, 0x3bf96503bdc5775cU,
  0xbd46b1f53e1062b2U, 0xbc9d7e0c3ad0c5b1U, 0x3da04e143e5ce311U, 0xbd9c5370ba111c35U,
  0xbd8ba2483e122dffU, 0xbe1b8f033d99b1acU, 0xbe959ad63bbb452bU, 0x3d32ccc73e5edb02U,
  0x3e12e517bdab93f7U, 0xbe669766bb1cc56fU, 0xbe14446e3dced685U, 0xbd4c794e3e43d841U,
  0xbe0074923e241e99U, 0x3d8ee0753e218da1U, 0xbc972707be1846f5U, 0x3dd63df93d07fd83U,
  0x3e5a33b3bd88b3d1U, 0x3e0a8968be0aab42U, 0xbd91a08b3db9e510U, 0x3e67831ebdf6f2a2U,
  0x3ddcb71c3d6256c1U, 0xbcdde8a0bdc8fb4cU, 0x3e51983c3e22b91dU, 0xbd805d7ebdd89f10U,
  0x3c812ca53dde0e45U, 0xbd050c5d3dfbe517U, 0xbdd3222e3e224133U, 0xbbaaba0d3d6b17f7U,
  0xbd11d393bd84105fU, 0xbde69e343d893ccbU, 0xbc0fb7f8bd826aa5U, 0xbe57e3d13ca47121U,
  0xbe8793383e0b0561U, 0xbe6a7d2f3e193a34U, 0x3d0f3dbf3e0a4e0fU, 0xbe06754f3e637abfU,
  0xbd093841bca3f6b1U, 0x3cc82bcfbd2fb77dU, 0xbcffe3fb3a811376U, 0x3d28300cbcd43771U,
  0x3d9709d8be2450f3U, 0xbe30aa4d3d1bac54U, 0xbdbdc78a3cda5a74U, 0x3c103e97be115044U,
  0x3d48d21bbdc045eeU, 0xbe4ff1203d46de04U, 0xbdcc79d93e5f6218U, 0xbe1777b5be3665b0U,
  0xbcc20b12be0d8889U, 0x3d83968d3e0d373fU, 0x3df5acddbc88bd6bU, 0xbd876adc3da29378U,
  0x3c92ce993d36e86bU, 0xbd77c48b3dc028e2U, 0x3d07960b3d7eea47U, 0xbe6df909bd8f1743U,
  0x3d83c28b3dbfa542U, 0x3d6896d8be367a5cU, 0xbdb0e77b3e2e352dU, 0xbdf523b13d279e17U,
  0x3d90a198bcbafed8U, 0xbc980a113e64957fU, 0xbd85e29f3e31cb5fU, 0x3de10253be07789bU,
  0xbc826e993db6a54bU, 0xbd4014833c90ad64U, 0x3d5efb493d564bc6U, 0xbe49eb03bdc42af8U,
  0xbe1e4f02be05e750U, 0xbe05e988bd397a13U, 0xbd66a6f7bb72cc53U, 0x3c4bd58abacef2d3U,
  0xbe991e7f3e3bac97U, 0xbdfa5de83dd5fa8bU, 0xbdcf1e7ebe08d515U, 0xbda7ea613dad6bb2U,
  0xbe0ce6fb3e29b05eU, 0xbe020ecbbe05d3dbU, 0xbe1553bc3d108213U, 0x3e3a375fbd9734b9U,
  0xbcdf538f3bdc95a5U, 0xbc2336eabdf0d701U, 0xbc850456be86494aU, 0xbde2bdb13d1dcf2bU,
  0xbdbd5ee5bbc5ffe9U, 0x3dc0bfd4bec91c7aU, 0xbc57393abe241286U, 0xbe0ff4d6bd2ee935U,
  0xbc2c923e39ddf8a9U, 0xbe165f613e0a3b26U, 0x3b97c210bcabfd8cU, 0xbe994361bda76b35U,
  0xbd36466c3e66c73bU, 0xbcc9dabebd9e1ab4U, 0xbc93c5623d156b15U, 0x3cf9589d3d739aa5U,
  0x3cda5a15bd20ed3aU, 0xbd4c230f3e080aa1U, 0x3bcb7c6e3dd7fa4fU, 0xbe336f91bd56af3eU,
  0xbea24d2e3bb138e3U, 0x3dec5be9bda7d61bU, 0x3cd5522cbc81c33cU, 0xbbab5067bd8d9b9aU,
  0xbdf4976abda11f81U, 0x3e06a2c2be2baa64U, 0xbe82d645bc346001U, 0xbe973d49bde3d9b2U,
  0x3de5d7a83d427296U, 0xbc58cddebd995807U, 0xbe581730bcd82e49U, 0xbec6bd693df1096bU,
  0x3dc70cc33d0b7327U, 0xbc4c78303e36a268U, 0xbec5f6043d9a8fc0U, 0x3da15b17bd93467eU,
  0xbd1097cbbd5a1118U, 0xbd230b93be007a47U, 0xbe3f16d3bdd9f946U, 0xbe2e4fedbd2cd8c7U,
  0x3df40d08bd81bd77U, 0xbe0c1c39bc041abcU, 0x3e00a6ca3c6b6869U, 0xbebdb1e8bda3b09dU,
  0x3d81692abd67d8bcU, 0x3d8f807d3e2732aeU, 0xbe2be63bbe4bafafU, 0xbcd8f127bc99e274U,
  0x3e2dcdf2be1603b1U, 0xbde16c9fbdc411efU, 0xbd10589d3bc90ea8U, 0xbdcf18ebbc5d28f0U,
  0x3d0cfd2c3d8ac0c7U, 0xbddec68d3c3c93b4U, 0xbd900143bddd8f74U, 0x3d53e232bdb761e5U,
  0xbdaa566a3d47648eU, 0xbdfd97a13dce31e3U, 0x3de55588bd5b9148U, 0xbd0979703d30c803U,
  0xbce9cf3b3e2e4de2U, 0xbdf286ab3d98eb4aU, 0xbce8ace73d75de46U, 0xbe10915d3d112c08U,
  0x3cf8a3c3bd447114U, 0xbd7ebce9be776bcaU, 0xbdde05f9bce3fb64U, 0x3d401edcbe104e2cU,
  0x3c79c079be25f0e2U, 0xbd824aa6be4037b9U, 0xbdc01a53bdbfc3b7U, 0x3dcb7d3a3e452244U,
  0xbbd9ca56be9af013U, 0x3deda368bdabd556U, 0xbe109823bc1a7ff5U, 0x3d8528ee3d6cf35aU,
  0xbe08a6393d9177b3U, 0xbd977857bd3ec371U, 0xbe038b633cbb0b52U, 0x3d9f82a3bc64e08dU,
  0x3d6494513d23d5f5U, 0xbd8cfb45be962071U, 0xbd5b9eeb3e71e2a7U, 0xbe7035223e0b362aU,
  0xbd9ef413bc624c4fU, 0xbc4f11493ca0cf93U, 0xbdd414dfbda26a03U, 0xbe51ce1439937c89U,
  0xbc89cdeabd864980U, 0xbe0daa13be416d28U, 0x3ca1f682bdcaa85dU, 0xbcefee2dbe52eda2U,
  0xbdff952ebdae8ca6U, 0xbc75d231bd868c72U, 0xbd8a4766bdd107d2U, 0xbc1a0929bdab9963U,
  0xbe1f7d24bd1ceadaU, 0xbd5a9f7ebcb2bb83U, 0xbe1d34bfbea4df86U, 0xbd5ae7ccbea4427bU,
  0x3da6d786be0a4e61U, 0x3d8e31dc3e41f7ebU, 0xbe5f627cbdb63c18U, 0xbddbd7193d59f2f0U,
  0xbe0f31abbd9e688eU, 0xbd3d0edebd698d53U, 0xbe506ae63e6dfd63U, 0x3d9655783dfba998U,
  0x3e0110c5bdc43a79U, 0xbe4327c3bcfac6aaU, 0xbe8a84673db61bbbU, 0x3bc9f7dd3d472ed5U,
  0xbe11c1e33dcfcda1U, 0xbd969522bd358ceaU, 0x3d9ec285bd6ea5ccU, 0xbbb765623d749831U,
  0x3d6d4816bd80de10U, 0xbdbeb176bdcafcebU, 0x3d9f7b50bd28d963U, 0x3b526d003d58c607U,
  0x3e181b773b4c19f8U, 0x3db3a2743d52d779U, 0xbb007d7cbe439ad5U, 0x3e04250fbe5750cdU,
  0x3ccead20bc23284cU, 0x3cf2bd123e40d97cU, 0x3c8000d1be3bad18U, 0x3e51f56cbe49f565U,
  0x3d5e067abda84c98U, 0x3e3e2d32bd68c799U, 0xbe2679c03dfca41eU, 0x3e3a3742be05e5c9U,
  0xbd997f153dc2406bU, 0xbd5b87f63e08827fU, 0x3c21230e3d3b52aeU, 0x3d1ecb853c9d2529U,
  0x3ca5925c3df1b345U, 0xbe0e96fe3c7adef7U, 0xbcce21c83c44b02aU, 0xbdf872163e1d7a7cU,
  0x3db90521bdb6d143U, 0x3dc2124bbdf1f471U, 0x3dde07ab3dd80273U, 0xbe4b380abe45cd05U,
  0xbd973ba5bd8e24dbU, 0x3c73d418bd952eb3U, 0xbe677bd4bd9d5837U, 0x3dcddfb2be3beb76U,
  0xbbc14f1dbe3dcf82U, 0x3e00ac61be12bb4eU, 0x3e1151d9bdf04121U, 0x3dd3f1963daa0ab0U,
  0xbdf78612be2f87ffU, 0xbe9055ee3c7bc2bcU, 0xbe1b159fbe267970U, 0xbd2c9e20be250f50U,
  0xbe2b65a9bc081442U, 0xbc56b405bbcc9b35U, 0x3e012fbabe6e9817U, 0xbdd4892bbc8f6bd9U,
  0xbda15158bb1620faU, 0x3c6c515c3dd35d33U, 0x3d6f9f703ce43960U, 0xbda87693bdeb64aeU,
  0xbe07ee86be5c6352U, 0x3ddf4c87bd8a5f85U, 0x3dc00f9d3d97fd31U, 0xbdd013cabcd65c14U,
  0xbd528fd1bd9d9560U, 0xbd32ba43bdb2cfefU, 0x3d985c8fbd97900fU, 0x3d9b70b3bd32ac11U,
  0x3d8746f4be7767c6U, 0xbe4b4f5a3d42cc62U, 0x3dd615453e2c9a63U, 0x3dcedc2fbdabfa4fU,
  0xbdc93db3bdcb8d48U, 0x3d818559bc90fa8bU, 0x3b9f3995bcb5bbfcU, 0xbe5232b03cad2a1cU,
  0x3c09b9833b3b0d9eU, 0x3ce7c81f3cca1a1dU, 0xbd97244bbcfa2444U, 0x3d92c70e3d95a4c7U,
  0x3b0f6418bca25d69U, 0x3c8c03553da46895U, 0x3c874d0f3d57ce68U, 0xbe31ad263ba52e3cU,
  0xbd5644023d2d568bU, 0xbe065d3a3d561feaU, 0xbdae33db3c58e50aU, 0x3c9079be3dfd27b1U,
  0xbe204349b9f45049U, 0x3d8874c73d83a5a5U, 0x3635af403d7f0173U, 0xbdb07711bcafd444U,
  0xbc998289bdfd687bU, 0x3d2272e33dc4ced9U, 0x3d0ecbbbbc85524cU, 0xbd0a8c2cbd8014b6U,
  0xbca9fe07bcdd5c28U, 0x3e17a7d43d9736c9U, 0xbc3320cf3d9ff236U, 0x3d949016bc8f8826U,
  0x3d0e6cde3bdc7507U, 0xbda1817f3d910f00U, 0xbdb658813db069a6U, 0x3d2dd4903d49c639U,
  0xbc421ef43e3fae7cU, 0x3d8cf4bebd3c697fU, 0xbdedcd58bd2bc805U, 0xbd0bcfc23c8af3aaU,
  0xbe0d0cb6bdb64482U, 0xbd620a003c267042U, 0xbd4380183d87da8bU, 0x3d4662023cfcb66fU,
  0xbce462e13c0f2864U, 0xbe1f7b173dc3e50cU, 0xbc1c6953bd8bffacU, 0x3d3c82b9be8398f6U,
  0x3d1389403ccbeb8fU, 0x3cfd3b083dc8357fU, 0x3c466f5d3b297418U, 0xbe1251463d16fe8eU,
  0xbdc83cc1bc807f94U, 0xbd45395fbc3fbdeeU, 0x3d95a87e3c427af5U, 0xbd877a8bbd47f663U,
  0x3d196eb43d872e13U, 0xbbfa57ecbe1bdf59U, 0x3bdc51e1bdd12415U, 0xbc9ad38d3e1dda14U,
  0xbd1a5c79bb82870bU, 0xbd02c26c3b3f028fU, 0x3d85be92bd540e17U, 0xbd2b1a1d3c014722U,
  0x3d23f9763dc766a8U, 0xbd661cea3dcf11ffU, 0x3be0a25e3ac06033U, 0xbcb98d42be04f395U,
  0xbc5c7d333d967176U, 0xbe0fe5413d2600beU, 0xbd1bb76e3c4a5530U, 0x3d9303153dff0fbeU,
  0xbcfff669bc369c74U, 0x3d9461a2bd02aecbU, 0x3c3e5937bc566657U, 0xbd9324fcbe8a5466U,
  0xbdcdaa8dbcf13110U, 0x3d0fac403d9fe482U, 0x3e44cce23e36969cU, 0x3c98e5f23cc841ccU,
  0x3da13cf73dd8ccc2U, 0xbc930463bd7bdf16U, 0xbb9b90a73e68d243U, 0x3caa4467be012f79U,
  0x3db0ca50bdaab2f8U, 0xbdc71ad83e32db53U, 0xbd7b9a103e6b9887U, 0x3b6829333bda2e81U,
  0xbcf4a3be3d501457U, 0x3e1bec603d8d0b68U, 0x3d9b0ca83e118eb7U, 0x3e45da933dc6a2c0U,
  0xbbbdddc8bda80e99U, 0x3e1db48abde60fddU, 0x3e5c6a77bd431d1aU, 0x3d96a35c3dcd7ce5U,
  0x3e6f45043d975815U, 0x3d8fb10cbb2ef251U, 0xbd30625fbdf61d71U, 0x3db72e663e400ebaU,
  0xbd87aa24be5ea991U, 0x3da94dd03cd2632fU, 0xbd55879f3e942775U, 0xbdb3afa53e7dbe02U,
  0xbe84b9bdbd85d750U, 0x3bf521ca3e3a456dU, 0x3e269b5ebccb1dc7U, 0xbe0238143e01693aU,
  0xbd0fe5ac3e8fcad7U, 0xbaa83781bd5b0423U, 0xbbd885cb3df9526fU, 0xbe0530353ea39075U,
  0xbe5d671f3e398237U, 0x3e40b1503c2322deU, 0x3e2a153b3e0b3065U, 0x3cc55e7f3e243c5fU,
  0x3d28cdd73b15bbc6U, 0x3e0c2d58be1a0699U, 0x3e895e403cf73bcaU, 0x3d30d5cf3d4db0bfU,
  0x3dd9eed4bd90930cU, 0x3df7f4143ec03d5cU, 0x3eb80a5d3da85ea0U, 0x3c8451463e85ebdeU,
  0x3db814333e5201a5U, 0x3da572c53d294b86U, 0xbdf0460ebe62d469U, 0xbe7cc284bd29b890U,
  0x3d4632a53e2f2e72U, 0x3d90df643d37546fU, 0x3dd402433dc4c6cbU, 0x3d7b348f3ec959cdU,
  0xbdaf2fa4be22befeU, 0x3d03fdf5bdc20dbeU, 0xbd2e2a813e162689U, 0xbe6752573e6fdd6fU,
  0xbc15b5b83e5b4e53U, 0xbd8867d53d902c3fU, 0xbd3dfeca3d2e9e34U, 0xbe0b4c91bdec0b1fU,
  0xbd947840bd8fddaeU, 0x3cd1eb38bd806fc5U, 0x3d4144cbbbdf6780U, 0x3da1b4033b64c2f4U,
  0x3d02b31e3cabe370U, 0xbccb862a3e603611U, 0x3d20aca5bc567d8fU, 0x3decd2bb3c79555fU,
  0x3d6285673d0eaacbU, 0x3e1c7d3dbd0449bbU, 0xbb8f4e6c3c69ea27U, 0x3dd84c3fbc9187b8U,
  0xbe3e6f7ebd897a4eU, 0x3dd8c75dbda720ceU, 0x3dadd51dbdd90e4cU, 0xbd09a7b83b60c651U,
  0x3dc61edbbe03193aU, 0xbd4d69123ce27674U, 0xbe07110abd2131edU, 0xbdaaeaa63da54dc8U,
  0x3e1c01713dab4d2eU, 0x3d243741bb410acfU, 0x3e1454b83d723691U, 0x3d7fa2813de392d4U,
  0xbcc9507ebe4c855eU, 0xbcbec8d9bcdc49acU, 0x3e6905b7bbb87e1eU, 0x3e1cda763e2f9097U,
  0x3d3efe9ebe57846aU, 0x3dccd629be17a00cU, 0x3d98a9afbdde00daU, 0xbd19491ebd12dc0eU,
  0x3d9885e83e28fbbcU, 0x3daa77d13d43215bU, 0xbd6267c9bddcb93cU, 0x3e1b57343ddcc4fdU,
  0x3da639c23d197069U, 0x3e02e17cbdc7abe4U, 0xbc138ee2bd1f1a3aU, 0xbdb820513d8590bcU,
  0xbc27f3953d762168U, 0x3c0801e9bdd540d9U, 0x3d1e36673d179e77U, 0xbdb72ffb3d5b537dU,
  0x3db22d073ddd8d3cU, 0xbd3ed870bde679a8U, 0x3e3ded2ebc212c36U, 0x3b2211cd3d642f2aU,
  0x3d1c753e3e4d67d8U, 0xbd14052b3d43a762U, 0xbdbb34513deaca62U, 0xbcbb8fffbc2fce33U,
  0xbdfe35b03d798dc8U, 0x3ccc7cf0bda3057fU, 0xbe15eb92bd2c2435U, 0xbdc10601bc9409b4U,
  0x3e3b003e3e1cd216U, 0x3c721149bc06f382U, 0x3c1bc0a63d777fb8U, 0x3d82c4603de757a2U,
  0x3df0eff53db1941cU, 0x3e07ba013cb7efdaU, 0x3e3c1fd1bcebe1aaU, 0x3c7364cdbcfd42e5U,
  0x3ba485e73da60abeU, 0x3d11dd8a3da4a819U, 0xbd98f836bdd2b232U, 0xbd649b9cbc7a92faU,
  0xbe6d8e21bd653faaU, 0xbe7b8894be0cb95bU, 0xbe7e4c96be7a221bU, 0xbba19f203db5d577U,
  0x3dc8fa703e2b379aU, 0xbeaf5f5b3c1c4397U, 0x3cc610ad3d3ae0ecU, 0xbdc07727beabfa8aU,
  0x3af209223d5e8f49U, 0xbd931d56bd7a8451U, 0xbd9f5211bde6148dU, 0xbc5b1195bd4a14aaU,
  0xbd8e0642be743d72U, 0x3c12120c3dcdbf8fU, 0xbdda5393be51673fU, 0xbd4aa89fbe4ee42fU,
  0xbdf159733c9ba3ecU, 0xbe45fa81bd939ea6U, 0x3d5e0754bec07670U, 0xbde08e2ebe054c6bU,
  0xbe76cd8fbc62506dU, 0x3ce1db8a3d108fd8U, 0xbe3ee854bb3df370U, 0xbdf123fe3d8ae435U,
  0xbeaf9d2dbe149d48U, 0x3d5bb1c1bb43e926U, 0xbd903174be1a412dU, 0xbe05d7453d56b0dcU,
  0xbdfebd3abc7abedfU, 0x3d3030fabd0e862aU, 0x3d26414fbd3589bfU, 0x3d2f7e323d05a49aU,
  0xbe67a5a1bda9d19aU, 0xbe8eca38be27f781U, 0xbbdda14dbcb7ce62U, 0xbd2ace08be0a4a59U,
  0xbe7097bcbdc35670U, 0xbe732b6dbddb005fU, 0x3d0e3c46bda36ca9U, 0xbe41f8343cb37831U,
  0xbe6041cc3c84e1bfU, 0xbd828e0a3e0b4ec1U, 0x3d9d50ecbe9bbfa7U, 0xbe0162febd40a5a3U,
  0xbe97064ebd209195U, 0xbd78156ebdcb43bdU, 0xbd8e916f3d47da69U, 0xbeb7196c3d8f1d5fU,
  0x3df5dcd7be242392U, 0xbd3abdaebe08e347U, 0xbd970781bdd00904U, 0xbe025953be5c9c52U,
  0xbe75ae0ebdf4af08U, 0x3d0dd998bdf7154eU, 0xbe2e278abe6be473U, 0x3e447100bd917c37U,
  0xbec3102abda51efaU, 0x3e024495be333fa2U, 0xbd264c2fbd2c1667U, 0xbde75b73be0762d1U,
  0x3c2dc93fbe41173dU, 0xbd74073abc09e38bU, 0xbd8e339a3d6b0968U, 0xbe13ccc53cf4e337U,
  0x3b284c5fbaa1501bU, 0x3d61f33fbdc8e3e2U, 0xbd550dcfbd0ed21dU, 0xbcb55fcebd7ebfe8U,
  0x3b6eb48b3d4fc7d2U, 0x3d1f10f53d8e6690U, 0x3c25bff73cbcf704U, 0x3dbca4f53dd8dad3U,
  0x3ce511c8bd500229U, 0x3d0f850c3d9842b3U, 0xbdade0acbe114fccU, 0x3d14aaf73acf750cU,
  0x3ca44a2b3d03c148U, 0xbd165921bcea77b9U, 0xbc2448afbcf7039dU, 0x3c6286e3bcbf7444U,
  0x3dbded9abc6737a8U, 0xbda04c4ebcc559c6U, 0xbd6189ab3cf7d8e2U, 0x3e051c4d3d40feb8U,
  0x3e167f973e0097b4U, 0x3c4ac95b3da92d8aU, 0xbcdf9a43bcc75b1fU, 0x3d8761213c922a59U,
  0xbda78c273d9df935U, 0x3ddfabd6bdaaf9b3U, 0x3d420ef83e53ba49U, 0x3e250031be00d129U,
  0x3d9f3b5d3cb8b5e6U, 0x3dbdbc6dbe0b058bU, 0x3d473f2cbe0c5cc5U, 0x3a5d10013dd957b8U,
  0xbce50261bd29ecebU, 0xbd861e58bd20f50cU, 0x3e195ac53d410af2U, 0x3d3c52ff3d800b00U,
  0xbdb0e3c3bdcd7860U, 0x3ce451a0bbe188a1U, 0x3b800a12be02ef4bU, 0x3de290803e20c6e7U,
  0x3da088dcbe01183eU, 0x3dace4473ce135daU, 0x3d5fcfea3dcd568aU, 0x3d88f6473d4cc485U,
  0xbdcf03483ba3bc5dU, 0x3e1f82db3c648eddU, 0xbd0ba3ed3dea14beU, 0x3d39e14c3d096ae0U,
  0x3ca28f90be238427U, 0x3ce2fa9f3e27aa1aU, 0xbe00ce6a3ddd2319U, 0xbc6af0aebd6cbf06U,
  0xbd96cbd3be3587a2U, 0xbb088e27bdf5b682U, 0xbd9a287f3d9ad45bU, 0x3d0581553e3d6132U,
  0xbc5171ae3d5166a4U, 0xbdaec035bd0881a0U, 0xbd1c5e603d98d243U, 0xbd9c906a3d3c9008U,
  0x3e1918a3bdecbd21U, 0xbd8fc1b6bd3bc352U, 0xbd0afdbabda8806cU, 0xbc911cc93c7c2682U,
  0xbde0deb53d8a0595U, 0xbc7fcc51bccd1cb1U, 0xbdb6600abd9813dcU, 0x3d1b5af63d6b6ff3U,
  0x3cd3e36d3da8fc10U, 0x3e1a6f833cf59c2fU, 0x3d1d27923d0fa9aeU, 0xbcabe6ffbd825997U,
  0x3e4dfd403d2c52b2U, 0xbd52d4113d17cf60U, 0x3da002f93cc1f4e2U, 0xbdeea5c43d0ed570U,
  0x3de43ca43d8b4297U, 0x3d4e0a6cbd74acc0U, 0x3cd74fba3bcf55f8U, 0x3d825aa23db937b6U,
  0x3ccf543f3d25a019U, 0xbcbd29a73dcf0178U, 0xbda760983dd97ff1U, 0x3d93a8603daa4a61U,
  0xbac6de15bd557c9fU, 0x3cec4e833dca0d62U, 0xbd912d5f3da98c07U, 0xbddc7ad2bd7eaaf6U,
  0xbe2e51823d843b35U, 0x3d678fde3c81c80fU, 0xbc065e22bca5f8d5U, 0x3e24646a3e25834dU,
  0xbe4ed3413da25075U, 0xbe5375b73db01237U, 0xbdac96df3cf2ececU, 0xbe73343a3cb759e6U,
  0x3e22b819be092294U, 0xbd165af4bd196d09U, 0x3de1e199bcff032aU, 0x3d257994bd1fcd8eU,
  0x3d90c461bbf430e0U, 0xbb84edc43d832ca5U, 0xbd96298d3cc85b78U, 0xbba1675bbd911805U,
  0xbd1f7576bd2b657eU, 0xbd7e33233d07c808U, 0xbdb3b13b3deb9d9cU, 0x3c5bcaddbded0e86U,
  0x3d6b3fe3bd54c865U, 0xbc87dd5cbbc31334U, 0xbd13a5dbbd5379d2U, 0x3dd8f0ee3e02ccdeU,
  0xbd9608e7bdb47708U, 0xbdd285083d9af754U, 0x3e2ad5183ddae3daU, 0x3dc3de2cbdc75573U,
  0xbd1ee7443dc60e76U, 0xbc72ad48bdc2a57cU, 0x3c9fab24399a7177U, 0x3ba3551ebda99129U,
  0x3def2d92bcfd5eeeU, 0x3d30104cbce8fe5eU, 0xbd2255a3bd3db8ffU, 0x3d8f5bb63d6693a8U,
  0x3d072c4a3bef1857U, 0x3a806b913d82a3e6U, 0x3d27f9613d092174U, 0x3dbbccdf3d82a67eU,
  0xbd8809d73cbbeb2aU, 0x3d8b2318bd3c4f5eU, 0x3802cd2bbd96b654U, 0x3e2bd4d33c16f31cU,
  0xbcd618813da0c549U, 0x3d8b67463e4d5532U, 0x3e1560a4bd7df832U, 0xbda581093e31c6d4U,
  0x3d8a4ae9bd829321U, 0xbdaef02bbd0f3427U, 0x3e0f24283e70377fU, 0x3de9654bbd0c45fdU,
  0xbe4c2eb5bd8bccc3U, 0xbddd93e23d875fcfU, 0xbd9586273d9ff5c6U, 0x3e15cf5abd1e5c17U,
  0x3e02cc283e07afe0U, 0xbe51c4fdbc826ff6U, 0x3da91bae3d773d0bU, 0x3dc222ddbb806324U,
  0xbce1745bbe1441dcU, 0x3e0b2ed6bdc31a73U, 0x3e40cce53dae8378U, 0xbb22a6d2bc887415U,
  0x3d1c6b2fbcaf7e90U, 0x3e09d679bdfe5d9bU, 0xbdb051b8be1748c3U, 0x3e1e2949be008f7eU,
  0x3d3fc569bc4044a7U, 0x3cb3828b3e77e4baU, 0x3d17d16d3cbed948U, 0x3e148dadbddacf20U,
  0xbd9aa7503e25b5c7U, 0x3c8cec98bdeaf1a8U, 0xbdc7ac2c3d287073U, 0xbdfef1573d8c482aU,
  0xbe7840c73a30b89cU, 0x3e0ffa383da6f66cU, 0xbe17a56e3df4f212U, 0x3c34ad653d34cd3fU,
  0x3d8ae1873e430831U, 0xbd9fa0f5bcf6b3daU, 0xbcf7a850bd109c8eU, 0xbcdbc8eebe3fb73fU,
  0x3e1d76cebdcaf748U, 0x3d92f5f03cb0f5c3U, 0x3e357828bdb0c3d1U, 0xbc208771bcaab13dU,
  0xbd7652aabd0884ddU, 0xbdb168843db52010U, 0xbe33f5fd3b9de994U, 0xbe2f61e6be009d0dU,
  0x3c85239a3e6d91a4U, 0x3e30087e3cca79e8U, 0x3cb2eb9a3d82eb45U, 0xbc9ce61c3d21e75fU,
  0xbd67d3e93d30635dU, 0xbd1b2868bb9bccc0U, 0x3d5797593d12d240U, 0x3d3f34aebdc4d02bU,
  0x3c7790243e17488aU, 0xbccdbc813e0f3ecbU, 0xbce739003d920a13U, 0x3d7343ce3c38ae1cU,
  0x3dec1f583d8be547U, 0xbba570ba3dca91a0U, 0xbd19bd41bda9f9cdU, 0xbbe4cd203e219c80U,
  0x3cda3e38bda0a8d7U, 0xbd20c71dbdcaaabaU, 0xbdc76fa0be23ffe5U, 0xbe6247fbbd835e94U,
  0xbe3b4b17bc194ad6U, 0xbd8d0afbbd007378U, 0x3d9a7f7abdb3935fU, 0xbda9a5fd3dfc5ad1U,
  0xbcdefd90bbf9a487U, 0xbdff1effbddc5b0bU, 0xbd98c2c93e1d6f18U, 0xbda2e9cd3daef64dU,
  0x3c89a7293d2e61b1U, 0xbd4c8f75bdf4672eU, 0x3df7cfedbe171fdeU, 0xbd65431c3e00f414U,
  0xbdf58155bd82a12dU, 0x3dae21dcbde6fab6U, 0xbde44297bdc59010U, 0xbe4272773ca9ce99U,
  0x3da9d8c6bd92509eU, 0x3c3b45ffbe1f4910U, 0xbd6d3aeebd5d4a9cU, 0x3d4a6897bde928daU,
  0xbdaa9bbe3cb8f7b2U, 0xbcfab10bbd9fc1d2U, 0xbd1c9e6fbd7deb10U, 0xbc7141923dd2ee0fU,
  0xbdeaf294be2052f3U, 0x3d43f8e7bcab4a6cU, 0xbd7428f73e06e0b6U, 0x3ce97aa9bbc3f786U,
  0x3ccee7903cec38e4U, 0xbc8a20d83d5265cdU, 0xbdb10944bd231e8aU, 0xbd36576fbc21db68U,
  0xbd2d6832bdf855e4U, 0xbd67829cbd5e23a3U, 0xbd9f3155bd3188c0U, 0xbd853ed23db1d607U,
  0xbd2b96cabe19133bU, 0xbe12249b3e322189U, 0xbd732f373ce25f79U, 0x3d9585c0bdead5a3U,
  0xbdc997a0bd1bd5baU, 0xbdae97103d50c514U, 0xbe4191023cbf082fU, 0xbdcc76cc3d997882U,
  0xbd32c9c13df79378U, 0xbdc5bec33cc3ec1fU, 0xbd549ef93c6528ecU, 0x3cd7f296bdd32689U,
  0xbd9f04a7bd71c853U, 0xbdaa43c2bd77a2a1U, 0xbe363d393d849cc6U, 0x3d8d37fe3c823dfaU,
  0xbe21e184bca90b5dU, 0x3b95d44a3c82a1aeU, 0xbca13290bd022252U, 0x3d79bad0bd3863d6U,
  0xbd76bfac3d133d07U, 0xbd5b465bbe11e57dU, 0x3cdd5f87bb941465U, 0xbca47113bd089789U,
  0x3d3f203e3d5ec792U, 0xbd6e3421bb89f448U, 0xbd88ebb2bded58a4U, 0xbe2b8ca6bd8b5a55U,
  0xbdc6c8c5bd5bb7d3U, 0xbdda1705be5c933dU, 0x3d928836bd2cbf38U, 0xbd8783b0be0df789U,
  0xbbe934513c244bf2U, 0x3db0760abe3ae527U, 0xbdc9daecbe00e782U, 0x3db4f220bcc7e016U,
  0x3d84c8b9be1ec384U, 0x3d359cd4bcfeab78U, 0xbd8836fa3cb65800U, 0xbdd69e26bcd1f442U,
  0xbcdbb05c3da5d227U, 0xbcf99b143da255ceU, 0xb9b6d0c33b9448feU, 0xbd78b84a3d1a72adU,
  0xbdce1db1bde0837dU, 0xbdbcc2fbbcefdc3dU, 0xbd3bef253d6f1d95U, 0x3d923ababc9da6eeU,
  0x3d592fdcbe271569U, 0xbd517452bde4143eU, 0x3da2affbbdd50ea8U, 0x3cd87816bde7a5bfU,
  0xbd075fb0be03e340U, 0xbd12dd9fbdc874c9U, 0x3e2a385abdd4b1dfU, 0xbc02b32ebdbe480eU,
  0xbdc1ba79bda1c7a2U, 0xbd4e818b3dc5e226U, 0xbba07420bdb865d4U, 0x3bbe92aa3d996bd3U,
  0xbd880413bc43b8acU, 0xbc615de4bd2ebff1U, 0xbd9e53963d44cf9fU, 0x3c1829b33d23f023U,
  0xbdf86ce7bdb77d99U, 0xbe0da6c1bd926d2aU, 0x3d304b31bc89c71aU, 0xbda34f26bd25d5c5U,
  0x3cbb66e4be325c18U, 0xbdac2ad83da5c36bU, 0x3d5e2ca3bb85bbe0U, 0x3c36cc2abd2f1e68U,
  0x3d3e5c51bd921e4bU, 0x3d5db804bcf0cab7U, 0x3ad3330fbd5c44d6U, 0xbe2cb774bdf5642bU,
  0xbdb63c963d6e32b7U, 0xbdb1c595be04881dU, 0xbe0fc283bdef7a6bU, 0xbd0dcbf1bcdc5eecU,
  0xbd686c57bdb63d98U, 0xbc6b85553d7a7c43U, 0x3d052a79be2bd2f8U, 0x3d3f6ab03d4485e0U,
  0x3c29f919be44877dU, 0xbd858c043d6b7100U, 0xbdb142953b4fb3edU, 0x3c3174f739826c28U,
  0x3c993d0a3c59be33U, 0x3d7553aabda54395U, 0x3c013df2bcbe6145U, 0xbde2b0f9be1438e1U,
  0x3ca97e0b3d9bbf95U, 0xbe29a379bd0d3351U, 0xbe0a3757be270284U, 0xbe44348ebe2b8361U,
  0x3c8380b5bc3e2282U, 0xbced3dd7bd90f967U, 0xbe96ec873b59de64U, 0xbd7e96a2bd1eda38U,
  0xbd66d3d5be2a1615U, 0xbc219e053de37689U, 0xbe3cbd503ce6e071U, 0xbc73e76bbd3e7975U,
  0xbe1d8832bd8f8ca9U, 0x3d5cb6d9bdb3bc97U, 0xbd0e704d3d2d5dc4U, 0xbde2876abdb2e0fbU,
  0xbde266c7bde9c310U, 0xbe0edd223ce045a9U, 0xbe6da884bd3977fdU, 0x3e22cb6abe979700U,
  0xbde58093bd4b254bU, 0xbda06af9bd2d160cU, 0x3cad7f78bd876126U, 0xbde3f8113c66f2f3U,
  0xbdc3fb0c3c961186U, 0xbe4cd9bfbdaa3242U, 0xbd97366bbd96f9d7U, 0x3cad9ca0be02d840U,
  0xbe17f3b73d9376eeU, 0x3d0131363d8bb4b7U, 0x3dbc55363a47dbd1U, 0x3d62ec80bb802b0aU,
  0x3d0f61bfbd3d1ebfU, 0xbe1b5f373bd8b004U, 0xbe2b9de4bc92c861U, 0x3d04eff1be209b26U,
  0xbd0ae3e0bda30121U, 0xbe51633cbd660305U, 0xbdb60f60bda890c0U, 0xbdce4db7bd825c19U,
  0xbe1498a13d90c7e0U, 0xbd30a476be113a32U, 0xbd630f163bc03904U, 0x3ce70e22bdf505deU,
  0xbdce50d6bd311681U, 0xbe8cf3e73d21b57bU, 0xbd97cf423cc58fc7U, 0xbdf637ecbcee2323U,
  0xbe9620e23c2f1baeU, 0x3d6e797abe25a791U, 0xbc36478cbdf73aa8U, 0xbc952186bd04526dU,
  0xbd864e12bddf7fa5U, 0xbdb4d18f3d4190ebU, 0x3d6a2d3bbd345d50U, 0xbdee6b88bd850d7fU,
  0x3d25a1fabdbcaa42U, 0xbe984013bc654748U, 0x3b422ea1bd8ab5efU, 0xbdce06e6bda29831U,
  0xbcf86e90be090fa0U, 0xbd8d6fa7be4cd19fU, 0xbc424f6c3c69fb0aU, 0xbd4b653f366339ccU,
  0x3e78d708be7b6ec0U, 0x3d3f2cd33e1b23b9U, 0xbd414e8b3e93310fU, 0xbd654806bdbb2aebU,
  0xbe910b8fbe861595U, 0x3cdc2cfcbe10e7ffU, 0x3e83eeafbd1dc685U, 0xbe4fcbf73e4b3c92U,
  0x3e8549933c4df643U, 0xbe27763dbb8d9f62U, 0xbde140f9bd994f0eU, 0xbe696edc3e356927U,
  0xbd300cd23d5baa4eU, 0xbdbdedce3dd6b62eU, 0xbe2716593dca5b80U, 0xbe5a339dbe4cc330U,
  0xbe3d66d63e374b44U, 0x3dd1115ebec0e14aU, 0x3e2632ccbe4e1faeU, 0xbd94fc7bbe575f6bU,
  0xbdc5845ebe4f5b68U, 0x3dbe95093e74e17aU, 0xbda1f5e8be9d9095U, 0x3e816f3dbc7b6dcdU,
  0xbe6bab28be018d32U, 0x3e812654be116f75U, 0xbe8b33d33e231dfbU, 0xbe3de7073d3b6b83U,
  0xbe4134783de082cfU, 0x3e732164bdb3ac2cU, 0xbdd82a543e48e72dU, 0xbd36cf94bebe38faU,
  0xbe7a8f0d3d90d504U, 0xbe016f7f3e8a7d5eU, 0xbe1cf2e33dad7927U, 0xbd290b793e162807U,
  0xbe7b33b2bc8e7fc6U, 0xbe910bbd3dcf039fU, 0xbc95c4343d8f42d9U, 0xbecb5522bed37ed7U,
  0xbd9be919be929202U, 0xbd90672cbebc2f91U, 0x3d8193fcbe1ce01cU, 0x3cec952fbd487804U,
  0xbe3dabf2be2d9364U, 0x3e110989bdf9f2d5U, 0xbdda0d60be2999e8U, 0xbe9341a5be0f7ff8U,
  0xbe66d066be3dfa59U, 0xbe124f68bee6fcd8U, 0xb9e575acbd50d206U, 0x3e3c64043e84878eU,
  0xbe7baad63e08de7aU, 0xbe7e272c3e82f98fU, 0xbe7dd805bc45e606U, 0x3dab7269bda2ee63U,
  0xbe7f436b3e19ec1fU, 0x3df51f16bbcb8bd4U, 0x3e5dea5c3e904d79U, 0xbe8dc2cdbe195063U,
  0xbe2a7ca43e2db902U, 0xbe63ee733e4b8f3cU, 0xbe5f742b3e60d8e6U, 0xbc91ee9c3e18204dU,
  0x3e785794be22d651U, 0xb891b2df3e189f7cU, 0xbc8e7f9a3d5eca01U, 0xbd8c8524bcf1ed1eU,
  0xbbae02f5bd8a5ec5U, 0xbdeae5dabcfaac7fU, 0xbe3e8685be31e685U, 0xbdc67ed73d1740abU,
  0x3d6d0ed8bdf8f7faU, 0xbd7a04593d9bc7a5U, 0xbb8a59113c2e465bU, 0xbd6a0a7cbe040b2eU,
  0xbdbf01063d9249bdU, 0x3d0bce1e3bc8e6f1U, 0xbd7e1e79bd8ff411U, 0x3c3289afbe03e26fU,
  0x3e1ae0b6bdc71f1fU, 0x3db213ac3c863cf0U, 0xbdc94c2ebde4a649U, 0x3d328865bcc8135cU,
  0xbc8529d0bb12c8c1U, 0xbdee8c7fbd6ac219U, 0x3ab7d6783b534330U, 0xbc0e134abe0054fdU,
  0xbd93d93ebdf034a1U, 0xbe1206bbbcb60502U, 0xbdf19a723e04211cU, 0xbdcabccebdef5f9eU,
  0xbd579b98bba85bedU, 0xbe13ad473e1db250U, 0xbd43bc8bbd9a221eU, 0x3d321e673da169b1U,
  0xbd8a65783e05d93cU, 0x3de80373be503601U, 0xbd2cd46d3dc6bc3bU, 0x3ca0b5c03daeb3feU,
  0xbda5145ebde7d4e3U, 0xbc8bc945bdfcefa0U, 0xbcc5bfbabb895a39U, 0xbd68ef45bb3f52a2U,
  0xbe2beaa3bd96bec5U, 0xbe292dddbc423c49U, 0x3de2806e3ced94dcU, 0xbbcd9cf93df6918aU,
  0xbc0c5423bcda79e9U, 0x3d03f544bd3db99aU, 0xbde6931bbd86b81cU, 0xbe0d5c44bb5415e1U,
  0xbdd0c0163dab6c9bU, 0xbcffbcd2bd9f75e8U, 0x3cf3a4d63d46ab80U, 0xbd25bbf03d20b865U,
  0xbcb17aa0bdf775f5U, 0x3d6a3bb4b994ed8fU, 0xba0ff95dbddef745U, 0xbdd3853bbd8dcd8fU,
  0xbd5ca7dbbdb71bc3U, 0x3e1bf150bdb9e006U, 0xbcc5ed82bd4469aeU, 0x3b0b9e27bcfdf502U,
  0xbe0ffff33d1b1298U, 0x3cabd06fbce0b745U, 0xbb5be2053db1e0c3U, 0xbc78b340bdff76e4U,
  0xbd3aa4b2be320137U, 0xbdcead60bd2534c9U, 0xbc5f67b9bdf1a6c8U, 0xbe0003463cbe4a7fU,
  0xbcd29935be39c8bfU, 0xbe585e89be230fe8U, 0xbd635c48be64f36cU, 0x3d40e4f7be19c17aU,
  0x3d28ec6fbdd105e0U, 0xbd73ebb1bde4790cU, 0x3ec613d6bc84930fU, 0xbc865e33bea262a8U,
  0xbe2223a23b81479cU, 0x3e98fcec3c65c0d4U, 0x3e72166abe057c28U, 0xbb7a057cbe495417U,
  0xbca140e2be4149fdU, 0xbe539fbfbe224f6fU, 0x3e08b5a93e4ff40dU, 0xbe1768ea3dff320cU,
  0xbe6d6e84bd5c3049U, 0xbdbf1e0c3d9a1135U, 0xbd93cdb2bdd8b3d6U, 0xbeaf49af3d25f039U,
  0xbe0af4de3d54e44bU, 0x3dc75abb3e5663deU, 0xbde1be74be50ba2cU, 0x3e96d2e6bbf12985U,
  0xbdd33ea1beb06047U, 0xbd85d679be54bc68U, 0x3ea5c31abe1b2c75U, 0xbc6fa238be4f59a6U,
  0x3dd4521fbe5ac6e4U, 0x3e3cf7a2be537f26U, 0xbcfdd879bd4abcaeU, 0x3e4496a33dd51f6aU,
  0x3e8ca02ebcb92fd8U, 0x3da6a63abe3cb0eaU, 0x3d54bcc2be0032deU, 0x3e2fce3abecbaf88U,
  0xbc25b04dbda01f85U, 0xbde71a6bbd7c1cb1U, 0xbd27bbb1bce0e7dcU, 0xbe48480cbe3256deU,
  0x3d47a1b43e5ffdf4U, 0xbda448a1be4d27efU, 0x3dd32763bea5d5c0U, 0xbe09741e3eb243a9U,
  0x37ec80403b897809U, 0x3e542997bd5eb3a3U, 0x3d88de15bec310deU, 0x3e8b4e073e9d89fdU,
  0x3dfd70a53d89f3a3U, 0xbe58c9d8be595103U, 0xbe6e5ff63daba6a7U, 0xbe097f4abe0c8b11U,
  0xbd7037eabdf27dcaU, 0xbd6c2c5abcf646e2U, 0xbde15d06be6cd6baU, 0x3e4dd61c3d863befU,
  0xbdf20b63be2cfdb9U, 0x3d0ff5473c74e567U, 0x3d8ccbeabe9ba38fU, 0x3e88c6133bc83828U,
  0xbe09963ebe385ecaU, 0xbe03037bbdd5e06eU, 0xbd175e9abe767819U, 0xbdb8fdd93d92b37cU,
  0xbd446d32bda1d4c2U, 0x3d1aba293d9af54bU, 0xbc9e2ff3bdb7b512U, 0xbe198b7f3daf0f90U,
  0xbd266a483cdc4b45U, 0xbe05b50dbe66cd82U, 0x3e3d81c23df7c9ecU, 0x3e6a88bebd08619dU,
  0xbdf15c4dbea8fc04U, 0xbc29dc423ca3f494U, 0x3dcb74cebde8f589U, 0x3cda838fbdc93381U,
  0xbd6c296fbea64c2cU, 0x3dc312d2bd793356U, 0x3d8c07aabe4ea63fU, 0xbe92f9cbbd8a80ffU,
  0xbcb8021abc8c1bf3U, 0xbe31e98dbcb8ca90U, 0xbd0dc8d0bcd8c84cU, 0xbdc8f8273d212efdU,
  0xbd95e8d23d28233eU, 0x3e8d8579bdca4a0cU, 0xbe8dbc093ca605eaU, 0x3d514a94bd569200U,
  0x3d8a407e3d83117fU, 0x3de9337abe435343U, 0x3e059174bc5c5842U, 0xbdc09a21bd9bceedU,
  0xbd7654ffbe47428fU, 0x3d277543bd58e6abU, 0x3db8c7473e126b66U, 0xbe8205b83c4ac10bU,
  0x3e02f229bcccbe29U, 0x3e1edf8fbdc7fda7U, 0xbcceafe4be08cfbeU, 0x3da1d99a3d20a728U,
  0xbe21c96bbe03b9d8U, 0xbd9ef766be20a646U, 0xbe0ec7cabdfbc977U, 0xbe54ed6f3d857bbdU,
  0xbc3c216cbd9c9fa3U, 0xbe82d7f53c2c4f3eU, 0x3de78967bc829885U, 0x3dc5b3e9be44646dU,
  0xbda2cbd6bd656aafU, 0xbc2bf25dbe2c3eb7U, 0xbc1cc76e3d8fcaabU, 0xbdc79b7abd5d5511U,
  0xbe538bb7bd030f0bU, 0xbe8732e3be2d89a6U, 0xbd292470bdaa9a58U, 0x3e7f08df3bcf46e0U,
  0x3ca30039bb4486bdU, 0x3dab7fc3be0bd9d8U, 0x3c2ecc14be2416f0U, 0x3d9326d13cc984c0U,
  0x3e8345043daa53c5U, 0x3dbf8f02be8b169fU, 0xbe23c77e3c9ceb7bU, 0xbdb58fff3d775410U,
  0x3e07c282be7a9b29U, 0xbd87029ebe7fb1e5U, 0x3d12d81f3d472bdfU, 0xbc99e0f5be91020eU,
  0x3d25451c3d8cae16U, 0x3dbccda33d96dba3U, 0xbdf6a8dbbca27501U, 0xbd82b70ebb47e0b7U,
  0x3e2149a33dd75b26U, 0xbd93a48dbda537efU, 0xbd98c6a13df137b2U, 0x3e93b5853df8ed5fU,
  0x3dc878ba3e5bbc62U, 0x3bfdfba83e361ea8U, 0x3da93621bd55b673U, 0xbdf23cbc3e78b2ceU,
  0x3dae3cc23e87eca2U, 0x3ceb5b063ba60846U, 0x3dc66153be26d1e2U, 0xbd5cbd183d95397cU,
  0xbdea0c5ebe090ce1U, 0x3b8a444bbe1e99e8U, 0xbe39ee93bd9467b5U, 0xbdd398c2bca48938U,
  0xbc9a486c3daa88f1U, 0xbe09f87c3d5c5179U, 0xbc281a963d0defe6U, 0x3e824bd83e5d9e74U,
  0x3db7d6f6bd0e4c47U, 0xbd9d19573dafeb50U, 0xbcfcde933e00022aU, 0x3d5d3a483e00f010U,
  0xbd4ad3bc3de8fb60U, 0xbd3973293dd2eeedU, 0x3e0a7d05ba68049aU, 0x3db351d23c560c20U,
  0x3cf23849bdd97fddU, 0x3dcb12a5be04c8daU, 0xbd08610f3e7d335bU, 0x3de786593d9a85bfU,
  0x3de7bb62bdd3d32bU, 0x3dde21a43bcd2093U, 0x3da4134f3cf1f7a2U, 0x3bc39c15bd76598bU,
  0xbd0ef4e5bdc9740eU, 0xbe1e9019bc56e4daU, 0x3e41bf703e370ecaU, 0x3d7b679abd6dd959U,
  0xbd3621103de89935U, 0x3d2503383e7c0f82U, 0xbe1ad26c3d8bff9bU, 0xbcfe65593e33cbe0U,
  0x3d8b58443d47a325U, 0xbd8992f7bb86936eU, 0x3d0e9676bdb490faU, 0x3c91d12dbdebeea7U,
  0x3d9b3e5c3d959574U, 0xbd5e37823e6e63f8U, 0xbe20f02fbe0207c4U, 0xbd94516dbd624c6aU,
  0x3acc022dbdfcd7fcU, 0x3e568d593dca274aU, 0x3dcda2da3ee780d7U, 0xbd5b851d3e9ad822U,
  0xbc9971ad39af70acU, 0xbd515701bd6caee8U, 0xbdc3931e3e3cb26aU, 0x3e56821a3d5b2ad1U,
  0xbd1036453d10e563U, 0x3e3dc7e9be29cce0U, 0x3e3f46743ca57dd2U, 0xbe0b335cbb2e0b7aU,
  0x3d10c0c73cf243e1U, 0x3dbd00b3bd0a752aU, 0xbe65c5fd3d1c9f0bU, 0xbdf4531dbcd3f81fU,
  0xbe8cc7d4be94923aU, 0x3de9f0cd3d16953bU, 0x3e9750f7bc9ddc19U, 0xbe9bb5acbe49ad05U,
  0x3e11e3a33e334af4U, 0x3e730dc0be1cdf1aU, 0x3c5a4b47be349936U, 0xbe1c2728be82dd03U,
  0x3db4c7e7bcbe65bfU, 0xbd947696be825ebbU, 0xbe27bfe5be25674eU, 0x3d6a6da0bdcb644aU,
  0xbe251e0fbdf821e3U, 0xbe3d26a2bda3e649U, 0xbe8ddb633d06ce84U, 0xbe409e6abe5ff6a9U,
  0x3ea72497be947aaaU, 0xbe686d773dfa7245U, 0xbd9bf5edbd2ebda0U, 0x3d35b6763d700304U,
  0xbd1fffefbe11fd3eU, 0x3dab94953dca2beaU, 0xbe7a2018bdf0c4d0U, 0x3a83b5c4bdd53b66U,
  0xbe0026fabdc61e3bU, 0x3cbb6cb83eaf1668U, 0xbea85fe3bc791f36U, 0x3e8325473d33f87fU,
  0x3d02ec6cbe30184aU, 0xbb1ff835bdc5b0a3U, 0xbe069b33bdb1380bU, 0xbe28e9ddbe3cca99U,
  0x3da8ccd4be69e229U, 0xbe35935bbe135aafU, 0xbea6bdb53c973147U, 0xbca57608be827e57U,
  0xbe35646e3d9f2bd3U, 0xbe2ed6a43cd2ef50U, 0xbdafe628bda149b6U, 0xbde75bfb3e1a277bU,
  0x3d9d4184be42d803U, 0xbe1d82153d4cb9d8U, 0xbeb3299ebe1af708U, 0xbea5f0b3be1abbb5U,
  0xbec04a44be009bbfU, 0xbe421623be1a7656U, 0x3e9ddd60bd367a56U, 0xbc184280bda4788bU,
  0x3d1cf558be55adf8U, 0xbd9a687ebe6bc54bU, 0xbe1d14e4be490a03U, 0x3ed9add93d5fed48U,
  0x3dacee71be830a79U, 0x3d3f89ecbd4e5361U, 0xbe989c0b3d2d2050U, 0x3e4831acbe5ff783U,
  0x3da536a9be3bc113U, 0xbd56dc7d3c8085c2U, 0xbdea1c2abea425d8U, 0xbdbe7e7c3d84980fU,
  0xbd849e4d3ce82179U, 0xbcdac0183db001c4U, 0xbdd56b63bd03cb56U, 0x3e5ad7513d171b82U,
  0xbd0c25e6bd89b8fdU, 0xbe2384113e0c09bdU, 0x3ec1d26fbd717f03U, 0xbcdcb2743ee8c568U,
  0xbc35b54a3e4e9a0bU, 0x3e017ae1bd83c8c7U, 0xbe80ffcb3e594a81U, 0x3c0808d83ebb9f7aU,
  0xbd92b3e9bc29ced8U, 0x3e80d999bdfd5d8eU, 0xbcbed4933e9dee55U, 0xbe31aaabbdc93c4eU,
  0xbcb7ba85bc1cbb59U, 0xbe8a3431bdb99a40U, 0x3cf6586b3d9500daU, 0xbe08561f3c59c9a7U,
  0xbe1da7c6bd833986U, 0x3caa9a753d6c5b5fU, 0x3eb41b223e6c8b37U, 0xbc9edc213c345c96U,
  0xbde8983d3e845745U, 0xbe1b0c303e2203deU, 0x3c60b45c3e72f8dbU, 0xbe1095923d157496U,
  0xbd3e335d3db357b9U, 0x3e3126933dca50eeU, 0x3e65fc4a3e0043f0U, 0x3db890883ce66e70U,
  0x3dc3a1aabe277ab8U, 0x3d024dde3ed3bf70U, 0x3c524a263e253fcbU, 0x3dc161afbd973079U,
  0xbd9ca2773dc7722cU, 0x3e70ce9abd544c45U, 0x3d7bc2babc3f6c7fU, 0xbb66c565be7017f2U,
  0xbdb2890ebdb8e6b3U, 0x3ea155273e9c51f2U, 0x3d95f68cbdb05b69U, 0xbdc3b40e3e10ce72U,
  0x3dd856663ebd9e92U, 0xbe886a3b3d9ef37bU, 0xbe01cb673e316e55U, 0x3d84bc5ebc91ebddU,
  0x3c9af9eabc1d1903U, 0xbccc4e913dc1bc2dU, 0x3bb57204bd8d7858U, 0x3ded0d603d088e98U,
  0xbdd48b933e948aaaU, 0x3d4ddc5bbe78a125U, 0x3dbb3f6bbc8c6f80U, 0x3ccd0d6cbdc22437U,
  0x3eb76cab3e3d2bf2U, 0x3dfe2b953ee2aa84U, 0xbbe8c8863e9a93e3U, 0xbd7ccb30bdee2385U,
  0xbcaaddaebddf516cU, 0xbceede543e72e1efU, 0x3eb5b2793d6ec77eU, 0xbdc6dce8bd97de9aU,
  0x3e665e27be0b41fdU, 0x3e5336273d92bb43U, 0xbd81d0c9bcc9a1a9U, 0x3ced815d3cfb0126U,
  0x3bda9dadbd9f8078U, 0xbd141aabbd80b884U, 0xbde6a9563c4282d5U, 0x3db0dee93cdb0128U,
  0x3d5ecf15bdb96376U, 0xbc4bea81bd94ced2U, 0x3b779eb23d03f6e6U, 0x3d0c906e3a600f33U,
  0xbd4f28fe3d21ccdbU, 0xb9917dbf3c5262b8U, 0xbdd1db18bd1c0187U, 0x3da75350be0c20b4U,
  0x3c268caabd357979U, 0xbd09e6c8bdbd5e97U, 0xbd707e83bdaaaf76U, 0xbd0c2d293cd9be75U,
  0xbdb6f3e03bdd5849U, 0xbcb788873c17ad5dU, 0x3d6c4f9dbdcb5a87U, 0x3d223d2d3dae44eaU,
  0xbc323b9fbcbc5fb6U, 0xbc83585dbbb37102U, 0xbdd87bf4bd90442cU, 0xbd984f833dac8099U,
  0x3cc32ede3da2bd87U, 0x3d865de53c8094b1U, 0xbe2b8e52bd0f6b39U, 0xbe67dc91bd371492U,
  0x3a160e9f3d3318a9U, 0xbe3c992e3bc9fddaU, 0x3d324de9be294466U, 0x3d6777723c529c92U,
  0xbd8196cd3e0420c0U, 0xbdbe45eebdffbc1eU, 0xbc9085e83db8d661U, 0xbd60c73c3c287fe4U,
  0xbc706f87bd4d43d7U, 0xbd3fd5b8bd7e4338U, 0xbcc032cfbce340e0U, 0xbe2666d73d289ae5U,
  0xbd15b7503d8c379cU, 0xbc1dc1fbbd360640U, 0xbd293912be135808U, 0xbcf7b7fa3de65ffeU,
  0x3d3c7c8cbd9353daU, 0x3db830363b9d1ddbU, 0x3db815cabd19da85U, 0xbe058346bd9a6adeU,
  0xbd6c72a6bcab7c34U, 0x3dc71181bd535750U, 0x3ae9d476be06b00cU, 0xbcfb3cb6bde733ccU,
  0xbcd41c99bc67726eU, 0xbd811a98be3e876fU, 0x3d839aa33cf1e5a5U, 0x3b9098713e14de5aU,
  0x3d80520cbc9b3b89U, 0xbd61520fbdd73dc5U, 0x3da159883d690567U, 0xbcaea5063daf7124U,
  0xbce996d23d67699aU, 0xbdef5e4d3a8dbe1fU, 0xbd47922dbdb843a3U, 0x3cb68220bc7e5698U,
  0xbd8521143d329391U, 0xbdfdab083cbdd2c3U, 0xbd72f6f8bced5247U, 0x3c075f343c97134fU,
  0xbcae84ba3d9fa3c7U, 0xbd1ec49d3dda4b2eU, 0xbe6c28173db888b0U, 0xbe8379bdbd6fd096U,
  0xbe05bf183d9130edU, 0x3da481e5bd68be34U, 0xbd33b4593ddb60ccU, 0xbe637a49bc8b3d96U,
  0x3d2b86863ce010a9U, 0xbde0f0763d583297U, 0x3d83d1ffbcceed5bU, 0x3d9a6e4cbe30ea8cU,
  0x3d51d15abd0c0f09U, 0x3da7b6123c09dc41U, 0x3c589da3bd815cd5U, 0xbc8bc8c9bddf24deU,
  0x3d713e22bd39f341U, 0xbc3edcdf3d9c3da4U, 0x3c9dd08f3b0da9adU, 0x3d31fac83d744d4bU,
  0xbdce0c8abd6533ceU, 0xbe22ff573d5ca625U, 0x3d5416f8bad8fc91U, 0xbd9b7d2d3e46ca4aU,
  0xbd1a2341bcdebeb2U, 0xbdea7aa9bbcf9cd2U, 0xbd8351cdbe08e6b7U, 0xbdcbf682bd930e88U,
  0x3d270a373d84be90U, 0xbe5e9927bc5c8b5cU, 0x3da37a77bc26d263U, 0x3d9620a03db6f971U,
  0xbdb18b973d943e6cU, 0xbd8da935be99a573U, 0x3cb76327beaa3432U, 0x396b7820bdc14fb3U,
  0x3d1dc3ecbc031242U, 0x3c85df46bd96b025U, 0xbe5b419e3d3e17c7U, 0xbba217553cbdb70eU,
  0xbcb668d3bcef4a3bU, 0xbd3fef91bd0efff7U, 0xbd6155cd3d211989U, 0x3d08423dbc571a42U,
  0xbde507aebd495a56U, 0x3a3e4641bcfa66f0U, 0x3d70ef7d3e333848U, 0x3d17d13ebd8498c8U,
  0x3d658081bd457eb1U, 0xbdd748a7bc91afecU, 0xbd8ac6ffbe004117U, 0xbd387cca3dac42c8U,
  0xbde43ff23e20ec9fU, 0x3c4d402c3d13c2bfU, 0xbd2145acbe9461a7U, 0xbdd2d1ba3ceb0bdcU,
  0xbe160c73bde97155U, 0xbcb4b625bdcee04cU, 0xbc725c8b3dff2e84U, 0x3d871c3bbd257036U,
  0xbcf898793d0f1a41U, 0xbd8165603d7f73baU, 0x3dc015923d1b252bU, 0x3d2091babddbddf6U,
  0xbe490acc3ea3e5d0U, 0x3e0f2293bc0d6079U, 0xbd8dcd5ebe674b9aU, 0x3ec474783e4c42e3U,
  0x3ea7c1a8bd846a9bU, 0xbe04e6e3bd720b2eU, 0x3e8dbf043ba1c2c6U, 0x3ed82bb1be9e1eddU,
  0x3daab3073df022a6U, 0xbe21d66bbe08ef25U, 0x3e6000633e052ea2U, 0xbddf58bdbd8c86d4U,
  0xbe055537be3f5c50U, 0xbab59a7a3d053102U, 0xbdd06249bea71497U, 0x3da9243fbc5df2f1U,
  0x3da6e799bd13a702U, 0x3d1c9c2bbdd4971bU, 0x3e85b986bdcee889U, 0xbd94cbd13ea883edU,
  0x3e53660fbe19df17U, 0x3e38a0e6bc0c9d78U, 0x3ebcb9f7be17513cU, 0x3d8a9093be006eb0U,
  0xbca3ecc6be1cf631U, 0x3e3e8431bd8e3277U, 0x3db347a13e5eea28U, 0xbd177c673e8be774U,
  0xbe7547e3bc1771b1U, 0x3ed2e5fc3d8815eaU, 0x3dcb5e4d3b34b3bcU, 0xbe5ff2093d0ad13aU,
  0x3d5976063ca81b11U, 0xbe6406bdbd7ae48cU, 0xbd023c1d3d43810aU, 0xbea65d153d5ba09aU,
  0x3c5357a33db5db32U, 0x3e77fd57bab5946cU, 0x3b9751cb3ea29e51U, 0x3e16df663d4b23c6U,
  0x3ee6e016be0ce335U, 0xbcdd557c3dfd7790U, 0x3daa3d07be9ca2d0U, 0x3cb8ce24bdbb8bf8U,
  0xbd923aac3ca778f1U, 0x3d69588f3d8da691U, 0xbda80f543d19a28cU, 0xbd7583ff3d480d13U,
  0x3e9588413e279687U, 0xbe617a48bdd4b8d9U, 0xbd93df36bd96e804U, 0xbda871e8bd57268cU,
  0x3e84579a3d027102U, 0x3f0774143e816851U, 0x3eeed210bd6a7055U, 0xbe07c81abe14d3afU,
  0xbe38a996bdc9e5e6U, 0x3e46a6bc3d9305cbU, 0x3b631a75bde6ddddU, 0xbd93c4c63e5e4bb0U,
  0xbde6904abe6b175fU, 0xbcfdaaee3e8eebc9U, 0xbe13f8843e2bd7aeU, 0xbe20e71a3dd41c8dU,
  0xbd69dcb8bdca41c2U, 0xbce50131be48be9bU, 0xbe21dd5bbd8bddacU, 0xbd64f9c2bd7ca116U,
  0x3d6ba3cbbd6863dfU, 0xbd8c6c5bbd2b853dU, 0x3d94139fbceef06fU, 0xbd154bf3bda186edU,
  0xbde7bbf4bd0d0dcfU, 0x3e0211ca3c2c83daU, 0x3d627f56bd547a7fU, 0x3cb939b3bcf5afa3U,
  0xbe2f59debda81dd2U, 0xbe34a16d3ce971d9U, 0x3d48b4443de52f30U, 0xbd242b823b7e85a3U,
  0xbd8253c4be662811U, 0xbdac1c713c356eacU, 0x3c7f8a87be3ee7e0U, 0xbe068b7cbde368c3U,
  0xbd6bffdd3dd8214aU, 0x3d3728493b85b561U, 0xbdc93e7ebdb1ba1dU, 0x3e160934bd4c0e72U,
  0xbe211a7ebda196aaU, 0xbd82ffb4be1b3a24U, 0x3e2dbd21bda89e9fU, 0xbe0298d5be24df66U,
  0x3d60b113bd83c994U, 0x3daa14f8be0c03f9U, 0xbda7e074be110153U, 0x3da00e313da080a5U,
  0x3e0e8e0dbe0d5272U, 0x3b8afdfabdbe00c8U, 0xbd806950bc6debfdU, 0x3d39fbe4be5bfe14U,
  0xbd520d8bbe086b6dU, 0xbdbf7df6be4229e9U, 0xbb16c8fcbe5140acU, 0xbd0c618dbe090c3aU,
  0xbcb1a0073c9a9144U, 0xbe54edf9be0ecc75U, 0xbd324296bde591efU, 0xbe0ea75ebaa6fb53U,
  0xbdc0bea5bdef8d4cU, 0x3dc11aa1be2c19d0U, 0x3da469adbe71b5ebU, 0x3e09819ebdc71986U,
  0x3cc08ecdbddb0d3bU, 0xbccde50abdc6cd8cU, 0x3a95fbd1ba0a26f2U, 0x363cb378be0a71e2U,
  0xbe242673be1b8a66U, 0xbd0994d7be0dcfabU, 0xbb13bcecbda029f8U, 0xbe13d8943e5f41dcU,
  0xbd5310b4bc552ca5U, 0xbd9e59f6bdb89a62U, 0x3cf770ffbdfe299dU, 0xbc64609a3de0055eU,
  0xbdaad0dcbe10692fU, 0xbce0014bbe057d07U, 0xbe0981b1bd0e9576U, 0xbdcf00f2bd101966U,
  0x3ce75694bada933fU, 0xbd12831e3d178610U, 0x3db3339c39ec4654U, 0xbca6387fbda59402U,
  0xbe0905f3be1f379cU, 0x3de6d1d33d162f00U, 0x3d13f75b3e3880a4U, 0x3d079d0b3e7a99d2U,
  0x3d33e4bb3e001b20U, 0x3db45c173e2a74caU, 0x3d8705d73bde1f7fU, 0xbd1ea21e3d7de7d7U,
  0x3bc20e363e0a6265U, 0xbe48773e3cfe3c33U, 0xbd92e3213e4da566U, 0x3dee57c03d53d5aeU,
  0xbdf14860bd41c4daU, 0xbe021529bde48474U, 0x3d7e7e4abc70f2f3U, 0xbe549afbbde4f4e7U,
  0xbe316288bdbcb058U, 0x3e3444293d30a305U, 0xbe05906fbb5d75cdU, 0xbe5783903e5f67e2U,
  0x3d8550ebbb80308eU, 0xbd9e64583dc177d1U, 0x3cb2a672bcd11d20U, 0x3e4664293d98cbf5U,
  0xbd269d493d726b88U, 0xbdaa95a6bdf89f69U, 0xbccf19663dd2d6ecU, 0xbe81c2333d61cf21U,
  0x3d7eed443e1e3cceU, 0x3b9f65b13e011ffcU, 0xbe033f993d9b4b52U, 0x3dda11803d837fd8U,
  0xbd7fec023e85f2f2U, 0x3e1c04203d32ddcbU, 0x3e36ae04be5aefbaU, 0xbe14c8013d66ad65U,
  0xbde2d1d03ca62cf1U, 0xbc3632bbbdc24119U, 0xbe62af033aea7809U, 0xbdac8e3f3e016e25U,
  0x3d6b9e163e1da15bU, 0x3d27b4c63de79999U, 0xbe3e24f43d1ad203U, 0x3d82e9093bccfae1U,
  0xbcb8aa283c9217ddU, 0xbe13413f3d500169U, 0x3df0f5dbbd3c6771U, 0x3dc7710fbdc3c34fU,
  0x3d5ca170bcd31f74U, 0x3dc74dd1bdc05399U, 0xbe5fea32be6fd7e1U, 0xbdf5937c3d86e496U,
  0x3dcd825c3de88cc3U, 0xbd737c2c3db02cc2U, 0x3dbad2c2bd37ad50U, 0xbb1c5a9cbda4847fU,
  0x3deabbb4be2662c3U, 0x3dac35ab3da19eb9U, 0xbda2afeebd88f037U, 0x3d658a263d160e36U,
  0x3e238865bd1f494dU, 0x3d33c7953dd5348cU, 0xbdb4cdda3d44a4a4U, 0xbe1fb97fbd854326U,
  0x3d9a7b8ebd3a91d7U, 0xbd80ecf13e1db952U, 0x3dd07e1dbd2c2591U, 0x3e1864c43e037cebU,
  0xbdf93f093dd924d1U, 0x3c759dd83d83a51eU, 0xbda867643df90ac4U, 0x3dcf195cbca5137bU,
  0xbd11d8553e11d8faU, 0x3d3d53c0bc32f4bbU, 0x3764e86c3e041ea8U, 0xbd8d42ad3c1dbfc2U,
  0xbcc899b23da7b799U, 0x3cfe7ce5bdcd2036U, 0x3d739016bdcbf5baU, 0x3da75d25bc96d8b1U,
  0x3d5445ddbd123410U, 0xbcd5710abdc1432eU, 0x3d27f0b33d55970bU, 0x3d33de643dcce0d1U,
  0xbdc37b76bd8b0b36U, 0x3d84e9c23d6d7945U, 0xbc0aa4dfbd12b0f4U, 0xbdeac660bd000e6aU,
  0x3d00d22bbde2b831U, 0x3da4f92c3e48b5a7U, 0x3e09bba3bd1b7cebU, 0xbbb746563d04ec71U,
  0x3cbb5627bd9965d5U, 0xbd4fde61bdf1962cU, 0x3d53b7623dc4c4a9U, 0xbd698037bdf15b92U,
  0x3d80ea58bd315a12U, 0x3d86425e3d410301U, 0xbb2812273daeb6c9U, 0x3dde93dbbe19e4f0U,
  0xbd953e8cbe432b47U, 0xbdac2aaabd0a13c5U, 0x3ca6ef013da464e4U, 0x3d82e670bda3ebb4U,
  0xbe00bd1cbc151727U, 0xbd239a813ca4a7b9U, 0x3dbfbb4abca1877fU, 0xbd646dabbdf60506U,
  0x3cf4c9913c0485ecU, 0x3d6376963dea0ef9U, 0x3b88e4d23cee6920U, 0xbbacc962bc2bf6cbU,
  0x3cf126883e0686beU, 0x3d07b56f3d672aedU, 0x3d07c7c7bd89eb53U, 0x3c35fafbbd8bc994U,
  0x3c060b12bdd89cf9U, 0xbd91ea07bd356bfaU, 0x3d839b013e2f1211U, 0xbdc76bca3de13c3bU,
  0xbd499af2bdd95d10U, 0x3d8d1c853d7e12acU, 0xba13dce93bbe1366U, 0x3d0fa9cebe0ee116U,
  0x3d3b099b3d42db50U, 0x3d70c8d53cf2c83dU, 0x3d72f3483c91dfdbU, 0x3d0d5f953d2afc54U,
  0xbd8a605cbca7610eU, 0xbd2ee3433cac4a22U, 0xbe9b23f4bdbf5c78U, 0xbe2fc79ebe748774U,
  0xbe4d1041be0f1ef9U, 0xbde9ea5e3d10aa66U, 0xbdcff08d3c90b95bU, 0xbefa36433e8cfd6aU,
  0xbd579f8c3bc6bcb1U, 0xbe38999ebea25aa4U, 0x3d23f5133e0a5b0dU, 0xbeabc3943e94fda7U,
  0xbddb948ebd1d68cbU, 0xbdd76ad9bd1de92eU, 0x3e4398bcbe2c876dU, 0xbd9845713da2a41dU,
  0xbe33982ebe5060f9U, 0x3d621ae3beb50f66U, 0xbe186f41bd9a3040U, 0xbe61fa3abc92874eU,
  0xbe301023bef5cb9dU, 0x3e2581f2be5b7758U, 0xbe46a512bda47a4aU, 0x3d250fcebe1710e6U,
  0xbe7ab4e93de0e91dU, 0xbd95c90f3d866f97U, 0xbed016dcbd7e1174U, 0x3dec0c0b3e6514fbU,
  0x3d49482bbe01a95bU, 0x3d641b1b3d812cebU, 0x3e2abb113d918737U, 0xbe0cadb83ddc6b0eU,
  0xbd987d6f3dba20b2U, 0xbd9f0ec33df1da7dU, 0xbeb392a33e2d88d2U, 0xbeb84b36be900f40U,
  0x3d962f093d305355U, 0xbcef592cbd7234ddU, 0xbc375e173ca881b4U, 0xbe55d20f3e1f0e93U,
  0x3e2ac6f9be03366bU, 0xbe511cf7bd7f575fU, 0xbe5d6de13d6b9617U, 0x3e435c1a3e24a8a4U,
  0x3de1bd7dbddad8a0U, 0xbe723437be162a3eU, 0xbecd18973d4b3f23U, 0x3db29ec73bb88f0aU,
  0x3e0f4e3c3e62160aU, 0xbefe3a0c3d500381U, 0xbe2a726cbdcf613eU, 0xbd40d446bdde88a5U,
  0xbda0956b3dfd2357U, 0xbe328943bdb6f67bU, 0xbea33e6e3db755b0U, 0xbcfcad7ebd75f5d4U,
  0xbdda02923d8ea128U, 0x3e1f6a483c45a9d2U, 0xbe9966b5bdc43d7dU, 0xbe4ee4e53da977e9U,
  0x3bf1fda33e908da0U, 0xbe59f18abe682d5aU, 0xbcaaeb85bc65aa4cU, 0x3d64bffcbcfef665U,
  0xbd74da61bdb353d8U, 0xbe34178c3d8e33b3U, 0x3d8e69b7be80f53cU, 0xbdaf8a22bd3a19f9U,
  0xbdf447673e198732U, 0x3e4755afbd8d4071U, 0x3d2e4c553e803478U, 0x3cf39fa5bca678a1U,
  0x3d1ee4d8bd88adc0U, 0x3cb53eea3dfd7ce6U, 0x3d53b1c2bb9b13d3U, 0x3b0ee0973dc63b12U,
  0x3d2b2e5ebe79e441U, 0x3d186643bd817dc7U, 0x3e95398fbca60b25U, 0x3e63a3cbbdc546f6U,
  0x3d015ab8bd09d7c7U, 0x3e0ac1f1bcc60a89U, 0x3cd171223cd9f8ecU, 0xbe511260bc6e15f3U,
  0xbd730484bc24ebe5U, 0x3dd710fd3da7af01U, 0xbd7b15413d996bccU, 0x3e8af44f3db98963U,
  0xbdf3ad3bbdc822a1U, 0x3dafddc73cb185cfU, 0xbdc17809be1f922cU, 0x3e72c7e4be0223baU,
  0x3dcfa97e3eaf2d77U, 0x3e46f801be3e8c3fU, 0x3d4b6097bcc64d5fU, 0x3dd983f9be09c878U,
  0x3d3946ddbe37df61U, 0xbd123d223e1e5629U, 0xbc706cd0bd9994ecU, 0xbdc01cc9be23367dU,
  0x3eb054653e0e56beU, 0x3e1bd56d3c4cdc0dU, 0xbcaf7031bdf2f3a0U, 0xbd4c49b93d39640dU,
  0xbb98be11bd869f4cU, 0x3cf3e9823d955764U, 0x3cc7fa413c8bf3d9U, 0x3e2d12dbbd86995eU,
  0xbb57e8e33d9cac20U, 0x3eb584153d81849eU, 0xbe4987e0bd384edeU, 0x3dfbe500bd9b545fU,
  0x3d0b42913e1ad7bdU, 0xbd2dade63b086e09U, 0x3e027132be07751fU, 0xbe31de743e63931aU,
  0xbcd735883c5aab25U, 0xbcc68564bd7a973bU, 0xbdbf5a43be4c31bcU, 0x3d357d1bbdaefbf3U,
  0x3d2c21a13d1c62a8U, 0x3dec78813e610cdfU, 0xbda48391bd8c0f4bU, 0xbcf19631bcec1a12U,
  0xbc17d4133e2316f5U, 0x3cd9fc05bc0ccb70U, 0x3e07ec2dbd6e8230U, 0x3e2787333d056733U,
  0x3ceae303bd8dabd1U, 0x3c9453553d663feaU, 0x3d7420663dd9f842U, 0x3d9ef6ef3d6a4791U,
  0x3cda9b41bdceb136U, 0x3dcc9746bd6fa4b5U, 0xbd20a1013d8a76e5U, 0x3db7897d3c5c3635U,
  0x3cf26e893c523f97U, 0x3d33b6b7be189aaeU, 0x3d9f54d1bd57bf0eU, 0x3d4b21d0bc80f706U,
  0xbc8dc5053cf86522U, 0x3d093e0f3d6ac82dU, 0x3e0d05b7bd7e3d38U, 0x3da2ace73cbc11ebU,
  0x3d0c92193de65185U, 0xbd151fc13e077d21U, 0x3cc1e1cb3d8e18eeU, 0x3d3a16993d808a5dU,
  0x3d9911bf3d2d992fU, 0x3d151aaa3c17fc78U, 0xbb0cd413bcc43bafU, 0xbce9e2793e32c0c4U,
  0x3b5c242c3d861dc2U, 0x3d26c0e7bd14ea32U, 0x3d75b70a3d83e20bU, 0xbcdcf037bd604804U,
  0x3d35db52bdc29fa1U, 0x3da5c0a7bc9eae31U, 0x3bd1e101bd0cdd2eU, 0xbd34d4ce3c6ff86cU,
  0xbd1ededc3d1330beU, 0xbd7214d3bd956abbU, 0x3cb742d43c64a675U, 0xbd224e4abd8856c3U,
  0x3da0af9bbd0d11a7U, 0x3db87a0b3d0d7e13U, 0x3d35d1933cb4cf5aU, 0xbcee32c03cfab2f2U,
  0xbd9ce27b3d3fbfa1U, 0x3bcbcb803d401ef5U, 0x3de27b58bc116348U, 0xbacbc4613ce5b700U,
  0x3d8f6ad73c0ecb21U, 0x3e064571bd825a3fU, 0x3d19ce4ebdd90173U, 0xbdbfcc95bb8f3026U,
  0x3c92e452bc8338a2U, 0x3cd29758bbfcba79U, 0xbc0692483d01e47fU, 0xbdda0cd93d6e9cb5U,
  0x3e25b6cabd905310U, 0x3dae59da3d87b63eU, 0x3d29e20e3dac3b9cU, 0xbd27d1b23b702089U,
  0xbd95b2d5bd97a8b6U, 0x3d6dcc75bd634b3dU, 0x3e3b09de3dc5299dU, 0x3dcfb049bd525662U,
  0xbdd33fb73dc79da2U, 0x3da05a0c3d14e4b1U, 0x3d0c4162bd6018e3U, 0xbce87ec2bda21153U,
  0x3d1b9bf43de1f6b6U, 0x3d6893683ce0fcb6U, 0xbcb1c2ee3dbbcdb1U, 0xbd5b5c123ca4a8d9U,
  0xbe802c14bd3c6e7bU, 0xbe7f265dbe7e3980U, 0x3d0e11cbbefa6afaU, 0xbea78bbcbd68e20dU,
  0xbe368176bdf9054eU, 0x3d8f3f4fbd63c3aeU, 0x3d7f804abe0bd21bU, 0xbddc9db13ce6821bU,
  0xbe49f890bd5376d2U, 0xbe59e762be9ac717U, 0xbe2ef08fbd8395a0U, 0x3cd43740be36ab19U,
  0xbe581722be3773a7U, 0xbe00a254bdba3f25U, 0xbdfab44fbe23e591U, 0x3d1b7e3bbe965d50U,
  0x3daee9b4be444678U, 0x3db236e33da48c08U, 0xbe32af96bdc371caU, 0xbd922df33ce1e256U,
  0xbe1af360be392504U, 0xbdb8bbf6be8f0519U, 0xbe0e6e0cbe4c1285U, 0x3c93520ebe13fa16U,
  0xbe54c663bea20817U, 0xbdf16787bde7f88cU, 0xbe45462fbe88155cU, 0xbe76cf2abe664719U,
  0xbe80981abcce96ebU, 0xbe622ce0be1acb48U, 0x3d9b7cadbd994a7eU, 0xbcaf91b2be844312U,
  0x3c88bb2f3d5592e8U, 0x3d68e35dbdbaa08bU, 0xbca66d81be3f61efU, 0xbce0a2693dfa970bU,
  0xbd64f88f3d705b69U, 0x3d2c51d2bcd39b2cU, 0x3d0a8195be6da85fU, 0x3adc221bbcd42feeU,
  0xbd242defbd9e3259U, 0x3df8fbf23d2a57b1U, 0x3a4ec6333cd5475fU, 0x3c0ac2a5bd94d58dU,
  0xbddc9f2dbdb19384U, 0xbca1ad43bb60b6f1U, 0x3d484192bc48fadfU, 0xbe8aea533d3d4c20U,
  0x3d156fe0bce97126U, 0xbd0aaa7bbd1aa39fU, 0xbdbfba783ca10c22U, 0xbdf7d302bc8f3292U,
  0x3df3a19a3db8b26bU, 0x3cc761753db1e1e9U, 0xbda7ac61bd6eead9U, 0xbd48a3ae3d8c591eU,
  0x3ca24c54be3d5070U, 0xbd72fb653d0d452cU, 0x3e00f602bcc86c66U, 0xbcb37f8a3c3f110aU,
  0xbcc95cd13e066f66U, 0x3d74fed83e1d5444U, 0x3d49c11d3dac4108U, 0xbddc67bf3de49fd3U,
  0x3e88b6ba3d805886U, 0xbd05c74f3d92bcf6U, 0x3d5dad15bd1898a8U, 0x3dc18d473e13c037U,
  0xbdcce1fcbde1b764U, 0x3e189728bb3f483fU, 0x3c968da53da4988bU, 0x3dec3b32be2ef503U,
  0xbe3bcb46bd5f86d4U, 0x3d0969553c637fcdU, 0xbc84347e3dbc4121U, 0x3dabcd4d3e5b3ce1U,
  0x3dc571d23cbf51b7U, 0x3d777751bd9a5208U, 0x3caa74af3d177275U, 0xbceb69043db46086U,
  0x3d86e713bda3ddecU, 0x3d9a6baab9b3c04cU, 0xbe4cc5f9bd9643f9U, 0x3d28f5ad3c7bda49U,
  0xbe623d2a3c4c7748U, 0x3dd81aafbbe79025U, 0xbd4f561f3dbf3d9bU, 0x3c924cdfbd9990adU,
  0x3d5edd2d3db29c8cU, 0xbc5a7041bd1b4a98U, 0x3e014e7f3cd550faU, 0x3d6df5593d1fb7acU,
  0x3db0a8b5bdbd97efU, 0xbdb7fdb0bd4beb96U, 0x3c38f4cf3d3b266aU, 0x3cf2070ebc3fb9b5U,
  0x3cbe44c33cf09927U, 0x3c786cb3be6d1bfdU, 0xbd871ec1be2392adU, 0xbd405f61bdcd2a4bU,
  0x3c67d6bcbe82f215U, 0xbdf9b466be8c87d4U, 0xbea88e59bf57944eU, 0x3de66a603d26884dU,
  0xbd42f8a7be6633d0U, 0xbd5d2b723d5241c9U, 0xbcf2c8faba04cea2U, 0x3de2ddbc3e6c589aU,
  0x3dd634fa3dd255ceU, 0xbd7fa8bf3e0f9d39U, 0xbc4a6a3d3c992db8U, 0x3d33c2b1bd0d8ccaU,
  0x3bbccdb53e24e74fU, 0xbe2878033d9179beU, 0xbe4844ae3c8c3d34U, 0xbbab83bfbd03c464U,
  0xbee3c94abd8a4e81U, 0xbe0d50f63da29592U, 0x3d07ffbbbe2faebdU, 0xbe2cbcde3df5cb99U,
  0xbc3045173d1684c2U, 0xbddbf52abd22810bU, 0xbe908c70bd4a4ea1U, 0xbe053f523dd33c99U,
  0x3de3061dbeff535bU, 0xbece3b18bdd8b589U, 0xbdaa772abdb89f09U, 0x3cf8535abd122335U,
  0x3d8e491bbb9444c3U, 0xbf333b8f3d4bce48U, 0xbd56a7fb3d65673cU, 0x3e1067963dcfd55bU,
  0xbe1f94cb3de86226U, 0xbdd3ea5dbc8dfa87U, 0xbe4c42553d72d6f5U, 0xbe865a593d6645b0U,
  0x3d4a8c4cbe67ecd3U, 0xbe04c2ba3d91be7aU, 0x3e12e9c63d02ebbdU, 0x3cde931dbe39a1d4U,
  0xbea6cc61bc8650beU, 0x3d102f4b3dc9b0e2U, 0xbe7d6f6bba0833b5U, 0x3e3a930d3de69a49U,
