/**
  ******************************************************************************
  * @file    network_data_params.c
  * @author  AST Embedded Analytics Research Platform
  * @date    Thu Jan  4 14:43:56 2024
  * @brief   AI Tool Automatic Code Generator for Embedded NN computing
  ******************************************************************************
  * Copyright (c) 2024 STMicroelectronics.
  * All rights reserved.
  *
  * This software is licensed under terms that can be found in the LICENSE file
  * in the root directory of this software component.
  * If no LICENSE file comes with this software, it is provided AS-IS.
  ******************************************************************************
  */

#include "network_data_params.h"


/**  Activations Section  ****************************************************/
ai_handle g_network_activations_table[1 + 2] = {
  AI_HANDLE_PTR(AI_MAGIC_MARKER),
  AI_HANDLE_PTR(NULL),
  AI_HANDLE_PTR(AI_MAGIC_MARKER),
};




/**  Weights Section  ********************************************************/
AI_ALIGNED(32)
const ai_u64 s_network_weights_array_u64[1420] = {
  0xbf2c43deU, 0x3edc18ab3fc2cc15U, 0x3c1a216fbd0c4fe2U, 0x3ea78472bcfacef3U,
  0x3d0a86a8bdca0b31U, 0x3e89a9403d69cee1U, 0xbee399fd3ebf4305U, 0x3edcd78b3f31950fU,
  0x3eb2980f3f03df5eU, 0x3dd537fd3e1505b1U, 0x3ecc1a973f3325d5U, 0xbcea3568bdcedb06U,
  0xbe956fbcbe930479U, 0x3e8fbba2bd8b1afeU, 0xbf441fd6bf90c3b4U, 0xbf1a964abec8a73aU,
  0xbf1120a1bd5cdea9U, 0xbf01e0673ec1cee3U, 0x3edd196f3f23fc3dU, 0x3e195b763daaf5abU,
  0x3f1e16243ed63645U, 0x3d3ff7863e03a701U, 0xbe014698bc03139eU, 0x3f42556b3f15c4d3U,
  0xbe4632933deac53dU, 0x3eca03da3ed2235fU, 0xbeb46c1a3e723e36U, 0xbf1c9ee8bf9780b5U,
  0x3ecb4292bea1ea94U, 0x3eb788c43e958b86U, 0x3e4e18ac3e267fcbU, 0xbed5ab313eae3f14U,
  0xbf16e4bbbeacc18fU, 0xbdaab7cb3d4d2aa2U, 0xbe18221cbe4a5217U, 0xbe51777a3e95aeefU,
  0xbf785b9abf8bd658U, 0x3f07dc063f2e14e7U, 0xbf03caa83ee44dceU, 0xbf964bd4bfa3f168U,
  0x3d6cd4b6bee5d7e6U, 0x3f4abb633f0c5cd7U, 0xbf5c573abf3bd538U, 0xbe000cf03de7fd62U,
  0x3da2f04f3e8bb2abU, 0xbeee27523e9b8b29U, 0xbe5f16bbbe6529abU, 0x3e217dc63e5b8b3bU,
  0x3f27b9723f174233U, 0xbf3432cebf5f2262U, 0x380410053ebc8718U, 0xbfa82c7abf4032d7U,
  0xbd2dd73fbe8c8850U, 0xbf254678be834f03U, 0xbf4ef7d2bef00cfbU, 0xbf286de7bf7f7f6dU,
  0xbf4e9aa8bf8464d5U, 0x3ef4c1ea3f3cd341U, 0xbedcc2543e1af083U, 0xbf31d05cbf4eae6cU,
  0xbf8fdd19bf1c381aU, 0xbf2075a5bec5ce10U, 0xbe9212c1be9b278eU, 0xbf497eedbedb84b9U,
  0xbf2eda59bf6213cbU, 0xbf5d3c50bf1fa782U, 0x3e0cf2623e6d2502U, 0x3f040edc3f248948U,
  0x3ed9c4d3beee8954U, 0xbed84d4bbe5b4b98U, 0xbf992600bf92c972U, 0x3e3fb7fa3e265744U,
  0xbeca6d373e47a309U, 0xbef06cdc3ebe679eU, 0x3dd8cd27bd12ab77U, 0x3f4626553f2161abU,
  0xbee765023ebdbeaaU, 0xbe3b00893d892d99U, 0xbf4d0315bee827d0U, 0xbee9e7413eaded7dU,
  0x3f02836a3f089afaU, 0xbea8c8b1bdd46c72U, 0x3ed660b23f35985bU, 0xbefdd5573c381c0cU,
  0x3de8219c3e73b65cU, 0x3ecf6e9fbe1fa757U, 0xbe99676ebe41b81fU, 0xbe70e140beab0a07U,
  0x3e2f46f43e438ed1U, 0xbf3825bebf4a090dU, 0x3d04497bbea9d68dU, 0xbf1552083ed22f23U,
  0x3ecb44ac3e9f0ce5U, 0xbe597947bd909fc7U, 0x3efe52f33f05ddadU, 0x3e36cc513e225dfdU,
  0xbe825ea9be978431U, 0xbf2d9d56befa1354U, 0x3f4e1efa3f2d9f19U, 0xbeab52d3be876b06U,
  0xbe242f2bbe2f292eU, 0x3e6b77bc3e438712U, 0xbf14386cbf7c5488U, 0x3f157f673f40e458U,
  0xbf1c5886be87b094U, 0xbf960738bf692e30U, 0xbd488f923a813fe3U, 0x3f1495ff3f1b8766U,
  0xbf62af4dbf8b1c7dU, 0x3ece610c3e20f981U, 0xbd9f4fd1bda05ce7U, 0x3cf9a8c53b1e9b88U,
  0x3eaec4cfbe8accd4U, 0xbe99b0bebeec10b9U, 0x3e30ab1cbf49b3f9U, 0x3f07bc153f220407U,
  0xbfaa2b41bf7a2db0U, 0x3ee049a0beebc2baU, 0x3f38c8743f166d92U, 0x3eeb682e3ef9e040U,
  0xbf87eee2bf1a6a07U, 0xbf89151abf8fd034U, 0xbe4e0f513dc31334U, 0xbf8155eebf1f5928U,
  0xbf4a38b4bef03464U, 0x3d233d25be593cc3U, 0x3e745237bd5a7f78U, 0xbf6c6423bf13ffe5U,
  0xbeb781c9bdef4c1eU, 0xbf8b3a29bf26348fU, 0xbe9f103f3e6166c8U, 0xbebb79ddbe96d13bU,
  0x3d38bc13be728b2bU, 0xbe76f791be7a88c9U, 0x3e1575053bb747a2U, 0xbebdd23dbe6478dfU,
  0xbdc90f4abe63ae93U, 0xbe7ee936be38ad5eU, 0x3c25511e3d9a5f7bU, 0xbe31e46bbd3fc9b4U,
  0x3e83389dbd727de1U, 0x3e98acec3d8bbbdfU, 0x3d369bf4bdae4ea4U, 0xbd94d07dbe118617U,
  0xbc50038a3dab168eU, 0xbc7ba054bc83d23eU, 0x3cfaa54f3e7be961U, 0x3dc6e7b5bd443a82U,
  0x3de5b494be45b14dU, 0xbecb76e83c85362dU, 0x3c3436e73e2198e7U, 0xbd858d703cf3adf6U,
  0xbe57f7003ec06172U, 0x3e23f156bded7b16U, 0xbde1b155be1224b7U, 0xbe611b883cc58e45U,
  0x3c4b578abe90496dU, 0xbe0bd020be5a69e5U, 0xbe2f95d8be73e02cU, 0xbd078ebbbcf27b75U,
  0x3d6f3f4ebe67d822U, 0xbe0ae77cbc97a216U, 0x3cb28a7abddab6c8U, 0xbdc0ac933acdc6ceU,
  0xbdb044febe4520ffU, 0x3dde0e4fbdb46489U, 0xbe90c4663e5111daU, 0xbd0ba7b13e0557f5U,
  0xbe45938a3ecb647aU, 0xbe7dd0a23dc064bdU, 0x3d7044163e8a2309U, 0xbe4f20edbef0bb7fU,
  0x3c4356ccbebbac8bU, 0xbd359440be483fa7U, 0xbe8e0bbb3d720a1cU, 0x3dc62c353e128517U,
  0xbe5c4cd8bde388e4U, 0x3e0f5b7dbc9ab525U, 0xbcedeac93e0605acU, 0x3dfe48813d493b8bU,
  0xbdf06e7bbdb16cd9U, 0xbe8c92b63df9e1f3U, 0xbe4bfcb7bded5590U, 0x3d58e1543d02fcd4U,
  0x3d25edbcbdb90530U, 0xbe541080bbf100b7U, 0xbdc97499be9f92b2U, 0x3d5d38793dc39252U,
  0x3e1001233c9ff97bU, 0x3c01bad4be4f8eedU, 0x3e7acfb8bdbdea76U, 0xbe7eebc33d649585U,
  0xbe4a79b8be4169cdU, 0xbe9ea353bd0846abU, 0xbbda86e9bdd030cdU, 0xbf733bffbf8b21efU,
  0xbf16ca92bf409c9dU, 0xbe9fffe5beee2c00U, 0xbd94bc27be34022bU, 0x3d592100bc298fadU,
  0x3e77092c3dfec2c2U, 0x3f1c37c43ecd7dbaU, 0x3f6ceb513f44ce31U, 0x8998789899889878U,
  0x8998998779778788U, 0x89988987a8798877U, 0x9779a78989898879U, 0x9897899789997987U,
  0x8889887998999a78U, 0x99888899a9987778U, 0x9787887799997888U, 0x8a568466aba98775U,
  0xa786aa4798ba7b99U, 0x5a9ba699a656a897U, 0x5a65565586445555U, 0x7a9aa5a8969964a6U,
  0x6b96697a566a6658U, 0x558698a656b59568U, 0x575567555a956ba6U, 0x879a98a87787779aU,
  0x9989878888687889U, 0x77777a7887697877U, 0x877797799a89997aU, 0x8887879a98897889U,
  0x7799789668978999U, 0x89897986788a9899U, 0x7a88797777698896U, 0x7788888878887788U,
  0x8879789697798988U, 0x9998888998988779U, 0x7798979788889989U, 0x8a89777787977877U,
  0x7997889998796888U, 0x9797888898898799U, 0x8799778878a87999U, 0x8979787889a89888U,
  0x7778a87678888898U, 0x798867888aa7879aU, 0x789977a798787887U, 0x7999879888978a86U,
  0x888889698799878aU, 0x7786878a98978996U, 0x978777a988996999U, 0x7988877987878887U,
  0x98a8789888897888U, 0x8989a97979997987U, 0x7799897778788878U, 0x8989898989997889U,
  0x8799798889877988U, 0x8997877998899789U, 0x8979888788878877U, 0x7878799989799978U,
  0x9877889899998988U, 0x7778887797798988U, 0x988999979998877aU, 0x9898979997877898U,
  0x8879989878897997U, 0x9977898789898889U, 0x7888997979898779U, 0x7799989989977988U,
  0x8899889779897889U, 0x7999778878888898U, 0x878987a898799978U, 0x7988799899887888U,
  0xa899878999779779U, 0x98888779a8979799U, 0x7888788887778998U, 0x8598aaaa6567a69bU,
  0x6768788978678697U, 0xa795897658aa6667U, 0x978aa8a8679978a9U, 0x767868477ba78a5aU,
  0x75a687877a879788U, 0xaa99985aaa599a75U, 0x97889a99a679955aU, 0x9988879998998a88U,
  0x889988a9897787a9U, 0x8979898888898898U, 0x7979878798899989U, 0x88a7878999898979U,
  0x79988997999988a8U, 0x8898877889987878U, 0x799999879797a787U, 0x7898979978789779U,
  0x8977997878788899U, 0x8899899889987887U, 0x8797897789979897U, 0x997889798888977aU,
  0x7799978879a98899U, 0x8899788799897778U, 0x798777998878a877U, 0x9788879887a98788U,
  0x98887a7a877a8997U, 0x7996899877888996U, 0x7789998797987888U, 0x889a997879998779U,
  0x8797989868898879U, 0x9989978789777889U, 0x7798986897778767U, 0x977879789a989888U,
  0x7878a7778998a799U, 0x898a778898987878U, 0x9899989978897798U, 0x8879797788898877U,
  0x9887888888888798U, 0x7799897899979878U, 0x988a987887997787U, 0x978798878878978aU,
  0x6989888979789897U, 0x98878a9787788977U, 0x7898888989879878U, 0x9897888989989999U,
  0x8999a78788888998U, 0x8878999878779886U, 0x888888889877a788U, 0x8888778a8877787aU,
  0x877a797897898797U, 0x8878aa7877798988U, 0x8877aa878798977aU, 0x8788877798789787U,
  0x997aa98788a77897U, 0x9987877778877797U, 0x8778886798887797U, 0x8877768789888977U,
  0x979779787888a899U, 0x7988888897679887U, 0x7988897787778878U, 0x9977878778887698U,
  0x6777997767788797U, 0x6878987769978689U, 0x697787778a887787U, 0x7889879788978879U,
  0x978a989799789989U, 0x8787997779779697U, 0x9888888a98798798U, 0x8979987777789797U,
  0xa988897997987997U, 0x8879998789988799U, 0x7998888798987978U, 0x9797898988897999U,
  0x9888988878988878U, 0x8888899977889998U, 0x7978878799789798U, 0x8889987899989778U,
  0x9777878898777899U, 0x7789877987777788U, 0x7978798897978777U, 0x8878987797988899U,
  0x9a99999a8a878897U, 0x99879a9987878897U, 0x99987a7999789898U, 0x87888779a8889899U,
  0x8888878779887878U, 0x9a9999887778787aU, 0x987778879988a797U, 0x77a8b8aa6689b7acU,
  0x689877a99767a599U, 0x88a67877779a7878U, 0x8679a78889aaa789U, 0x778958687ba78a68U,
  0x76979a777998a8a9U, 0xaa8a8779aa698a66U, 0xa87a9b78a7777768U, 0x8788778a8897998aU,
  0x777787967786979aU, 0x8888889778799898U, 0x7779978799788888U, 0x889867998ba79978U,
  0x7896899788a97899U, 0x9799989878997977U, 0x797aa98777887978U, 0x8a9979778a987977U,
  0x9977987879a98988U, 0x998879789998978aU, 0x9888a79999889898U, 0x7a8987a7887778a7U,
  0x99877a7988987979U, 0x989778a997989799U, 0x78a89789898979a9U, 0xabcb7bac99bb7a8bU,
  0x699a89a6a8a79769U, 0xca9a8a999aa9baabU, 0xb9bbb9aababcbab9U, 0x7a9b6ba98a99bcb6U,
  0x8b88ab88aaba7abbU, 0xc79679aababb8aa6U, 0xb8ab879bb8ba5aaaU, 0x8998898997788897U,
  0x97a7887a98998777U, 0x7a98878899887999U, 0x9888778878999898U, 0x87979988879a8889U,
  0x979899888889777aU, 0x8879989798879797U, 0x8979879877989978U, 0x78988978a7998888U,
  0x9899a99898787999U, 0x7879787898879877U, 0x8988779799789997U, 0x8798997887987777U,
  0x8798889787998897U, 0x9a79779999877879U, 0x789987997879a777U, 0x99888a9a8ab9998aU,
  0x77899997a8b89689U, 0xa9a96988b9aaa989U, 0xaa7aa888b9aaa9a9U, 0x6a7b78b989b8a9b7U,
  0x7a969a89988899aaU, 0x979977aa99ba9987U, 0x899a8899a6b86ba8U, 0x898989a9978999a9U,
  0x88977799987887a7U, 0x8798878977978a87U, 0x99798878a8979889U, 0x8799776999a88898U,
  0x79879787888aa788U, 0x7989787889788787U, 0x79888a8798989878U, 0x8878899a88788988U,
  0x7977888788a99989U, 0xa88a9799a7a79979U, 0x8787978877989897U, 0x897997a788999a96U,
  0x9999898a87888899U, 0x8797889aa8a77a98U, 0x88997988979879aaU, 0x8998999999797889U,
  0x9878989898797897U, 0x9789888997987878U, 0x9788798979798998U, 0x8989998999988888U,
  0x9799998997797889U, 0x9779979879899997U, 0x797878797887a798U, 0x7879877787798999U,
  0x7787876898879889U, 0x77a8878777778977U, 0x9888777778877789U, 0x7878777797979987U,
  0x8899879768978989U, 0x7779897679778789U, 0x7788778887987976U, 0x87a997bb87a8a7acU,
  0x57887997a885a479U, 0x88b76b78686b8797U, 0x9889a8789999b869U, 0x698959687cb7a778U,
  0x77a6aa776aa9a8aaU, 0x978779868c7a8995U, 0x897b9a6a86a87877U, 0x8877967788779996U,
  0x9787986897897988U, 0x68899889a6678986U, 0x7776776689776768U, 0x7879769797896589U,
  0x68a8888968899768U, 0x6889889759868668U, 0x676778666796a986U, 0x8798888879977999U,
  0x8988797978987989U, 0x8888987777797777U, 0x9888897987998989U, 0x8887878989878898U,
  0x889897a797979997U, 0x7799897898988888U, 0x8778788988889987U, 0x8999977777988987U,
  0x8989997978897888U, 0x9889888799798997U, 0x988988998778a878U, 0x889998788789a889U,
  0x9898989897889887U, 0x9a8a8a777899779aU, 0x9878897a88799977U, 0x8889897887879897U,
  0x89889888888879a7U, 0x7888aa8988977977U, 0x7979778889889788U, 0x9798887989899889U,
  0x8899877778998979U, 0x788998979877a997U, 0x9888898988999989U, 0x9888998798997998U,
  0x9998888997897897U, 0x9899989898898797U, 0x9799888987987777U, 0x989989779a787998U,
  0x888899888a999898U, 0x987a977988799789U, 0x9979a8977a778979U, 0x879a989897887999U,
  0x9988999898899998U, 0x8a78897997798898U, 0x78779788a8998989U, 0x8997a898887a7988U,
  0x8779887887989988U, 0x9989889877899997U, 0x8778998899898888U, 0x8ba999a97bbba77aU,
  0x77a7a9b8a7b7a69bU, 0xb99b8a89b8b9b89aU, 0xa89aa8a7b9bb97aaU, 0x6b7c7ab97ba8aaa9U,
  0x9b97aa8a799897aaU, 0xa779a8b99ac8aa67U, 0xa9aa888ab7b88bbaU, 0x7887978778999899U,
  0x7998779777899787U, 0x9988987879997798U, 0x8788888989888878U, 0x8787797997898787U,
  0x8988789878979887U, 0x8877889978879997U, 0x7897999988778997U, 0x8799889988879989U,
  0x7978789889977898U, 0x7777a87887989887U, 0x7877997788988877U, 0x788999879a779887U,
  0x986a878897897897U, 0x8968788889798887U, 0x888889978a877878U, 0x9798789889889888U,
  0x8a99897988888a77U, 0x7888a89989798a97U, 0x8779799799897787U, 0x97798987987a9999U,
  0x9888788889979888U, 0x7a8998788997898aU, 0x9889988988989897U, 0x6988868688898879U,
  0x78768866a8999879U, 0x678987888767a796U, 0x6a67766697676767U, 0x797a6687699867a6U,
  0x78a67969798a7899U, 0x7678a7966a889678U, 0x7678786667a67996U, 0x8998999799887998U,
  0x7978978787978797U, 0x999977a799979887U, 0x8987999999977897U, 0x8888778898978888U,
  0x7878899998877989U, 0x9899888977887789U, 0x7898999999988989U, 0x9787999a89778879U,
  0xa788799889979779U, 0x8898898978889889U, 0x9988877777998879U, 0x9979987779797998U,
  0x898a97a898877988U, 0x8877777788879787U, 0x8978a87889988797U, 0x898768889797877aU,
  0x7878889677978777U, 0x8a87889999899799U, 0xa89887a9979a77a8U, 0x8a87788799977996U,
  0x88a8797997997797U, 0x7797789777988986U, 0x7878977887787798U, 0x8aa99a9b8bbb889bU,
  0x67a99998a8a6a67aU, 0x999b69989a9aa8aaU, 0x997a98a9babb988aU, 0x7a9b6a978ba699a7U,
  0x7ba69a7989aa78aaU, 0xa89887aaaaaa9b86U, 0x99aa8a8aa7b969aaU, 0x98569476897698a7U,
  0x98859949889a8998U, 0x47aa8688a5377985U, 0x4865575466445547U, 0x778685879798639aU,
  0x79a7687856679767U, 0x6798a77537959468U, 0x475679554875a994U, 0x8897978878988898U,
  0x8979979899878979U, 0x88a88888a987a789U, 0x9889a89797989779U, 0x8a87989879a97897U,
  0x9889799799888997U, 0x7799797979987999U, 0x9898889889797997U, 0x7887988999888887U,
  0x9987877997897878U, 0x9989898988999897U, 0x9778979888887977U, 0x99778987a7887898U,
  0x9979789889898998U, 0x8899988998888989U, 0x9987888879888779U, 0x88a887998a8a8887U,
  0x8778a77797979a7aU, 0x8899779899a89989U, 0x989888a8879979a9U, 0x9a9978a8888779a7U,
  0x9a77987a97898887U, 0x86879aa987a88779U, 0x88988899a9986899U, 0x7999978887799988U,
  0x9787988987899788U, 0x78989a7898878889U, 0x8a99779998988789U, 0x9988997989978788U,
  0x8897879899977877U, 0x9779978878987778U, 0x799979878799879aU, 0x9778989887798899U,
  0x7987988789998889U, 0x7899777997988878U, 0x7779979878979898U, 0x9978997987788886U,
  0x9988888787997789U, 0x8778999999797888U, 0x8897789797787878U, 0xa79a96ab9698a89aU,
  0x7899678a88679797U, 0x79968a89765b89a5U, 0x9977a9668a77977aU, 0x779968797baaa77aU,
  0x76a887976b98b8b9U, 0xba79996669799786U, 0x797bab797877a766U, 0x4b96aa798bab8589U,
  0x7856aabab5b6679bU, 0xa87c5767cabab55bU, 0x996a8797b5ba7698U, 0x7b5b77c559a48bbbU,
  0x7ca85b4baaa98668U, 0xaa7aa8bbb8b79a77U, 0x9576aa98b7b9acbaU, 0x7889989999979798U,
  0x7798988987798897U, 0x8987a79789799778U, 0x7887777887979887U, 0xa878a89987889979U,
  0x7787897788888899U, 0x89797887879997a9U, 0x998798997a798888U, 0x9999887778978888U,
  0x998897898a888898U, 0x8888888888898889U, 0x9878977887979979U, 0x8898898777789988U,
  0x9899799879998998U, 0x7879899777987979U, 0x788789897a78a999U, 0x7997889878a7777aU,
  0x7877997888989787U, 0xa988778877978978U, 0x999a888787989877U, 0x9998887799898788U,
  0x8978888897887899U, 0xa698899989898987U, 0x7779788997987887U, 0x9a667465ab9a7976U,
  0xa796ba56a7b98989U, 0x497b9599b66699a6U, 0x4955566596456565U, 0x8b89a5a9768864b6U,
  0x5aa6697b66686658U, 0x557798b757a5a558U, 0x595566555a966ba5U, 0x8997687898a98797U,
  0x8978a78689897778U, 0x78aa78889987988aU, 0x99999778978979a9U, 0x888889a897779987U,
  0x8a987988987a7978U, 0x9777999887978989U, 0x97887798a78868a9U, 0x97aa97ab868a989cU,
  0x579878787965a689U, 0x99886a89776b8776U, 0x9788a8789887977aU, 0x697859796b97a779U,
  0x87969a867a98a9aaU, 0xa87878867b8a8777U, 0x998aaa7a97878766U, 0x9799997777779879U,
  0x9787888878878977U, 0x8967988897787a87U, 0x8997989979999778U, 0x7888799889897878U,
  0x8899989999789887U, 0x8878878898797799U, 0x887798978789a786U, 0x8797788887797899U,
  0x8979879798a78997U, 0x77aa877899899879U, 0x9979a87899879889U, 0x887a978979989988U,
  0x7999898798887897U, 0x8877789899a78988U, 0x9897799989886a89U, 0x9789898987788899U,
  0x8998897989977999U, 0x7789997777798a99U, 0x9887998988789997U, 0x98a999999788899aU,
  0x7989979788878779U, 0x8a9a789787987999U, 0x798897789887a788U, 0x9787888877787799U,
  0x9898888689988878U, 0x9897778988888787U, 0x8789888898a99978U, 0x9877777889989a86U,
  0x8788789777989877U, 0x9788788797987876U, 0x8799777789977899U, 0x8999878998797888U,
  0x7878788887879788U, 0x9998998877877889U, 0x8977978798798879U, 0x7789887777777788U,
  0x8898899797998787U, 0x8787797879797878U, 0x7779879788998889U, 0x7779787889988779U,
  0x9877879877a79999U, 0xa798a99978a79877U, 0x9899977899897899U, 0x7888878877899797U,
  0x8989899999877998U, 0x9788977889979897U, 0x8789777997788777U, 0x7788798987888867U,
  0x896879769777a777U, 0x97a8668778979876U, 0x8889877897888787U, 0x7878887767879876U,
  0x88a87767668a689bU, 0x8697687778897978U, 0x7979678878a76698U, 0x7996887a9aba979aU,
  0x8867889697b7a788U, 0x799a7879a989b777U, 0x8a899878a8897777U, 0x797a68a77a869998U,
  0x7b979a798a987889U, 0x878977a989b8a876U, 0x86899887a8a77aaaU, 0x9877978777778899U,
  0x898889999a8a8a99U, 0x7787a8a778897996U, 0x7877877878977899U, 0x8988898a99899889U,
  0x799989a897899a77U, 0x9aa9997988778999U, 0x999899897a989788U, 0x9a7995999abbaa9aU,
  0x98a89a67aaa8a77aU, 0x6ab997aa8438bab2U, 0x69757756aa767657U, 0x8aab78aba9b985a8U,
  0x49a58b99498ba79bU, 0x7898a7a36a99a666U, 0x7a5a994659b59aa3U, 0x8999987877988899U,
  0x8998898788798797U, 0x8788988979878897U, 0x8988988898888798U, 0x99897778a877a877U,
  0x7898989889778788U, 0x777778787a798877U, 0x7a89788887878899U, 0x8889798997779889U,
  0x9999778979998897U, 0x9779a97987998978U, 0x999889979998788aU, 0x7998888977889889U,
  0x9988799888989798U, 0x8879878879997888U, 0x9888898877788878U, 0x798a978878999978U,
  0x9989977888988978U, 0x87978aa999778798U, 0x7988999888999899U, 0x9979789889877997U,
  0x8879998898777777U, 0x8777999888987997U, 0x8999979878789979U, 0x89979998987789a8U,
  0x77a8988997999898U, 0x8879978987797a78U, 0x9789788778899888U, 0x7899899a9978a888U,
  0x889988a999998987U, 0x999a978999989778U, 0x887889899889a897U, 0x9979799879978789U,
  0x79987879989a7799U, 0x9777778978989999U, 0x9997988988998887U, 0x7978877788999788U,
  0x8998887787988988U, 0x9998987889798989U, 0x8998977788978878U, 0x9797979889998767U,
  0x87979787997a9877U, 0x8879789978998779U, 0x7877998897897787U, 0x8978897899878777U,
  0x8977897779778789U, 0x9888888888997787U, 0x7987889987797797U, 0x9798897899999797U,
  0x7787897999788989U, 0x7798a9878789a897U, 0x9897997a98878879U, 0x7879977796898a89U,
  0x977978a998799979U, 0x998788888888a788U, 0x8878998998887788U, 0x9897978797778798U,
  0x898898788a987779U, 0x7777a77778899988U, 0x8889788988777779U, 0x9897888879777787U,
  0x7879887998988789U, 0x9878799778899898U, 0x898987897798a777U, 0x98887789797877a9U,
  0x9887778778888798U, 0x8979798779988797U, 0x9797979987788988U, 0x8798798897a98978U,
  0x8889797997898999U, 0x8877978778978979U, 0x9888797797988899U, 0x9877977688898987U,
  0x99a89978789a9899U, 0x777888788988898aU, 0x9998877787778897U, 0x99a8a898a7788887U,
  0x9798799777777977U, 0x8898779989a78678U, 0x798699a679897779U, 0x795686768a977986U,
  0x8887885877a89999U, 0x679a879996677797U, 0x6865687586657658U, 0x8999a69877a96598U,
  0x7897797867798978U, 0x66a7979667a68668U, 0x59669a6558968996U, 0x9888997887778998U,
  0x7898987979887898U, 0x8999997799889987U, 0x7789898878898988U, 0x889888788a787898U,
  0x9988897879779998U, 0x8a9a888989999887U, 0x987999897788988aU, 0x8897779998798897U,
  0x99887a7a99687789U, 0x787888998877a777U, 0x8978997987977779U, 0x9897797987998788U,
  0x669889977779897aU, 0x8989887789787878U, 0x8a99976999999688U, 0x7987778878887789U,
  0x8999888897988779U, 0x7999899a8997899aU, 0x77889888787889a9U, 0x7977778877877986U,
  0x87899888a8888779U, 0x7798898999999777U, 0x779777987888778aU, 0x7855957599779896U,
  0x9786a95a779999a9U, 0x58999778a5477876U, 0x5855565586445558U, 0x9976a5887697549aU,
  0x6796878a56689767U, 0x678997853685a568U, 0x58458a5447858aa4U, 0x9987888a88998989U,
  0x7879998899899899U, 0x7888898998999997U, 0x8978777779988999U, 0x9989988888977777U,
  0x7779889989878889U, 0x8a88798999897988U, 0x99788897a9799789U, 0x779787978999a898U,
  0x9799777878887779U, 0x9897998877787779U, 0x9798879979789878U, 0x9897898898898789U,
  0x999878997997a777U, 0x8879879979988879U, 0x7789777987798798U, 0x9877989997899987U,
  0x8779777999887889U, 0x8888999899788a88U, 0x7899997997997899U, 0x9899997797889779U,
  0x7878879899978798U, 0x9888997879778989U, 0x888988779977a787U, 0x998979a987797789U,
  0x988799779887a988U, 0x989888979989a8a8U, 0x9879797779988889U, 0x9887a79788887987U,
  0x8999979877888a89U, 0x77a8988898778987U, 0x7988987897999988U, 0x7997997978779787U,
  0x877779a797889998U, 0x998a787987878889U, 0x7797789979888987U, 0x8988979997a99887U,
  0x8a99999897987889U, 0x788879aa89797878U, 0x89a8898889988989U, 0x8767758778768796U,
  0x9787886799988898U, 0x67a9789977688887U, 0x6966776767557668U, 0x8997869888996688U,
  0x8878899979678978U, 0x6699978658a78677U, 0x6877887758769995U, 0x798a788777998868U,
  0xa877899877a7a977U, 0x98a9889798798799U, 0x8787797877798887U, 0x97778a9878898888U,
  0x7889a98778998899U, 0x8887787987898789U, 0x8878797899787998U, 0x8998877988778778U,
  0x7898898897878779U, 0x88a7877977999978U, 0x8988a79778a97999U, 0x7977887988977887U,
  0x9897887788987778U, 0x7687899879888897U, 0x8888988788886899U, 0x9956857689987776U,
  0x9776a859899a9888U, 0x5789867896669976U, 0x6966575697556757U, 0x8a89a5a9989766a7U,
  0x6a987a7a776a8767U, 0x569798a757a58688U, 0x6967796558858a86U, 0x8956a38699a98988U,
  0x87a5a937a8a989aaU, 0x49897699a3169aa0U, 0x49545534a7436526U, 0x7a8a8499988752a8U,
  0x4ba7699a2869a659U, 0x668889b137958367U, 0x4a457a2527a37990U, 0x7698b8a87568a6abU,
  0x6776679867668688U, 0x96956986688a7777U, 0x976976777798867aU, 0x766967577b887868U,
  0x669688877aa99798U, 0x888a88679957a965U, 0x7787996896889658U, 0x9778898789879888U,
  0x8788999888987787U, 0x9788998888989798U, 0x9879897799878879U, 0x997989888898a887U,
  0x8978788898979999U, 0x7797879798778997U, 0x7889977888797889U, 0x7889767887897898U,
  0x9899a87679798998U, 0x8877a78878887789U, 0x8997877887788788U, 0x9997898898987797U,
  0x8998787988796779U, 0x77a9799978777879U, 0x999888a79a98789aU, 0xaa689367899aa987U,
  0xa8968a59989a9877U, 0x4a9886aaa3279a91U, 0x5a54574599446637U, 0x9aa8859a99a962a8U,
  0x4aa779a9376aa789U, 0x68aa898237a68467U, 0x5857793628a4a992U, 0x8977898878989889U,
  0x9989977888899a99U, 0x98899877a8997777U, 0x8988788899879978U, 0xa889997898877799U,
  0x8898a89778899988U, 0x8778887899999988U, 0x897988879a889779U, 0x5ba8babb69aab6adU,
  0x566778a9a6a4a49aU, 0x87aa4b67988ca576U, 0x96899778b7a8987aU, 0x585b49965c96a8b9U,
  0x7987aa587aa9b89aU, 0xaa7b78979b99a975U, 0x86aaab8a75a7aaa7U, 0x9779987989979979U,
  0x7998888899879988U, 0x9779779979989778U, 0x7778877899788898U, 0x8997988979988989U,
  0x8997779777897977U, 0x8988797987897879U, 0x9788797898788798U, 0x8877767698768a76U,
  0xa9888767897a7987U, 0x6979a7a8998688aaU, 0x8897787869767797U, 0xa796b698966a6777U,
  0x987986a8a6696976U, 0x678678788896878aU, 0x8896779689687978U, 0x7899879798788a97U,
  0x9897797878778877U, 0x8877879899977889U, 0x878777997889787aU, 0x7988977989977999U,
  0xa997889778998888U, 0x789a998897798778U, 0x8999888899997997U, 0x889798788989787aU,
  0x7899789789899789U, 0x97898878aaa89887U, 0x8899989787887977U, 0x7989979978788797U,
  0x8988997879979989U, 0x89978a7998a89897U, 0x87898997a8876888U, 0x8989877977789877U,
  0x9977797a89999987U, 0x798897a978997888U, 0x9878779999878979U, 0x89889778a7899889U,
  0x7898978989779799U, 0x779997897a897987U, 0x8789999888799788U, 0x9997877897978998U,
  0x8997889888879898U, 0x9878878998789889U, 0x9779898897789897U, 0x9798787887887977U,
  0x8997997897787979U, 0x9897979879998878U, 0x8797899797796777U, 0x9979997797898978U,
  0x9897899979a89899U, 0x8778897899798877U, 0x878a879899879798U, 0x99789779a99a9879U,
  0x7988779798979997U, 0x9989878788888899U, 0x9779878888989878U, 0x4768a7978787a4aaU,
  0x5957889b958576a9U, 0x66794956a66a8558U, 0x8769877687987679U, 0x685957a54b95778bU,
  0x699669487a78b677U, 0x9b8b998679969876U, 0x66689b686576a976U, 0x9797999799788898U,
  0x8888889897889a79U, 0x799989a788879779U, 0x8989997788887a87U, 0x7878989977a89899U,
  0xa898978887989789U, 0x7799998877887999U, 0x998989998979999aU, 0x7956a597989ab6a9U,
  0x77759a48a69686abU, 0x68985779a428a782U, 0x59456553a5645528U, 0x5a7a55a66ab65398U,
  0x3ba6596a386aa67aU, 0x8689a7824895b556U, 0x46468b2536b389a2U, 0x7789989b779897abU,
  0x6898779877778699U, 0x99a66999676b9796U, 0x8798a7878997976aU, 0x769958896b979887U,
  0x7888a98779a999abU, 0x978977879b7a9887U, 0x877b9a6966987776U, 0x768977999789897aU,
  0x897998878767a888U, 0x98a7888778878977U, 0x8979888978978778U, 0x979778688a978777U,
  0x9687998779978799U, 0x7777777778778797U, 0x7988978778999777U, 0x98998889a8879a79U,
  0x99988789a8889998U, 0x9887997998798a77U, 0x9998778798a88899U, 0x898997689797879aU,
  0x9799779879888878U, 0x9a8877779978a978U, 0x8877988989789888U, 0x8a5775869a999997U,
  0x98779958a89a8a9aU, 0x689a8689a6668986U, 0x6965675677555666U, 0x9979a5b796986597U,
  0x7897687a666a8769U, 0x668789a658a69678U, 0x57666856599579a6U, 0x778879798979786aU,
  0x6978879878897898U, 0x8977787799879886U, 0x9798779897898899U, 0x9877789889779896U,
  0x779a877789887778U, 0x7797788998878788U, 0x7998868797977877U, 0x8789789887789787U,
  0x89897868899a9888U, 0x7879889a89869999U, 0x8878898978777789U, 0x8798999999998787U,
  0x99778878a9787779U, 0x6798798998898877U, 0x779998a889978779U, 0x979a8899a9889899U,
  0x779788979a87878aU, 0x9999788878977998U, 0x9899887898799897U, 0x978a79798a87878aU,
  0x68978aa779879788U, 0x7878898878787a98U, 0x8978888789788887U, 0xa88aa7ab88aaaaabU,
  0x69996899787787a9U, 0x8a967aa7776b8996U, 0x88899867a998a76aU, 0x8789697a9ba9a88bU,
  0x778798a66ba8a79aU, 0xab8b9866896a8796U, 0x888a9a6978979676U, 0x4a97cbcb79aab4bdU,
  0x384787aba4a493aaU, 0xb69a2a57a88db359U, 0xa78aa78897baa88bU, 0x5a4b2aa53da49aabU,
  0x6b969b488cb7b798U, 0xcc8c97b99baaab75U, 0xa58bcb7aa3b7b99aU, 0x9778877789797786U,
  0x87a9977799799977U, 0x8878988878978888U, 0x7887878787779897U, 0x9898977887897896U,
  0xa879787787898987U, 0x877997978889878aU, 0x89797998889a7878U, 0x96a9a99a7599b9abU,
  0x678769998966b787U, 0xa7b58899578b9998U, 0x987986987aaa878aU, 0x868868598ba9996aU,
  0x66a678877a98a7bbU, 0x8a9a89679b58a965U, 0x8a99aa7a97a8a567U, 0x8898877988778998U,
  0x789978779788a777U, 0x9987789779988788U, 0x8778887778788898U, 0x897888998a898897U,
  0x8698889787877788U, 0x7797778788988886U, 0x7777989987776978U, 0x7a55b488a9aba8caU,
  0x6675aa59a7b695acU, 0x5aba676ab329b671U, 0x5a556554b6556428U, 0x596b56b77bb673b8U,
  0x2ba47a69398ac67aU, 0x769ab6b338a6b555U, 0x46489b2646b379b2U, 0x8888879889987897U,
  0x9897777898979999U, 0x8798a88979979898U, 0x8998998879898987U, 0x988898998777998aU,
  0x8889899989899998U, 0x9a98977898787879U, 0x997998877989a877U, 0xa9999778877a9977U,
  0x7aa98889788a9888U, 0x78878a9879878888U, 0x8798997979998778U, 0x77999787a8797879U,
  0x997878a79989a878U, 0x9778898778878987U, 0x88789a879887a878U, 0x7999799998797978U,
  0x9788997688897889U, 0x9999887789798799U, 0x7987979889888798U, 0x797877877a897997U,
  0x7779887898777799U, 0x8778788977879789U, 0x87998779978877a7U, 0x7c77a7a9bcedc7bbU,
  0x6395bc88d7c6c4bdU, 0x9bec59acc689d8a6U, 0x7a588466d8989578U, 0x3d7f47c96cd687c6U,
  0x3dc18e7c587bb5beU, 0xa698b5c68bd8c841U, 0x69699a5896e56cc5U, 0x3e83b49f3d7fde37U,
  0xbdd41330bc1a7452U, 0xbd8a9f223d690982U, 0x3d639069bd819abbU, 0x3d748988bddaa0eaU,
  0xbbcd13b8bdb8aa3fU, 0x3d00eff53d5447c5U, 0xbd894140bd845a36U, 0xbd94929bbd8950a7U,
  0xbdd1619abd7cd634U, 0x3d8285f4bd1eeec6U, 0xbd89dce3be67e557U, 0xbde18a75bd45fcdfU,
  0x3d286e183b192525U, 0x39ff980cbd45f4f4U, 0x3df115b5be8bc18aU, 0xbdadb16cbd5ca073U,
  0x3d83f0c6bd783279U, 0xbe5ba1243d6696aaU, 0xbd8b476bbcb0817aU, 0x3a073871bd8492baU,
  0xbd4cc3653d14257aU, 0xbe1296a73d27ef73U, 0x3cb3e4243df7acd6U, 0x3d9294ecbd560aaaU,
  0xbd9af60cbd95ad70U, 0x3dc45a5fbe255785U, 0xbd988c8ebd6b1691U, 0x3e8b9ac53ca75cf3U,
  0xbe7373373d4b0be6U, 0x3cf53314bd660591U, 0x3d64186ebd82d22aU, 0x3d7a44223d1822d3U,
  0xbc0118c5bdd9478bU, 0xbe35ce8dbdbe7924U, 0x3d7b06703cc92af4U, 0x3d224ee83d6f3f63U,
  0xbd9eed413d40d06cU, 0xbda6d040bcc7c3aaU, 0x3dce578f3d91d512U, 0x3d6c86713e703317U,
  0xbd8c1a9f3c8a043fU, 0x3d5e5ac23dd86cd4U, 0xbd8cdedbbd9955deU, 0x3d8743fa3d3ecef7U,
  0xbdca0b6e3cb51381U, 0x3e41d8fb3d41181eU, 0xbda39e0bbe86b5a7U, 0xbd03ab993d032caeU,
  0xbd71abc1be8ddadfU, 0xbccc6c0bbe8f4ecbU, 0xbd89d5ba3debd29dU, 0xbd86a3f33d353b00U,
  0x3d36b9fdbd971ef1U, 0x3d7737edbe1455aaU, 0xbe52c480be5c1a9bU, 0x3cc52bd6be0e93b9U,
  0xbdb341f73e348e4fU, 0x3d01a545bd50dab1U, 0xbe9b718ebe332d96U, 0xbe378e69bc28fed5U,
  0xbe928d57bcf4cbf6U, 0xbd77bf36bd3c8caaU, 0xbed7f0553d31b0e7U, 0x3e4bc2b73b293320U,
  0xbb051a5abcb253b1U, 0xbb743ef83be54f52U, 0x3b217293bb25f8e2U, 0xbc32deb5bd9a2c7dU,
  0xbcba3690bcc2ee8eU, 0xbbfcfcb1baa98cffU, 0x3c840c33bc80a617U, 0xbc7885edbbbaa46dU,
  0xbd18a3a7bb0c5fd3U, 0x3c7e68c0bd20d0d3U, 0x39e214763d9ecbf2U, 0xb9ae4231ba903474U,
  0x3c9cbbe2bc6cd169U, 0xbb76325138543e5aU, 0x3d89094ebe255399U, 0xbbb21577baa24ed3U,
  0x3ada3576babf05afU, 0x3c568fce39b61f14U, 0xbc17512e39d4ded2U, 0xbd7e42483b0a1cd2U,
  0xbb25e10f3b321c40U, 0xbc341815bae057c1U, 0x3b2545263e1c882aU, 0x3c82b9e7ba0d159fU,
  0xbac43fa1bb006d32U, 0x3e078fb7bdb0f35eU, 0xbbfc3fdabb8012b8U, 0x3e4db126bb0bbdeeU,
  0xbe07160e3c42ec6bU, 0x3bb272d4bbca3be4U, 0xbab16f4f3b4162ffU, 0xb921dc81bbe574e4U,
  0xbd533065bcad2284U, 0xbe34143ebab8c2aeU, 0x3b22b252bab785b5U, 0xbb8385eb3bda8b6eU,
  0xbb60360bba3b83afU, 0xbc27e337bbba8766U, 0x3d0875b8baf7aa65U, 0x3af342913dbbf1a0U,
  0x3baa39e3bc734cc6U, 0x3b08100a3e0d8a93U, 0xbbb85900bc426fd2U, 0x3c3b513d3b19534bU,
  0xbaf10ee33d6c4bcdU, 0x3de74618bb0e627dU, 0xbd6fc9ebbe89db7dU, 0x3c69ef8a393b0709U,
  0xbaa66b25be5b0c1dU, 0x3a03acacbc61a391U, 0xbad0795e3d91f28eU, 0xbb8a5a923b7e176bU,
  0xbaada2e8bb3a782eU, 0x3c25aaf43dc29313U, 0xbdf4f17ebe6898d5U, 0x3af348e5bd119644U,
  0xbbccc1653e0b0f78U, 0xbc6405663c1bad28U, 0x3e10bf9abdd31d26U, 0xbcf83a0b3c9825c4U,
  0xbe6f366fbb265229U, 0xbaa4d73a3a951be0U, 0x3e68e1a7bb6409bcU, 0xba8d263f3d920536U,
  0xbbf9463dbd3294d5U, 0x3c15309abafc1b61U, 0x3a21e2ec3937eb62U, 0xbd02cf703a15fa11U,
  0xbc7d804dbb31ac55U, 0xbb095f37bc1851ecU, 0xbc44a4dbbc82f47bU, 0xbad9a7783b32a202U,
  0x3bac370cbb94748fU, 0xbc9a9131bde41da4U, 0xbe60e4d23ca06e62U, 0x3b38af213a89e25fU,
  0xbc318367bc4a4ff1U, 0x3a2b12f53cca11f4U, 0xbe318812ba03e186U, 0xbab02d14bd46ece8U,
  0x3ac46ab2bad374cfU, 0xb98d3c5f3afb7a16U, 0xbb0b3e1bbc478e7bU, 0x3b9a043fbbc70a2fU,
  0x3acdfe72bd9b7402U, 0xbba475ecbb2bbe49U, 0xbe68a130bd88ff8fU, 0x3a224caa3a2d2b95U,
  0x3a2c314d3cbcfb02U, 0xbd8fae38bb03cedcU, 0x3b38a4a53e3c136dU, 0xbb2bfac53aa03543U,
  0x3c649d9dbd0ae65dU, 0xbb325affbe0929dfU, 0x3bb0ce893b93b960U, 0xba125e7bbb5a825dU,
  0xbc3f8f16baa93c61U, 0x3b9a4a5b3cba90dfU, 0x3c6acf693cb3b947U, 0x3bae6fb03afb3d4aU,
  0xb8870728ba242ec8U, 0x3ada245ab903d8aeU, 0xbacf95a7bbefc69bU, 0xbd1cb76d3d4057b2U,
  0xbb8399893b2e8a43U, 0xbe3c7e233bbeb3e5U, 0xbbb1ebb03b50ae47U, 0x3a0206c139bbe9d2U,
  0xbd0620553bdb2bf6U, 0xbb4a5186ba9f3038U, 0xbde28b74bd1de07dU, 0xbafe78cd3b4cb491U,
  0xbdc16b4d3cce5338U, 0xbe82c77e3a448888U, 0x3d86cef93a121c98U, 0xba6320083b06f4a2U,
  0xbabca2463b7740f3U, 0xbde3cd1a3a550631U, 0x3ba755783b9b6a06U, 0xbca6052fbde626f5U,
  0xbd3a7ee43b005e9fU, 0x3c65806dbbed3287U, 0xbdadfeb9bb0e54bcU, 0x3cf4091fbe11b2adU,
  0x3b8734d9bd49b4f5U, 0x3b81be3f3db8e322U, 0xbb2d8c6e3b0fb033U, 0x3e5cae673ede4fcbU,
};


ai_handle g_network_weights_table[1 + 2] = {
  AI_HANDLE_PTR(AI_MAGIC_MARKER),
  AI_HANDLE_PTR(s_network_weights_array_u64),
  AI_HANDLE_PTR(AI_MAGIC_MARKER),
};

