/**
  ******************************************************************************
  * @file    network_data_params.c
  * @author  AST Embedded Analytics Research Platform
  * @date    Sat Jan  6 17:57:57 2024
  * @brief   AI Tool Automatic Code Generator for Embedded NN computing
  ******************************************************************************
  * Copyright (c) 2024 STMicroelectronics.
  * All rights reserved.
  *
  * This software is licensed under terms that can be found in the LICENSE file
  * in the root directory of this software component.
  * If no LICENSE file comes with this software, it is provided AS-IS.
  ******************************************************************************
  */

#include "network_data_params.h"


/**  Activations Section  ****************************************************/
ai_handle g_network_activations_table[1 + 2] = {
  AI_HANDLE_PTR(AI_MAGIC_MARKER),
  AI_HANDLE_PTR(NULL),
  AI_HANDLE_PTR(AI_MAGIC_MARKER),
};




/**  Weights Section  ********************************************************/
AI_ALIGNED(32)
const ai_u64 s_network_weights_array_u64[1913] = {
  0xc002cf14U, 0x3f31e5a93eed73c7U, 0x3d3bd6893e8f5e0cU, 0xbd332e34bf0c336cU,
  0xbd1f5a803eb9f209U, 0xbebb8f7ebe20fa57U, 0x3ed64b6a3e97f31aU, 0x3ed038abbeb8bc89U,
  0x3e00e0163e19461fU, 0x3ebdb83a3e369049U, 0x3e43b09bbda37c21U, 0xbd001dbe3e1a2242U,
  0xbe76850c3e6d5587U, 0xbea94ac0be0ce524U, 0xbedcad313f524babU, 0xbe9bca5d3d8c09c7U,
  0x3e807a05be7f403cU, 0x3efc6852bf2c68feU, 0x3f3af7c5bea8da22U, 0xbe804b673de9710eU,
  0x3ddaf9d63f211989U, 0xbde1ca813c7823ddU, 0x3e14acdb3c289df6U, 0x3e424febbe1f3751U,
  0x3ecf4c193ecce7bcU, 0x3dd893ffbddacadbU, 0x3e1814ec3dd96559U, 0xbf85b447bf0c5ca5U,
  0xbf0fbaddbe829975U, 0xbe05f4ac3f83e519U, 0x3e598bd93e0f9220U, 0x3e831aeb3de36155U,
  0xbdce74ecbe532258U, 0x3f0dccd5beb40b44U, 0x3dbd16b63d94be69U, 0x3ee1b76abe244effU,
  0xbf4ff2debecd6172U, 0x3ef481c3be9edb1eU, 0x3e983b653e80a796U, 0xbf8ea621bf1aaae1U,
  0xbea16740bf093794U, 0x3ea400b53f58da7cU, 0xbe9a151b3e66a9aaU, 0x3eb13d45be339f2fU,
  0x3eb4fce0be64d855U, 0x3ee9376ebd847fa2U, 0xbe3a57c4bee9927fU, 0x3d4bb7c33f09682cU,
  0x3f126d3dbe43905cU, 0xbf05041e3e1e0990U, 0x3ec07d9abf580a09U, 0xbf043de7be556f23U,
  0xbe1ba0f4bed47ba9U, 0xbded04263e680ea9U, 0x3eb4a4bbbe8d6956U, 0xbe255583beada4e1U,
  0xbf0c86b3bf15f22bU, 0x3f83c0d7beafb40eU, 0xbc8eb0773e950a3bU, 0xbe9b6c95bf0199d9U,
  0x3e81e83ebd81a5d0U, 0x3d0bfc78bef4151eU, 0x3ceaaeefbf1581a1U, 0xbdf0a06c3d58a9d8U,
  0xbd17f451bebed3d8U, 0xbe7ced9fbf124f47U, 0x3f80d727bf049438U, 0x3bfc1fc1bd8d2c85U,
  0xbe10012d3e19ff29U, 0xbeb1ab6c3ef01598U, 0xbed2e9b0be586805U, 0x3d827689bf617bcbU,
  0x3e8ec6e5bd7a20aaU, 0x3f1390bdbe79c15dU, 0xbea56d4fbf0ff6deU, 0x3ef01f9ebcdafc14U,
  0x3ea75fb23f0ec1a5U, 0x3d8a3be1befe2b69U, 0xbecc93ecbe84c323U, 0x3f3aaa8dbe4f158bU,
  0xbdf85e8bbf17d3d3U, 0x3e91cde93e4db295U, 0x3ed22866be87fc25U, 0x3dcf9b623e204a60U,
  0x3edf77e9bed8b981U, 0xbec0a79cbd530391U, 0x3d0f7be83f61c744U, 0xbf1f8e9fbeb85bd3U,
  0x3e7ef5f43d833851U, 0xbe40fa25be170e92U, 0xbf109420bc20eceaU, 0x3eaafaa83ea92586U,
  0xbd5377dbbeec9496U, 0x3e0683633c850460U, 0x3e5d432abe9b3582U, 0x3e3192a83eac5bd4U,
  0xbeace03fbe22571aU, 0xbcc600ef3db50c82U, 0x3e96610dbe77c321U, 0x3d0c45473ee1a287U,
  0x3c85df04bb50a54bU, 0x3e891c8cbd1bc885U, 0xbf31e7b5be5ff191U, 0x3e8ca5acbe53f4c9U,
  0x3cda5bed3e8479f3U, 0xbf302249bec4faa1U, 0xbdf07944bf010cb9U, 0x3ef3e79b3eb7ee41U,
  0xbf1c920f3c497939U, 0xbe91551ebea7acfeU, 0x3d8db50d3f5a2afdU, 0x3ed8c4e3be1aa9f5U,
  0xbecbef57beab1b36U, 0xbd2f08df3f7f4438U, 0xbf36cabcbe8082eeU, 0x3efa74fb3d392840U,
  0xbeb442203eb21073U, 0xbf2e687fbe5849cbU, 0x3ed696fd3e54e514U, 0x3d2dc3133f316ad2U,
  0xbd93a0803d5d4394U, 0xbe4e0912beecee86U, 0x3e425c59bf545406U, 0xbeae65e3bccfd438U,
  0x3e3f0483be571114U, 0xbde584c1bf07ce13U, 0xbeb7aa743e9ed959U, 0xbe8f35943ed18c6bU,
  0x3c3d6ab2bf587acbU, 0x3cdd83b8bd5839a9U, 0x3f010447be963132U, 0x3e8d96b6bf1e0c89U,
  0x3f0413f53e879de1U, 0x3f2024f5be38a621U, 0x3e2d57abbf0f94ccU, 0x3c1ee7083ebca423U,
  0xbea8311b3d6c33a4U, 0x3e545574bf2c5209U, 0x3f27cdaabef2a2c1U, 0x3ef523963eb78b6eU,
  0xbebf114bbdd8e53fU, 0x3ead58d83c8f4956U, 0x3dfc416dbf013399U, 0x3d04ba0cbf088e6eU,
  0xbee39d28be831673U, 0xbf10a50fbe697161U, 0x3ea963583f842f85U, 0xbeb000f8bd1dd220U,
  0xbeea1870be3ef88dU, 0x3e544897bf6bd7daU, 0xbf44c581beb5a9f0U, 0xbcd482ca3d88e438U,
  0x3e0ddbf9becb291fU, 0xbeab774cbdf542eaU, 0xbf1375bbbdd1e062U, 0xbd80afa73f7b8e24U,
  0xbe3342e83e6002b3U, 0x3dad726ebdaa95d2U, 0xbf18ceaf3e158a7dU, 0x3f379e093d5b5717U,
  0x3de79262be8c3df1U, 0x3dfaf7d63efd5729U, 0xbe9eb2b43da325eaU, 0x3ebbf276be59453fU,
  0xbeb0fea33ea31f00U, 0xbf13f9c0bd9f4b0fU, 0xbdab5374bf09ab01U, 0x3e995ababe1b951cU,
  0xbed69b593c37c98eU, 0x3f032219be84928fU, 0x3dc16a7ebf1b2aecU, 0xbe18052d3e199ba6U,
  0xbbf976aa3cd20eb6U, 0xbe7045c0bd17413dU, 0xbf528edcbee58b5fU, 0x3f0f60e8bd85be1eU,
  0xbea7bc8fbec538feU, 0x3e5bf3f43e021939U, 0x3f05d32a3e4ff3b8U, 0xbeedfafe3ef5420aU,
  0x3f077e31bd1a5796U, 0xbef4bbe3be0303f7U, 0xbde2ef803f891a71U, 0xbf37f5bdbe5e3867U,
  0xbd1d11a2bd927db4U, 0x3ce2602b3e18ed72U, 0xbf67768ebf04f797U, 0x3e91333dbe0a4788U,
  0xbe4990c93e6d6bfcU, 0xbf010e903e41ada9U, 0xbe1dc9b7bebb9e3bU, 0x3ecd1c923f2b758bU,
  0x3f3a6c6bbec17aa5U, 0x3da7cf86bf00f2e3U, 0x3e0896b13f0956dcU, 0xbe9cca0c3ea9ef58U,
  0x3d1b628c3d393727U, 0x3c57cdb4bd45363dU, 0xbde7b8e3bb3d6c46U, 0xbe0c3308bdda94d5U,
  0xbdd7933abc002444U, 0xbe0faa75be5536c1U, 0xbe029cf8be367c6cU, 0xbdc3583ebe94f6ecU,
  0xbdfce3febe331384U, 0xbd0934fabe097cf2U, 0xbdec9380be6f0c48U, 0xbc33cc26bd1bf0d0U,
  0x3bbdff25bde2fbfdU, 0xbdd49ababe69586cU, 0xbd83749fbd4f2fb9U, 0xbaba34f73cf512eaU,
  0x3cfeb026be3e07e7U, 0xbe483bf9bd067d0cU, 0xbd508e843e13353cU, 0x3d7b2b49bcb2e030U,
  0xbe44963dbe0ebbf3U, 0xbeb088e3be9f4aacU, 0xbddadaef3cde4b5dU, 0xbdb37259be219b64U,
  0x3bfcf4873cf0bfcaU, 0x3ccc9e4fbe5fb5fdU, 0xbdbe4085bd50fcb3U, 0xbdc5f158bebed2bbU,
  0xbe664c963db899f4U, 0xbe3895a03e57ff53U, 0xbd44f4933d3e5c94U, 0xbd9df6793eb3b0ceU,
  0x3d57a503be6e768bU, 0xbe2d6729be14ae77U, 0x3e412525ba9ef289U, 0xbe371905be8e4346U,
  0xbdf7765bbdcf2d69U, 0xbd0cb8e2bd9a526cU, 0x3cf117693d88eacfU, 0x3e2215dc3db3a18bU,
  0xbe824e2dbe6f98a7U, 0xbcb1f27d3e8db7b7U, 0xbd8b8203be097de8U, 0xbe0fdbc5bebd3abdU,
  0xbdd9a743bde9be39U, 0xbcb93239be15979aU, 0xbdde3791be01d766U, 0x3df741f9be1b83e3U,
  0xbccff890be2bb391U, 0xbc07f9f63e9a4a6cU, 0xbd7d4d94be9ab25aU, 0x3da5debabec28bb0U,
  0x3e5d37653db8b289U, 0x3bed30b63daec9d7U, 0x3e08147bbd99adfdU, 0xbd94a459be24c0b6U,
  0xbe4e0d6ebe90ab6eU, 0x3d67f02abeb3cbffU, 0xbde49458bdb009f4U, 0x3d75a1debde5297aU,
  0xbd806f8fbe4b4719U, 0xbe7bf7ae3d95ec3aU, 0xbd352eeebe10c043U, 0xbe2feb493dae62d8U,
  0xbf099508bf0ad275U, 0xbf071a2fbf08579bU, 0xbf049f55bf05dcc2U, 0xbf02247cbf0361e8U,
  0xbefe3a0cbf00e70fU, 0xbef9c82dbefd89fdU, 0xbef527abbef7c737U, 0xbef0722bbef2ed05U,
  0xbeeb7c78beedf752U, 0xbee6fcd8bee9019eU, 0xbee19112bee40bebU, 0xbedb6c14bedf1638U,
  0xbed7a5acbedae718U, 0xbed291cbbed52ad2U, 0xbecde63abecfe2e6U, 0xbec91d02becb8255U,
  0xbec35132bec685d9U, 0xbebdf571bec07102U, 0xbeb91f2abebc3e21U, 0xbeb4c7a8beb6cd2bU,
  0xbeaf862bbeb2ea71U, 0xbeab1f0cbeae38f4U, 0xbea5cc17bea8049eU, 0xbea0f137bea34f71U,
  0xbe9bf070be9e6a81U, 0xbe978906be997c37U, 0xbe92f370be9569bcU, 0xbe8dab72be905ac6U,
  0xbe87b0acbe8a8c4fU, 0xbe831a3cbe85b081U, 0xbe7b5f9dbe812336U, 0xbe7222e1be77c737U,
  0xbe6788f7be6cbedcU, 0xbe5e76edbe634f1eU, 0xbe5490fdbe594c74U, 0xbe4c2cf7be4ff71fU,
  0xbe4267bfbe483a9cU, 0xbe37b130be3d4fceU, 0xbe2d463fbe32674cU, 0xbe23e145be281c61U,
  0xbe190e0fbe1e72b4U, 0xbe0f5f9abe1405efU, 0xbe05ae04be0a73c5U, 0xbdf782eebe00ddbbU,
  0xbde40431bdee0bddU, 0xbdd0a0a2bdd9e6dbU, 0xbdbd0041bdc6fa25U, 0xbda9cfaabdb31818U,
  0xbd95621fbd9fe7fcU, 0xbd7f43b6bd8a70bfU, 0xbd57fe6ebd69cff2U, 0xbd319687bd44e298U,
  0xbd0bd045bd1d731fU, 0xbcc5f5febcf026b1U, 0xbc6215b8bc9b0bfbU, 0xbb8a903dbc1741b6U,
  0x3bab5fe239bd7870U, 0x3c76e04d3c293226U, 0x3ccca8913ca61890U, 0x3d0cbbee3cf22837U,
  0x3d3351ca3d20d605U, 0x3d5ac4883d464977U, 0x3d81a0493d6dcd4fU, 0x3d95c5be3d8b0469U,
  0x3da8099e3d9fa5eaU, 0x3dba1db63db09b61U, 0x3dcfb0fa3dc54c1aU, 0x3de4aca23dda366eU,
  0x3df842bb3dee65c8U, 0x3e05f8a83e010ebbU, 0x3e0fdfa83e0ab9d6U, 0x3e1a6bce3e1528ffU,
  0x3e23c0133e1e39eaU, 0x3e2dd3f93e28fe19U, 0x3e3712bb3e329bf2U, 0x3e41298e3e3c8a2aU,
  0x3e4c1af73e46bbaeU, 0x3e550c773e50790fU, 0x3e5f59ad3e5a70daU, 0x3e6a4e653e641823U,
  0x3e7397623e6f60ddU, 0x3e7d5dc03e78abd1U, 0x3e83bb5e3e813aaeU, 0x3e88fd053e85ee31U,
  0x3e8d28a73e8b450dU, 0x3e924e2e3e8fe5a6U, 0x3e9725db3e94b67dU, 0x3e9d3b713e99e445U,
  0x3ea1ffb53e9f86c6U, 0x3ea6a5903ea43d28U, 0x3eab36e33ea827e0U, 0x3eb00db43ead5a97U,
  0x3eb50aef3eb307c4U, 0x3ebb2beb3eb79e31U, 0x3ebfb9553ebcf2b1U, 0x3ec3ea223ec1d26fU,
  0x3ec93d903ec668e5U, 0x3ecdeec83ecb3139U, 0x3ed304303ed04564U, 0x3ed81a1e3ed532d5U,
  0x3edc56fa3ed9afccU, 0x3ee2aa843edf65e4U, 0x3ee6efbc3ee4406eU, 0x3eebb0fb3ee998ffU,
  0x3ef1527a3eeed210U, 0x3ef59c613ef24efbU, 0x3efa92143ef8173aU, 0x3eff87c73efd0cedU,
  0x3f023ebd3f006dbeU, 0x3f04b9963f0327abU, 0x3f0742323f05f703U, 0x3f09af4a3f0871ddU,
  0x3f0c2a233f0aecb6U, 0x3f0ea4fd3f0d6790U, 0x3f111fd63f0fe269U, 0x3f139ab03f125d43U,
  0x3f1615893f14d81cU, 0x3f1890633f1752f6U, 0x3f1b0b3c3f19cdcfU, 0x3f1d86163f1c48a9U,
  0x3f2000ef3f1ec383U, 0x3f227bc93f213e5cU, 0x3f24f6a23f23b936U, 0x3f27717c3f26340fU,
  0x3f29ec553f28aee9U, 0x3f2c672f3f2b29c2U, 0x3f2ee2083f2da49cU, 0x3f315ce23f301f75U,
  0x75867b7d6d6d8c52U, 0x558d6b8583626580U, 0x47804d887b887774U, 0x6f557f82577e5d90U,
  0x637877637f618190U, 0x8490775e8b92855fU, 0x4f6e57775c755053U, 0x604c63768c64635bU,
  0x6a8b5d8b5473668dU, 0x4d605d5f696b607dU, 0x608c4b7e743a8067U, 0x698c6c71725b5d53U,
  0x77827f7e6657493fU, 0x79715d69597a5481U, 0x518588546d8e3e98U, 0x866b5e82666f3f86U,
  0x727b5e658874706cU, 0x6e6f9e9b6b6c9a57U, 0x7f86648f7c696894U, 0x629d776377536c66U,
  0x4f8780745e67639aU, 0x6c666a886f7d656bU, 0x5881747e548a6aa0U, 0x6e7744743e68ba9eU,
  0x7860766487702f7aU, 0x7f7b6b6b82939957U, 0x7d6a4467896d638dU, 0x7e60579876716580U,
  0xa56a427977709781U, 0x76705c56807d8352U, 0x745f618679666d4fU, 0x85935a5679717d68U,
  0x7a4685697154648eU, 0x84729bb78963686fU, 0x72a83a935f9258acU, 0x44c022790b848e5bU,
  0x879335449e997898U, 0xb7967990a54bc87bU, 0x634eb08881719d8dU, 0x795341d196676486U,
  0x33934b3850775659U, 0x6bc9acd22c954e60U, 0xae9540764d7f634cU, 0x995f4a958c8c792eU,
  0x306031c66390964aU, 0x5d8ca17393c5634dU, 0x628b5f9342a38474U, 0x497560b6bb5f8485U,
  0x5a3f758e8fcd9c61U, 0x925d829e586a7298U, 0x689a597ca39c484cU, 0x80626f8e66848f6bU,
  0x6e965997525f5b60U, 0x4262436653684d5aU, 0x5eb06d5c6f85515eU, 0x8d90608065665268U,
  0x596276875e715669U, 0x875a536d83548584U, 0x3e7685648d5c7bc2U, 0x7693546d59646565U,
  0x74625b5974976673U, 0x8f51825c4c5e6467U, 0x5f5f41597949725fU, 0x8a689e5d58686c74U,
  0x6e816e5381607b4fU, 0x8b7c7e4893698a7aU, 0x76c8947994b25271U, 0xb13f9ec45b878960U,
  0x8e6e2ec5467a185dU, 0xbb8693b2334ebaadU, 0x5e96bf886588932fU, 0x8f3a5235c163ab55U,
  0x9f1b803072ff8c78U, 0x6d862fb0560d3f95U, 0x798e65abc5dd009fU, 0x630a799230817398U,
  0x9359b9706a62ab66U, 0x493f426a34b06ea0U, 0x766f2983a2a65cceU, 0x8d4e7e9f366d2583U,
  0x96825a9a5ac7c791U, 0x71a6653639ab88caU, 0x7f7a827b7b5d696bU, 0x7b56764464768073U,
  0x6a527a75757d6d54U, 0x71695b707566675bU, 0x857980716e6c6c8eU, 0x717283835485836dU,
  0x74558770715b6868U, 0x9067697374556b85U, 0x7a8271757463695eU, 0x736b656632705c5fU,
  0x666e745f706c5e65U, 0x4f7c8b5e68816868U, 0x54776e74825d646dU, 0x7f69686e757c786cU,
  0x85697c6454796c54U, 0x725c5f81846f7769U, 0x4d51674238907072U, 0x884d8b687e3f482bU,
  0xc7653a676b20c554U, 0x4a4d7946851faf41U, 0x658b25734d75bcb6U, 0x7c8b356f2151663cU,
  0x6e426a1cb0813e2cU, 0xb43879696163bf2fU, 0x9a51da44a1668486U, 0x6c65797a940c6041U,
  0x652693944c3b976eU, 0xc637568261ae7e2eU, 0x3a179f7aafad8f20U, 0x8e5752356c402973U,
  0x4a7d2a339f836a2fU, 0x7137512fc276882cU, 0x4d62636064965a2cU, 0x3e3c3b69346c7265U,
  0x7574274d996a6577U, 0x75785b375b67912fU, 0x4e4074624c545648U, 0x9344455a4c7e6e4cU,
  0x4b686b625871396fU, 0x6159696646475a5eU, 0x746194612d664f8aU, 0x7737474b5c647261U,
  0x4e725664286b643cU, 0x7c4464766d6d5f7dU, 0x4f4c3f612f60536fU, 0x51525e43a2672d77U,
  0x703db2845c745b3bU, 0x6f4ea943305b645cU, 0x788a726841305d54U, 0x6f7c6e5f5b54537eU,
  0x577c4e7d7b7e7873U, 0x5d6066846764517cU, 0x7b577d76727e7072U, 0x4d76547a676a7059U,
  0x627c7e6e6e84807bU, 0x768a844c5a686772U, 0x685b865d7460754fU, 0x7e816c5a6b666d7fU,
  0x63736c427945566aU, 0x616d5b69885d7a8cU, 0x7f6f796669598257U, 0x51785b8f7d66615cU,
  0x6d7f666c694c6466U, 0x777a5a4167676d90U, 0x5a62666e775a6188U, 0x62656c5d528b7274U,
  0x8667826896896d73U, 0x8092617a8b876e58U, 0x68717e558370645eU, 0x66718e77876f7067U,
  0x83756e838f67918dU, 0x6c738e84537d857bU, 0x727759a063847ea3U, 0x66795785814d8667U,
  0x68945f9881726d60U, 0x7e6673839e727a59U, 0x9075598372579356U, 0x80876c6790536f92U,
  0x8e7a5478805d636eU, 0x5a6d859570568463U, 0x6c825f926c9b776bU, 0x6d706d605d735f83U,
  0x744753425b736754U, 0x8641955c82616b5bU, 0x7338a3699e64435fU, 0x535a79a15e657c47U,
  0x386d50656d5f3f74U, 0x7f6e6e5684915f6fU, 0x6e528b42626a694aU, 0x90667f748d5d8568U,
  0x8b36753b6f598876U, 0x426282695559706fU, 0x508181425b485e88U, 0x8e7a6c2a984d6675U,
  0x5a6b66695f388477U, 0x936a793f6168565fU, 0x867679396d726d51U, 0x597e5f585b4b6758U,
  0x7577735e7e735f64U, 0x84617184685b686dU, 0x7a626a7a68577355U, 0x516e826a826f846aU,
  0x5d707786677a766fU, 0x7f5b587673875f6bU, 0x7d687261765e696fU, 0x53677f58665b6659U,
  0x6f6c7f4a7f668765U, 0x6469427365668169U, 0x6944757c6966665fU, 0x786576866a6b6360U,
  0x6d7c846c584d597aU, 0x826e7d65766c6965U, 0x7a863f7972588466U, 0x72747178775a8564U,
  0x614c456371806c69U, 0x7583848c857a8b49U, 0x7074546bad6a677dU, 0x7d8a685dad40989bU,
  0x6ea8777c8aad7b62U, 0x936f7ea38a976c96U, 0x4376a96f41945f9dU, 0x687cc264c5779048U,
  0xd84292855d7ca628U, 0xb43ea45f7476866bU, 0x729fa1a87aa07056U, 0x4d6784ad6887518bU,
  0x9e8aaba87271bba7U, 0xab29763c355e6f8aU, 0x4978d29b6b8f817bU, 0xac37b36f987b4a4cU,
  0x623b4f7163517359U, 0x6f738e7678618285U, 0x9b357e55755d9386U, 0x9a3e793870987f5aU,
  0x705d5682835b8256U, 0x68646e895786627dU, 0x58898666647d7c89U, 0x745ba38c78718e4dU,
  0x74583e577f5b4a55U, 0xa58e944a8f3e7e51U, 0x5c4f727457624f55U, 0x4158804c71703d6aU,
  0x4b6698537a925d6fU, 0x8e827b6796534d3bU, 0x726a6e5c706c8470U, 0x875b98806481724cU,
  0x5f728d748e70854cU, 0x6678607567688571U, 0x5b61726f5a727873U, 0x818765796e89796eU,
  0x5e7c496e67735e71U, 0x867d7c5b63776b67U, 0x554d67766a588258U, 0x646652616a778261U,
  0x6b735b5e765d7380U, 0x698957776479716bU, 0x6b566e5d6b6a5f83U, 0x437a605c73666f5cU,
  0x776b745b73726580U, 0x677b736f6e507566U, 0x7b7d71635e6a8181U, 0x8a4b74826a837a5eU,
  0x4d806259615f6d68U, 0x816a5e6472707766U, 0x5667747f5a60716dU, 0x778768676a6e6a68U,
  0x6459555f6d5c6e62U, 0x827265765d5a6962U, 0x6451837186786556U, 0x6d7a7366707d767fU,
  0x6c786e6d6e597574U, 0x68646f7f6173816eU, 0x8367735c706e5a6dU, 0x737c656a8078756aU,
  0x6f666f826e716774U, 0x5e587858687c7375U, 0x7568645f816f626cU, 0x737d786464628377U,
  0x7c6565706c738d74U, 0x786f6a676c74617aU, 0x6f678a895e758b6bU, 0x29aa6687794e4956U,
  0x3199598559739560U, 0x743653835585876aU, 0x595b815464544d86U, 0x80726c247a9b6056U,
  0x304f4c7d697b3c70U, 0x6d26508e95685c87U, 0x61667569437f518eU, 0x5f4d6a553d834366U,
  0x7a78697779387f76U, 0x6b594367707f5337U, 0x8db680465c334227U, 0x9187676d58956675U,
  0x4a5189587f843287U, 0x8b8b596b708828a3U, 0x405c5e3873729c67U, 0x87778b8797935f88U,
  0x6d7b7b5b73b97c42U, 0x4e6d6a72469c3bb7U, 0x785f8f6c738f966eU, 0x897e6d5ca56a8a52U,
  0x5739729d62417380U, 0x3f7971a46dc88b76U, 0x59c45e9293476ca1U, 0x398b4ca1557a596fU,
  0x8575808a99779867U, 0x865a506ec1529153U, 0x80a48aad9f6e70bfU, 0x749f2d7f3d2e6b7cU,
  0x383f7bba9b6d7886U, 0x5d9a27ad80866651U, 0x667d536e7b664172U, 0x7a636b8e5e6f8264U,
  0x839476718585659aU, 0x678985677b79905cU, 0x72696f8185718e64U, 0x867d647b627b8b8cU,
  0x85597d61ac916193U, 0x83478fb2995d6a60U, 0x6d93733d71737c44U, 0x878ac0974d777c66U,
  0x6c8c746b7d90877cU, 0xa2785f6c8d5f7b71U, 0x88895a80866d646fU, 0x606c6b8f4e927845U,
  0x9892567169718471U, 0x8788848d5c6e615aU, 0x677c6b6c7685755cU, 0x8567557052508575U,
  0x856f8d75afae7a7dU, 0x5a8196817763898dU, 0x928d789a82686f84U, 0x6f65727c7c81617bU,
  0x7f83837f8fa28069U, 0x99915c5d818a7f7cU, 0x6382507e5fa35f92U, 0x8a795c965788ad4cU,
  0x73695a7245948b96U, 0x947880877d868864U, 0x869a746670a8825cU, 0x7e7daa7b558c9182U,
  0x767a607c48566372U, 0x9c6753497b9f7c66U, 0x5fa57f8a4e838980U, 0x75868c5979588f7cU,
  0x976453615e5c738dU, 0x5391896b468e8079U, 0x4e8e706d5a99579dU, 0x864e68785956597fU,
  0x8d966b5655528969U, 0x89825a698b6c663eU, 0x9a7458843c644c8bU, 0x4f9c4b9b8b24718fU,
  0x5e75617c788a4f88U, 0x5b548b7a594b6c73U, 0x6e6d484488886273U, 0x553f4b3a596a467aU,
  0x5384476c6db48a72U, 0x828d4d8d757f706eU, 0x667a4aab3d66806fU, 0x71728c529076507aU,
  0x38615f66698a7279U, 0x677d6e8a61766166U, 0x6087848a6d76609dU, 0x687d727b67846f5eU,
  0x506157656d595550U, 0x587262767d6b7865U, 0x4f7f73667786596dU, 0x825a72666d7e5758U,
  0x5f6a746f63747767U, 0x4e714c69925e7c76U, 0x6f6c658a6b646a58U, 0x7e5c686e6e6d637cU,
  0x7d788b5c657c4d83U, 0x7f784b6f6c4c6e59U, 0x8160597f8e6d6767U, 0x7462766e6a4b6b7fU,
  0x64807d9391617b77U, 0x7c576d6f76486d63U, 0x5d5f726190594e97U, 0x81628c6d5e7a6d85U,
  0x8a50753b675f6855U, 0x7b41658f5f3f5743U, 0x7d77835967628c56U, 0x598e84503e575c67U,
  0x41696c9b596d6553U, 0x7695388d5f777b6eU, 0xa1506b4b50484745U, 0x4e4e85647a647850U,
  0x585e582f5a4f695cU, 0x5d6636973d8a7089U, 0x8ea28c64487c7146U, 0x6584428953813b60U,
  0x7173638d91604b76U, 0x75436a767e858357U, 0x726171608e628164U, 0x6c5e6f5488677e59U,
  0x73798a5e50647057U, 0x7584747e63715e8dU, 0x845b5d7f70556572U, 0x5c6e666c7d4d7b74U,
  0x7c6f855760717e69U, 0x6b5b82596f7c724fU, 0x587c746e71614b58U, 0x5f54627878597269U,
  0x585f5c6a7a656383U, 0x88626e6d8582655eU, 0x6f588b8183768262U, 0x7e5b856567875975U,
  0x8773606f894a8672U, 0x616c53766d677b6fU, 0x7f738d5d6c82843dU, 0x7d6b796967628e5eU,
  0x7b66716d916b6868U, 0x494b597860414b6dU, 0x754c8f5475925842U, 0x8774648181506459U,
  0x7f50827a885c5568U, 0x8f77596e778a6e7eU, 0x7340738f407a5456U, 0x65618c477e5d5e4fU,
  0x605d664b7575757dU, 0x6770626f76416c70U, 0x694b7a4e5574637aU, 0x6b6e79965c6e5e86U,
  0x5c60805d5a7a7083U, 0x706c8c7e63686a7fU, 0x71655d5f5c5f6a60U, 0x80607c8247668e6eU,
  0x5e5d7e6b5b6d7a87U, 0x6874484f706c6a59U, 0x6d74916266726b7dU, 0x8e86526e667a5c5cU,
  0x857f595a607e584bU, 0x7a6980766f706084U, 0x80527e7767596272U, 0x5a7f61644d683f71U,
  0x676672437d786b76U, 0x4e6a6f7d5c616685U, 0x5d4c69677c77896bU, 0x80705e5180676969U,
  0x765a7b78936e5a6cU, 0x767f658852588246U, 0x836a647759619266U, 0x8b6c997e89776d94U,
  0x726a9b529a836a62U, 0x85657a8586628472U, 0x726f6462676e6683U, 0x8770686784905c7cU,
  0x8c679c8e6e5d7968U, 0x8092695d8b6b9671U, 0x8b6d918367579360U, 0x5f7d797566798276U,
  0x7c7a77668f635679U, 0x92837b779a665d7aU, 0x6384569151887b54U, 0x9788786669727262U,
  0x8a877d737b806868U, 0x6b835f767c788472U, 0x60537e846c785e7aU, 0x7e6e6e6870844b6bU,
  0x7f78586f678a666eU, 0x775c6e806054676bU, 0x4b695c55534a7770U, 0x688a556467625177U,
  0x5359748747785e7dU, 0x65737089594a6c5fU, 0x5766796a7c746f78U, 0x446b834d7f4d5d72U,
  0x5d874d6560725264U, 0x63655d707a5c735eU, 0x72614e656c6a5a7aU, 0x5d69745d7c576a69U,
  0x5c59966b6770765dU, 0x6a7c64566d646858U, 0x8289704e85847672U, 0x6d6f71687c64676bU,
  0x6b68825d7c7c767cU, 0x586e4b777282725fU, 0x755d7076798b6a60U, 0x796f5e6175576b71U,
  0x815e7c4b8a516b76U, 0x7c53665789606686U, 0x887a836875516b8cU, 0x628875636370617fU,
  0x4d7d64665f5a6894U, 0x774f637e756d7164U, 0x6a5181826a61845aU, 0x5c856c8f797e7761U,
  0x746e6f616a5e6679U, 0x5a8d75846f6c847bU, 0x718172625d6e6f6aU, 0x80788e5a698c5a61U,
  0x907877776d818f94U, 0x715a525f6b99556aU, 0x6976748a7f9e735bU, 0x8f687b744e8d7888U,
  0x4b6c607b69787c7dU, 0x3e6d948c6d696a75U, 0x74566178577c2e84U, 0x8588905265796d49U,
  0x835c8b67738d686aU, 0x655b628e718e6b7bU, 0x6980877f8a73538cU, 0x6b5989599a716266U,
  0x7a5576676a724f52U, 0x626b867f625c5770U, 0x6b625e94837c606fU, 0x796846786e788f62U,
  0x60b8a5584578526bU, 0x79bd2f9c6c656aa2U, 0x4d4f557e9d617f70U, 0x62726a673c517b64U,
  0x6964868579735971U, 0x4c634e957e8d5f94U, 0x88578f7e9c846c8fU, 0x7b5c80797fbb6658U,
  0x612952597c585e6dU, 0x4a915c7398866c51U, 0x86626f885e948bb2U, 0x947e9754767f7c6fU,
  0x83605b4b6b4a5898U, 0x72504ba769ce9799U, 0x57619c4f708f735cU, 0x3e218d4ca775a451U,
  0x6d8797756d784065U, 0x6f4855b35d5c716fU, 0x697b47a644ac7b54U, 0x905e5b92996c4097U,
  0x4453829692609139U, 0x7eaf83327f63a664U, 0x6e9164bb756b374aU, 0x3fa970828ba83b63U,
  0x4fad63824c9c4fa6U, 0x987b9eaa88775583U, 0x856dad6b6e678a8bU, 0x96aab3a25bab7b43U,
  0x1d89252c407683a7U, 0x5fb06584868c7587U, 0x36a0568a6d375f43U, 0x505d977d348b4f90U,
  0x607451747e696974U, 0x718b87786a7c774dU, 0x7465836e73728766U, 0x767e80665e79587bU,
  0x4b5c6d5668627866U, 0x866376866b8f6564U, 0x8368786b756a7348U, 0x53617a69814e6854U,
  0x6c7060618c7c6168U, 0x665d5e7e6f887d6fU, 0x66767f5c745c775dU, 0x5e787173624d717aU,
  0x5e91617b79578a82U, 0x5b5771736e6e4c85U, 0x616e6989826f6988U, 0x716c6c7769647d86U,
  0x805a855b6a837766U, 0x7c636d8476877d78U, 0x7d707570824a836bU, 0x847593797f486851U,
  0x577b7387836b3f74U, 0x627f8276717c7d66U, 0x6e55976974687a63U, 0x7072856d834f7e7cU,
  0x8547775d7c5c5e63U, 0x546a606c7d758361U, 0x83654e7f8a575d68U, 0x805e7a8059678f6eU,
  0x6e72734040756d49U, 0x85687779717b6776U, 0x507a895882758b64U, 0x7c7e6f44756c8876U,
  0x715c77835c706f81U, 0x6070809c6c70668dU, 0x799d3471517f628dU, 0x66975285416f8e5fU,
  0x86776c517e915691U, 0x9f5761838c549c62U, 0x635a9a916a5c867bU, 0x6f7c5b9169897386U,
  0x44746e63597e6963U, 0x559e778c408f398cU, 0x786b6a707567696cU, 0x72535d754c787f4fU,
  0x514b5b9d467a7a5dU, 0x6280896c7d8c6b53U, 0x4062777d63847479U, 0x57785e937c4b7d83U,
  0x875562946c9e7f6bU, 0x485c7b7b66736d83U, 0x7270646f55675055U, 0x5f825b5457863296U,
  0x9661527756555492U, 0x59786d3a6e586a71U, 0x53676d4f841f5d6fU, 0x325f716c528c6e70U,
  0x767c6c776b60679eU, 0x4c657186668b7568U, 0x6f62756d885f2e71U, 0x33593b6e8b4d5760U,
  0x2088446b6d61877aU, 0x8061207f6d958477U, 0x4d674a5a68566965U, 0x23608a73546e8963U,
  0x6b6c4d477e927d64U, 0x5b6d6971595c9352U, 0x7b5e615a5a72777eU, 0x6979876556855f7aU,
  0x53776a7c587f6a93U, 0x7a535a6a633e7666U, 0x85985d5d6349734fU, 0x7d7c536e885f6f31U,
  0x806d55756166547fU, 0x3f8c65a162347c78U, 0x46705b606d74606dU, 0x6a45745c53496c62U,
  0x6e5f625b6d62565eU, 0x652e502d656b5068U, 0x5a7b435e7e978154U, 0x7f8946a066645360U,
  0x717a3883496a8a5cU, 0x6f7c806461675285U, 0x717b80675d5c7c63U, 0x8b446f49827b8f71U,
  0x9a48734a7697756eU, 0x96554e8996647b5fU, 0x78747279658c6184U, 0x57906b7253737488U,
  0x474886868458835eU, 0x854a416073616162U, 0x85818d588a526f4aU, 0x674f514e3673574dU,
  0x5b6c8a406d6f4d6eU, 0x5f587c767385606fU, 0x5b6b847f86625543U, 0x80677f61675e6560U,
  0x855f8693477a7e3eU, 0x4674716b7d6c5c5cU, 0x7f7f616a76757271U, 0x4c71737b7381706cU,
  0x73895f73557b6579U, 0x5e6c707d7e7d5070U, 0x6963776d78846c56U, 0x7f6c6e808e7f6c6aU,
  0x797a5e82607f7771U, 0x697358677e666d97U, 0x7a76667e6472535eU, 0x793b6e6250846a72U,
  0x5278727076847775U, 0x62667f72666d5c6dU, 0x6c90715b6e50787eU, 0x67727d656971686fU,
  0x6b55717064857884U, 0x7f8a687253786d7fU, 0x6138726d7f696a6eU, 0x7475989577805b6aU,
  0x74566f9f6c638086U, 0x7171639f5c94825fU, 0x9884808d8f7e6a7aU, 0x7f859c6690596f5fU,
  0x839767577e6fa07fU, 0x5ea365ac81756243U, 0x568a926b71963a62U, 0x55b26f89706569aaU,
  0x7591928c97724395U, 0x797aa7768c517870U, 0x73a6ba8189bd8661U, 0x3d6758428178839aU,
  0x7dc185847f797a93U, 0x41a0678e775c5e4fU, 0x54586679627e6e9cU, 0x80717a6e75636162U,
  0x8873786d6b9d7674U, 0x866c6f7390697b77U, 0x6971825a865f4a62U, 0x5f81556866768456U,
  0x7d878e7c786f8f81U, 0x90939f6f6b6a6b47U, 0x68697f5a85517a44U, 0x8f86645a817a7f92U,
  0x5d7d6e688a5c8178U, 0x5e7b7878725b6e7cU, 0x707b966e66598286U, 0x6b6e5d88697a7899U,
  0x5d6c52677560567dU, 0x7d87727c736e9690U, 0x736a966a8b748882U, 0x646d615b77817181U,
  0x6f833d3d3d544064U, 0x5d2b757929728492U, 0x6d6660596163707bU, 0x66465a467285623fU,
  0x59557b2248615874U, 0x587e4a6f76773e6dU, 0x557b61517b6f2952U, 0x797778677969566dU,
  0x67546e6b374e415fU, 0x497477603f5a3f5cU, 0x56668031638c4373U, 0x267e627a635c3368U,
  0x5643615b6754894fU, 0x98614d4077573e57U, 0x595568678a4c215fU, 0x5276627c646e7249U,
  0x6b6365697b5c7070U, 0x83867275787e717aU, 0x77705f53777f7665U, 0x736b6e6a686a7477U,
  0x8b7a6476606b836dU, 0x7e746a6b72818e8aU, 0x91567a9b875f5f80U, 0x70867a5483548074U,
  0x797d8f7a62686a67U, 0x87907156766e5e5bU, 0x7e7a7b8582768056U, 0x7977698890735b71U,
  0x6d6456867692744fU, 0x779661806f57614bU, 0x6079687f5e696d7bU, 0x6c73695f62668f58U,
  0x787c5e616d6b597eU, 0x6c6378778f767581U, 0x5877807565789979U, 0x7d8375717a63877eU,
  0x7f815f866b857578U, 0x5a63618176847065U, 0x91916e6c7c734d7dU, 0x3f745f7645824680U,
  0x7868876a68689154U, 0x6f6161756f7d7f6eU, 0x73585e8863776867U, 0x868a69656c6f7c65U,
  0x845c92865b80615eU, 0x715f74706d5c6884U, 0x7e7c6866796a886aU, 0x837d7877707d7771U,
  0x937270617e666275U, 0x5f948e637e996b80U, 0x87698da05e697e63U, 0x8e6861805a7e4762U,
  0x846f817c466d8a8bU, 0x6f6c97828c5c6a52U, 0x90565e518c56786cU, 0x8e5a787574a27a6dU,
  0x567e5c7873586091U, 0x727951898d813e70U, 0x6a4a6a69606a7e97U, 0x6e6c955e7f74905cU,
  0x4d564c715e826369U, 0x6c78747d937573a0U, 0x7a5c7b77686f6479U, 0x7c726a7f6b8d738eU,
  0x6e91685f6f85887eU, 0x42635c4f685c7560U, 0x5f897f5e626a4a6eU, 0x60826190565a6a6eU,
  0x648a895166577379U, 0x4974595c82595763U, 0x7a58646572508161U, 0x6d8568636a605f74U,
  0x766f648b7a6c5850U, 0x676e5e686c7b7576U, 0x6282606764656757U, 0x7f58647652946751U,
  0x5b7f49755e7b5c68U, 0x755b65735c756789U, 0x7e734b7d5f636064U, 0x7d676c6971734f6cU,
  0x6c69756f65526377U, 0x4d626258646f7a7bU, 0x62537f675a435c65U, 0x826b5c56824a6e72U,
  0x5a6b6274796a7d50U, 0x637870716a806a81U, 0x7f6c667c5d6a5b59U, 0x7559805b65597b4eU,
  0x6e5d925b695c6955U, 0x717f6f5d65845d60U, 0x7278607a6d67626dU, 0x6068796c5361575eU,
  0x72677b6f5f81754cU, 0x4d5770657b6a7a61U, 0x696a53585e555e7cU, 0x7a7a774d6d7d645eU,
  0x72705e71627c7249U, 0x5952726b7c5f7473U, 0x494d544e4e697480U, 0x636833716a61736dU,
  0x6d664a766e87644eU, 0x595e69797b5e5062U, 0x9133406753765958U, 0x5973746260675966U,
  0x74566161475f5c74U, 0x7b6f8370767e517fU, 0x77504d6c51717766U, 0x5b635e5f46646960U,
  0x765764716753527fU, 0x576a617537785b67U, 0x6c696e577c4f3472U, 0x58627c675e7a6259U,
  0x5b607162336d785dU, 0x66706d7362476a54U, 0x645d66ab7a8fa23dU, 0x4699a5687553363aU,
  0x419559614e6fa672U, 0x44474e845d86677bU, 0x6144914685224a95U, 0xa46d603083a15c46U,
  0x4a793891a4534056U, 0x67235a98a15e4987U, 0x678e508256a83d7fU, 0x1e1b6c7e36853d6cU,
  0x76667d5061246035U, 0x35535a4e8d574a4dU, 0x96a570655213414aU, 0x81603d6d3da53d8cU,
  0x37519daa896f3c8fU, 0x6c8f439d42994e93U, 0x626a6c7b708fa24fU, 0x5c784a4c586a6f62U,
  0x64556f7263807c57U, 0x7255636177715d7fU, 0x796b5c5982738f5cU, 0x6e56707158646d6fU,
  0x5c58588b526b6158U, 0x798066615290656fU, 0x748267848746628bU, 0x646f6b6f6c565f59U,
  0x6f8987764e6d4d61U, 0x536f596277666e6bU, 0x6878767a6a605b81U, 0x5b6270597c706b57U,
  0x706a6b668f5d655eU, 0x6d566f82746a5378U, 0x56756d585b68674cU, 0x7a516442444f6b4bU,
  0x6c2ec06d6459785bU, 0x6f48a155ae734f71U, 0x518a8c9a454f6c49U, 0x2978615a5d7f4065U,
  0xad6e5946849b547bU, 0x6d46b35162455b29U, 0x98866a6696458544U, 0x931e7b56814aa96bU,
  0x484c676a59636e60U, 0x54b8852d60477a9dU, 0xa8af7e219b657071U, 0x5454408144448a7eU,
  0x997d5940646a6458U, 0xa7717e317773584dU, 0x5d7f683e565a544bU, 0x51826c5e78806660U,
  0x9f69968955416875U, 0x755c85596e74582cU, 0x35627e468463642dU, 0x5c78696b4c6b6b6cU,
  0x7b653774a95c6178U, 0x5d608b6d87497e7dU, 0x3c72838d78656348U, 0x80786b54905c8a6bU,
  0x457d535760504f55U, 0x8449876d3b726e60U, 0x5c656e7e6e4d6064U, 0xa371675f394d4569U,
  0x7f75724f8154746fU, 0x5e7c4f748338a581U, 0x6c36777a623c8b3dU, 0x636f576c837f787eU,
  0xac896188615f9186U, 0x58a281657195849cU, 0x657f844e767182a7U, 0x5b6c4b6171505854U,
  0xa49d6e77547b6c81U, 0x7b8a6a8a60828369U, 0x82738c7067856687U, 0x877f69a38555765aU,
  0x716381768671875bU, 0x7d649795506d695cU, 0x6a94517e78a36787U, 0x7458775e626f7e7aU,
  0x6164505665a0807fU, 0x65ae85cd9b847056U, 0x9b7b5c9665646c70U, 0x546f9774964e6977U,
  0x576b417883697776U, 0x3148ad6c88773734U, 0x503b734ca1508d94U, 0x7c5c4e4f613b826bU,
  0x494337774a604f57U, 0x797c60674189b334U, 0x705b3d5881846852U, 0xa5792c6d75b7565cU,
  0x4e4a555e6f5c774cU, 0x6c3b2d744b528141U, 0x598f5e604d754b80U, 0x2d512851507a8049U,
  0x6e60af6749512256U, 0xc87b504861407845U, 0x984332797a66823bU, 0x5d7d582e6573814aU,
  0x9c785a696b826376U, 0x6acebe644f8c6962U, 0x72bb3c9c8a636e9aU, 0x4c5c6bafa456616eU,
  0x5473767f385d6b6eU, 0x6c72b99f747c5063U, 0x537773a1519159a5U, 0x83769e8a94846682U,
  0x8461739176c5844eU, 0x6f3f7d6da0656084U, 0x5c8d7f5eb1af5e5dU, 0x7d6c5694398086bcU,
  0x887771626b84746eU, 0x755c836c7a3e5bacU, 0x63586eae8acbba96U, 0x5c61b97c6aa16c59U,
  0x7676636b9b7f9e54U, 0x8275597269637160U, 0x777071776d617b5dU, 0x81545b6870736578U,
  0x6975645f695d7267U, 0x78827c5c6b725e71U, 0x61825a616d6f6e6bU, 0x41674d697e737580U,
  0x7c73794e4a717079U, 0x65726c835d56638bU, 0x4e786b6a66636d66U, 0x6a8767526e67687eU,
  0x5561836883717961U, 0x6a5970558465646cU, 0x718e7d76634a6b6dU, 0x6c82807c645a7d6cU,
  0x746d665d58706a7cU, 0x7274646a56756279U, 0x3b64408368866c80U, 0x426c67868164557fU,
  0x7f4c7d6b597b7976U, 0x6c59736381727b69U, 0x797c74706d807c67U, 0x60987b704f7b5b64U,
  0x5b616354586f686aU, 0x7f83806e436d787dU, 0x705d742b62325e7fU, 0x6f75447a7361786eU,
  0x776d647866696b6aU, 0x78637c94706a5966U, 0x678162565a6c7c66U, 0x5b76683472775990U,
  0x7e686d8a6b5b5258U, 0x785a8478637d6a77U, 0xbf9962418d6e48b2U, 0xc730a9715564b463U,
  0x59629d8b4f548188U, 0x816d5b2c7077554aU, 0x61b4a65b785b8169U, 0x7e56bc51956e9b51U,
  0x68a8829d96626c50U, 0x43778570c57e3e6eU, 0x2d7b697a42637b74U, 0x8e7a71b1a2707383U,
  0x745d81316a8acd54U, 0x637a5f787c7e6174U, 0x5f656161425bac92U, 0x5552d064dda4a576U,
  0x619d7159987f4b5cU, 0x508552936aaa5940U, 0x64634f626a48645cU, 0x68607f6a62677c64U,
  0x746a7b658a725969U, 0x68717a874c764d5fU, 0x5559734a5f726341U, 0x8e665c5e79716486U,
  0x564f935f63515060U, 0x80805f5381547b63U, 0x7943636d715d8d53U, 0x69546f465d496554U,
  0x5370675945536b74U, 0x8c5c813f844d5d58U, 0x705470706b5c755aU, 0x529d6f6069534f51U,
  0x6d877656605d656dU, 0x5b6954696a555f53U, 0x6c5f827069787670U, 0x77a2779587775450U,
  0x687d7e718292798aU, 0x887b61994876718cU, 0x45597d6d56595866U, 0x449d556f94794c5dU,
  0x987f746b60847d6fU, 0x3c7b6b855f57687cU, 0x867d5680718a7d90U, 0x527c95448f7963a6U,
  0x5f8a42706e5c5974U, 0x7d714a7878877c90U, 0x845c8866527a6b74U, 0x577e433f845d7b6bU,
  0x6f60836764828587U, 0x7c7760628180884eU, 0x50625e7a79869168U, 0x8f8a856763907f67U,
  0x856c5f89737d5786U, 0x6272708b7a6e698dU, 0x816c7c5b765b6b81U, 0x7985787b6b5d7b69U,
  0x586a6e697d7c5c62U, 0x6f778c6881987659U, 0x64587b8465587561U, 0x86516f827d7a7d67U,
  0x7d6074815f696149U, 0x6457846c6874566eU, 0x6f6e71767b887672U, 0x72627762777c768bU,
  0x5c877d936167725aU, 0x775370717e7d665aU, 0x77797c747c76797aU, 0x4d3f315d6774626cU,
  0xba95b7358774753U, 0x2bac788c4b2e6571U, 0x6180974d5a685a68U, 0x426c51617b274c46U,
  0x7851486091444c0dU, 0x889e1c63617e3d87U, 0x5486927f7b7d7a56U, 0x2536289360886183U,
  0x45906e746a647f79U, 0x9791437c46639256U, 0x82711d7a3f52875aU, 0x665a4e5b097a8d9eU,
  0x6a632e834c5e6089U, 0x4681325c90725a7eU, 0x7c6a6c6d444171aaU, 0x5e677e3c4c7e635eU,
  0x766c79a49862578fU, 0x70847b6f748a7862U, 0x9e5cac6c7863793dU, 0x466d75758c6b7669U,
  0xa883637f8681646eU, 0xa1565d508274575cU, 0x86547a6b984a85b7U, 0x5d4f6d616990794bU,
  0x66796c578f72b78dU, 0x93627573767f6f62U, 0x89604867b97d6f80U, 0x4c9e8a556770778fU,
  0x795e5d476b636b73U, 0x6a6a6062889d7978U, 0x92778b64756e6e91U, 0x807c7c86747c7662U,
  0x8373687e8564755bU, 0x7a6d806579517673U, 0x80758c63777c6c76U, 0x797d757e688b7787U,
  0x6a946f6b77727f79U, 0x6a657c7d7868717dU, 0x67737169816c795cU, 0x6862747364616877U,
  0x6a76797483778069U, 0x7076876e717a607aU, 0x5d6f785a8b637e72U, 0x5a7c6e76756e746dU,
  0x67717881827e9161U, 0x856596847c646161U, 0x6a60776580775b84U, 0x65746b837c767887U,
  0xbe802c14bd3c6e7bU, 0xbe7f265dbe7e3980U, 0x3d0e11cbbefa6afaU, 0xbea78bbcbd68e20dU,
  0xbe368176bdf9054eU, 0x3d8f3f4fbd63c3aeU, 0x3d7f804abe0bd21bU, 0xbddc9db13ce6821bU,
  0xbe49f890bd5376d2U, 0xbe59e762be9ac717U, 0xbe2ef08fbd8395a0U, 0x3cd43740be36ab19U,
  0xbe581722be3773a7U, 0xbe00a254bdba3f25U, 0xbdfab44fbe23e591U, 0x3d1b7e3bbe965d50U,
  0x3daee9b4be444678U, 0x3db236e33da48c08U, 0xbe32af96bdc371caU, 0xbd922df33ce1e256U,
  0xbe1af360be392504U, 0xbdb8bbf6be8f0519U, 0xbe0e6e0cbe4c1285U, 0x3c93520ebe13fa16U,
  0xbe54c663bea20817U, 0xbdf16787bde7f88cU, 0xbe45462fbe88155cU, 0xbe76cf2abe664719U,
  0xbe80981abcce96ebU, 0xbe622ce0be1acb48U, 0x3d9b7cadbd994a7eU, 0xbcaf91b2be844312U,
  0xbf565f68bf57944eU, 0xbf53f59dbf552a83U, 0xbf518bd2bf52c0b7U, 0xbf4f2207bf5056ecU,
  0xbf4cb83bbf4ded21U, 0xbf4a4e70bf4b8356U, 0xbf47e4a5bf49198aU, 0xbf457ad9bf46afbfU,
  0xbf43110ebf4445f4U, 0xbf40a743bf41dc29U, 0xbf3e3d78bf3f725dU, 0xbf3bd3acbf3d0892U,
  0xbf3969e1bf3a9ec7U, 0xbf370016bf3834fbU, 0xbf343f36bf35cb30U, 0xbf322c7fbf333b8fU,
  0xbf2fc2b4bf30f79aU, 0xbf2d58e9bf2e8dceU, 0xbf2aef1dbf2c2403U, 0xbf288552bf29ba38U,
  0xbf258cabbf27506dU, 0xbf23b1bcbf24e6a1U, 0xbf2147f0bf227cd6U, 0xbf1ede25bf20130bU,
  0xbf1c745abf1da940U, 0xbf1a0a8fbf1b3f74U, 0xbf17a0c3bf18d5a9U, 0xbf1536f8bf166bdeU,
  0xbf12cd2dbf140212U, 0xbf106362bf119847U, 0xbf0df996bf0f2e7cU, 0xbf0b8fcbbf0cb6a7U,
  0xbf08dc7ebf0a5ae5U, 0xbf06bc34bf07bd28U, 0xbf045269bf050d68U, 0xbf01e89ebf02c373U,
  0xbefe902dbf00b3b8U, 0xbefac330befc93daU, 0xbef55678bef7c043U, 0xbef082e2bef2ecadU,
  0xbeebaf4bbeee1916U, 0xbee6d418bee98f20U, 0xbee17116bee3febbU, 0xbedd3487bedf9e53U,
  0xbed97a06bedacabcU, 0xbed4b9c1bed5f726U, 0xbece3b18becfc7b7U, 0xbeca1a55becca116U,
  0xbec50eb8bec81a32U, 0xbec0a3f2bec2ef60U, 0xbeba9f29bebd9009U, 0xbeb640a2beba2a7eU,
  0xbeb129b4beb44fd0U, 0xbeac1e2ebeaf5a71U, 0xbea88e59beab1bf3U, 0xbea33b16bea5bbcaU,
  0xbe9ed8fbbea21bf5U, 0xbe9ad8ddbe9c6451U, 0xbe93f4e5be96d84cU, 0xbe8ff6a7be91a3cbU,
  0xbe8ad099be8d6cf3U, 0xbe866af2be88bdbdU, 0xbe817d72be83e0e8U, 0xbe7b1b8abe7da81eU,
  0xbe704b54be75c530U, 0xbe678983be6c2ef2U, 0xbe5b97bbbe61f8c6U, 0xbe50ee61be55d2d3U,
  0xbe493155be4d8937U, 0xbe3deddbbe434c08U, 0xbe354c58be38b13aU, 0xbe2bf37cbe30be2eU,
  0xbe22cb57be26c86cU, 0xbe196531be1e8ef1U, 0xbe0f14c0be13d658U, 0xbe04a36abe097ff6U,
  0xbdf9520abe003a3dU, 0xbde10287bdec1940U, 0xbdd0b5b9bdd9ba0eU, 0xbdbe5016bdc862d1U,
  0xbdabad2dbdb5678aU, 0xbd9562edbda071f8U, 0xbd81e070bd8a6c01U, 0xbd5ed359bd716685U,
  0xbd3cb43dbd4ea631U, 0xbd12caacbd26d132U, 0xbcd28b0abcf87cc3U, 0xbc886491bcab376fU,
  0xbbf843fbbc46e59eU, 0x3adfd512bb62266aU, 0x3c2b9d6c3bca24fcU, 0x3ca4539a3c82fb76U,
  0x3cf3dd4b3ccbf2f5U, 0x3d21e24c3d0df036U, 0x3d45cc093d31f2e4U, 0x3d6d787b3d57f43dU,
  0x3d89d3dc3d813d8aU, 0x3d9d0e303d93d473U, 0x3dafc0803da5c13aU, 0x3dc30c0f3db9e48cU,
  0x3dd582953dcca1fbU, 0x3deb0d3f3ddf90b4U, 0x3e0113bc3df7f141U, 0x3e09b1bf3e05adb5U,
  0x3e13759d3e0e58d1U, 0x3e1cd6293e188c5cU, 0x3e2605cb3e201e5bU, 0x3e3143b83e2a2a86U,
  0x3e39ab933e35496bU, 0x3e40d44b3e3c04f1U, 0x3e4e314b3e46370cU, 0x3e55feeb3e5254abU,
  0x3e5fc4823e5b0a43U, 0x3e6863333e63b6afU, 0x3e7396e43e6d6540U, 0x3e7c9b9f3e7796c9U,
  0x3e8321663e80c3ecU, 0x3e88b6ba3e858b31U, 0x3e8cc8933e8a5ec8U, 0x3e9285173e8f54f1U,
  0x3e966fc03e9405f5U, 0x3e9b43573e98d98bU, 0x3ea016ed3e9e1cd3U, 0x3ea5eae03ea280b9U,
  0x3ea9be1a3ea7544fU, 0x3eae91b13eac27e6U, 0x3eb365473eb0fb7cU, 0x3eb838de3eb5cf13U,
  0xadccae8bbf9fb6beU, 0xb3adba82bcada7bfU, 0xb5a3b3b8ccbcaaa2U, 0x79bdbdb0aeb29ca0U,
  0x99af9fb7ababbaacU, 0xa8c1a1a6b8c5ccc6U, 0xaeb5cdada6bab78bU, 0x9ccabdc5bfd3adceU,
  0xc7d1beabacc2ebc0U, 0xcb8eb7c4d2b29d9bU, 0xc5e0afc6bab68ba7U, 0xacc5b7babfa3c7b8U,
  0xbbb688a3c3b3c1a2U, 0xb6a3a8c7c9b184b5U, 0xbfbbcdb8b0abbec5U, 0xb9b0b5bca0a8c59fU,
  0xa99da491b682b8b9U, 0xcbbb6d009978b67cU, 0xcae4acb3a7bea983U, 0xbcabb0b7a5d0c9c9U,
  0xb2ac89b690c2b4d5U, 0x8fccba8e95c454a4U, 0x97c977a89caab0baU, 0xb9aba1a05d9cca49U,
  0xd0c8a8bf1ebdc1b2U, 0x7bbf88bf9daf92cbU, 0xb88cd1b997c2bd83U, 0xd9cb7eb3bac86eafU,
  0xadb6c4a4a7b8b1c7U, 0xc0aaabb4bfafcbceU, 0xa0b0a0afab8cacccU, 0xbd91c384a4aaaeb6U,
  0xaf8eb998a7c9b8b9U, 0x76a996bb9575aec8U, 0xd4c27776e487b1b2U, 0x9ab386cf9ecbc555U,
  0xa581b178ab7eab98U, 0xbebfa97ca7b1ada3U, 0xc7b1caab7f95b0b3U, 0xaa8ebf75e3d5c19eU,
  0x9bc2aeaaaeb4cfafU, 0x96adccc6b6bcbdc9U, 0xb0f4d49f897da483U, 0xbcafa28499bab3b1U,
  0xbac6c1c5adaf91d6U, 0xb4c89261a897bfb0U, 0x9cc1a394c4d5b89bU, 0xd8d3bed27697d2c2U,
  0x9f8978d0b3b5bec0U, 0xbab180cbaeb4cf8bU, 0xae9275c8958d93cbU, 0xaf93acb7adbfcb9eU,
  0x8dba8c9389adb8afU, 0xaa939891b17bca70U, 0xbda6ccbcb7788ea4U, 0xa2a3a7aec4a397c3U,
  0xaab1d59ab149d8b8U, 0xbbbd81d6a9a094afU, 0xb8c4bf95ae7bb98fU, 0x9cb699aeb193a6b3U,
  0x9adab1cfa2a7a5a3U, 0xbebfa59da6c2afb0U, 0xb399b39db4a4c7cbU, 0xb7dbb4b5acc0b59bU,
  0xa9a5c2a4b193c09fU, 0xbac0b0c3c0c9a9d4U, 0xacd0a9c3baa4b3c0U, 0xabb1c68bb687adc0U,
  0xaea9b0b4bac7bfb9U, 0xb893cac29eb2bfcfU, 0xb1afb7b1c9baa4ceU, 0x9ebac5adb5c5b2abU,
  0xb2a499a6a9b7bec0U, 0xd9b09fa5caafaea9U, 0xc1afa6aeb4a1a4b5U, 0xa8cfb8abb3bebcaaU,
  0x9abc76cdd68a42a9U, 0x9bd0b2bd969d9ea7U, 0xc4acacbeaeaab2b9U, 0xa38aaaafbbb6b7b0U,
  0xaab9a9b0dbbeb3a0U, 0xa0bf6ee0bb81d2b3U, 0x9caaa7bdb1cba88dU, 0xd8c3c2afc296e067U,
  0xd2d3a868a8c1b6c4U, 0xcf739da2c1c2ac97U, 0xb7bda1bfc693d7caU, 0xc0c3b3e0b6b3bab4U,
  0xbeccc2abb0b37d9bU, 0x96b6baaf9ac1b1d4U, 0xdcacbdce71c88376U, 0xb7b1c5d578d1c3b2U,
  0xa1a0afc7a5c8a197U, 0x9491b7948fbcb4a1U, 0xe0b988a69dc699c7U, 0xccc8b7d0cf8ccbb3U,
  0xb393ab917f9db3a0U, 0xb6b7ac94c6b5beb2U, 0xba96d3a2a1a3c2a0U, 0x9c99aec4b1beb1c0U,
  0x809e84c698afb0b5U, 0xc0aa8eb6c38ebb83U, 0xa19054d4afb9c060U, 0x9f8ab99ec69e87b4U,
  0xbcbac0953ea5ab99U, 0xa2c1b4b082babcccU, 0xe497bfb1d4c6a77cU, 0x80b7b3c3a69acdb4U,
  0xa4aeefa3af9ab1abU, 0xbddbb4c181b992c5U, 0xbfa4dac45bb3cd79U, 0xa5b89abb949aa178U,
  0xd2759374c2a5ccbcU, 0xc065acc89cbbaeb3U, 0x7cc3ced1b6b7a0d1U, 0xd2ca8fcabdac9dc9U,
  0xb4a9cdb8c7c6d2b8U, 0xa85cc9768897afd6U, 0xaabfacbdc19dd1a3U, 0xb0caa597c9bbc5c5U,
  0x96bcbfaccaadb6caU, 0x9eca8da398b3cb67U, 0xb2a0ac9ad6b6be96U, 0xcb8cc0baabc5bc9aU,
  0x9ba4a5ae53adb37bU, 0x44baabafd29cb29fU, 0x96a7928eaa9da0b1U, 0xa0cc84babc49c482U,
  0xbeb3a5a9b19d9f92U, 0x5f64b7b9d39ab8acU, 0xb2bdb1cba29bafa7U, 0xa3afbba4d6aaaba2U,
  0xc0a992c1c08da4a9U, 0x95afd7b4a8a1a2ccU, 0xb059cdb3c153b295U, 0x9dba68869892c3b0U,
  0x9cb2bc85b7bb728dU, 0x86d8bba9aeba99adU, 0x7dd07d8f8491abbaU, 0xb7b19d9fbbcea19fU,
  0xb5c5bdd0a15ea17cU, 0xcfd08bc5a5c0c8ccU, 0xa08e9ba59692b1b9U, 0xa8be94aac2a89e99U,
  0xa9bea2abcbb4ac9eU, 0xbabcd8bbcdbebea9U, 0xa49fbaa6ab97a5a6U, 0xae99a197c89a9aacU,
  0xa9a1a4cdb5a2d4c4U, 0x9699a2a2bca9ab9aU, 0x979bddad9d8e9aaaU, 0xc0a5b991b7d5c1cfU,
  0xb97bbbb1b2d1a3c3U, 0xaaa9a0ba9d89a484U, 0xbda5d2c894b1c7b5U, 0xb1a5c0bf84a1a0c1U,
  0xab8dacb99e9aa5b6U, 0xc3b6aeb9c2c493a4U, 0x9b82ae8db09594a2U, 0xbfb08b9795a0deb8U,
  0xbfa6abbabc96ae99U, 0xb8b9f7a7a4b0ffa7U, 0x8f9dc0c4acc8b1e6U, 0xc0d6e5b3c4d0c7b8U,
  0xc4cf90bab5b8b0a3U, 0x869d94e3b6bee3a4U, 0x84b0aca5b386abb0U, 0xa55ca7b9c1c993c5U,
  0xb789a99f6b64b364U, 0xa1b2d6bdbcb386c9U, 0x9ea0ceb5caadaad6U, 0x989a99bbbac39ec3U,
  0xc7a471bdcfcfabc0U, 0xba96b5b970b8938fU, 0xa382a6aabfa08da5U, 0xbabcabcac39669c2U,
  0x9accb1a9877784b9U, 0xd5acc9a84b9cab90U, 0x8cac619fb08ea263U, 0xa562d28ba28ea2b2U,
  0xb47992b2c29ea582U, 0x75c1c1cd88bfbeb1U, 0xb79dafb79adac5cfU, 0xa2a2b7a4ba86d3bfU,
  0x9282b59fb0acb3deU, 0x96ac9c9cd1a7528cU, 0xabb0c89cb1cdb2b0U, 0x7fbabac4b4c5a3c2U,
  0x8ec98080bdbe7fb5U, 0xab9794aa75b7be84U, 0x4182ca9cbda175d9U, 0x9194caa6a499b095U,
  0x9c9dabc9a3d0a6b2U, 0x75a1b1911daeb094U, 0xaa969ab2c48cb7caU, 0x9db9cacbd1c9b7a5U,
  0x92b0bbb5bab7b5c3U, 0xba818eaaacb4ac76U, 0x3ea2b98f9fb6afadU, 0x8fe1c8c2d88ac89bU,
  0xae8bc8b29561c7a1U, 0x8160c8b3c7b2bea5U, 0xb5ad90a4a582a39bU, 0xa5b3cfb0b7c3a4a2U,
  0xa3ccb6bdd4aacac9U, 0xabc0b8c8778b90bfU, 0x8eb6a4a5c49d66c1U, 0xa6c56c9bb66fcca6U,
  0xbacf46a2c8aeb498U, 0xb3adac97b9cd9ab6U, 0x89a87ea4b1b184c9U, 0xb1a1b9bcb4b2aab5U,
  0xb3a39aad85a7739cU, 0xa29bc5b5a69ea4c6U, 0xc1ada9a2bd9cccc3U, 0xada691af7ec8aa90U,
  0xa78fa2bac4a2b5d1U, 0xa7c7c2b6b9b8b79dU, 0xb2cdc4cbbeb288acU, 0xa5bbb7b7baacbfb7U,
  0xcda0dcb4beccb493U, 0xd097af8fa8a6afa4U, 0xafa19aaec4c9b3bdU, 0xccd6c3ccbfb7c7c6U,
  0x74afa16ebda9cbccU, 0xde9dbaa1adc0afc4U, 0xa0bb67a5299471b3U, 0x9b55b49ac4a6b990U,
  0xafb9b8b6b0d8cba8U, 0x89b9a5c8b0bacb8aU, 0xaf8da0bd62a39fd5U, 0xb3b08c96969ca7acU,
  0x678573b9acafab91U, 0xc8a19eabb86fa1a3U, 0xb0b9a59697bde89fU, 0xa9b2d4c9abadb2b4U,
  0xadbfbab7ba9fbba9U, 0xb6d099cab5b9adadU, 0xb79596acadafbfcbU, 0xbaa8bac6b4a9afc2U,
  0xc0aea9ba909fa3a0U, 0x8fb4b0a7c1aebdc4U, 0xa5c1afac97a491bfU, 0x99b4b9a3a6bea9c4U,
  0xbbc7be94a27dc1b8U, 0xa1b1a8be95aeabb1U, 0x9d8da69ec8b1a9b5U, 0xbfb1afb19ab3b2bbU,
  0xaa9ba7bab7b5a9a5U, 0x96c0b994b9b7a4b5U, 0xc39cbcbcb0c0a2c2U, 0x9b547b9b94c2baa3U,
  0xa271babb679bc5b2U, 0xcbe4849371e5b2acU, 0x69cde1b1dda5c6b3U, 0xace4b5c1c69e72b2U,
  0xd1828e9be48a61abU, 0xc6a7c5b7b6a2b7cfU, 0xc28ca8bc94868aa2U, 0xc9d2c6d4eeb298a8U,
  0xc4a7b6c0abc7ada9U, 0xd69dccbcc9d282d7U, 0xadc88abf8ebad1ccU, 0xc6af9c8fc0abc3b1U,
  0xba9fb582aad6bd99U, 0xb0c8a39da39bb4c0U, 0xc3b4cea8ada6bee2U, 0xafce9ec9b99cb198U,
  0xbe671f573da10a59U, 0xbd9ebadcbe318bf4U, 0x3c1af0f2be2528b1U, 0xbd0bd1fc3da17b76U,
  0xbe301b9f3d8f2772U, 0xbe0657b4be43602dU, 0x3d8e380a3b054ad6U, 0xbea21b0d3e211821U,
  0x3c79798ebe1bf0edU, 0x3d8eaa193e091842U, 0x3c82eda2be0eb5b6U, 0xbdc652cd3ca1826aU,
  0xbda3a935bdebc503U, 0xbdaac9e6bdae27d7U, 0xbe35e75abde91a78U, 0xbd6fd5db3dbc3c78U,
  0xbc404f7b3c6eeab6U, 0x3d5729b73ccbd74cU, 0xbdbfe7df3cf820dbU, 0xbc89a7113d9168bbU,
  0xbb89d58cbad2ac56U, 0x3ca68bdbbd792aecU, 0x3cf36839be3f70b7U, 0xbda358f83c8f99a3U,
  0x3bf637973bf2ac22U, 0x3d19fe4bbd5d879aU, 0xbd99c3db3d5687a0U, 0x3d3033eb3db53bbbU,
  0xbb6438c2bad7feedU, 0x3be75968bcbf2e34U, 0x3b7748b2bab8fdf8U, 0xbdc519c5be0bd4f3U,
  0x3d48bd87bc9091c5U, 0xbaf6eafb3b15e557U, 0xbd2cf397bd9a4484U, 0xbd70f1693d618881U,
  0xbb3d99f33b3ef010U, 0xbd2e73adbb8e6267U, 0x3d9226a1bca69ddfU, 0x3e2de89e3c3d294cU,
  0x3da25bbe3d59d9eeU, 0xbde552a5bb2c07aeU, 0x3e5479733e0ff2dbU, 0xbcf26539be275a95U,
  0xbdd04668bd99bffbU, 0x3d9a2705bc8f0cf8U, 0xbaaba01b3e6eeeb0U, 0xbdbe9f1dbb256eedU,
  0x3d44faa23d4fd936U,
};


ai_handle g_network_weights_table[1 + 2] = {
  AI_HANDLE_PTR(AI_MAGIC_MARKER),
  AI_HANDLE_PTR(s_network_weights_array_u64),
  AI_HANDLE_PTR(AI_MAGIC_MARKER),
};

