/**
  ******************************************************************************
  * @file    network_data_params.c
  * @author  AST Embedded Analytics Research Platform
  * @date    Tue Jan 16 03:07:20 2024
  * @brief   AI Tool Automatic Code Generator for Embedded NN computing
  ******************************************************************************
  * Copyright (c) 2024 STMicroelectronics.
  * All rights reserved.
  *
  * This software is licensed under terms that can be found in the LICENSE file
  * in the root directory of this software component.
  * If no LICENSE file comes with this software, it is provided AS-IS.
  ******************************************************************************
  */

#include "network_data_params.h"


/**  Activations Section  ****************************************************/
ai_handle g_network_activations_table[1 + 2] = {
  AI_HANDLE_PTR(AI_MAGIC_MARKER),
  AI_HANDLE_PTR(NULL),
  AI_HANDLE_PTR(AI_MAGIC_MARKER),
};




/**  Weights Section  ********************************************************/
AI_ALIGNED(32)
const ai_u64 s_network_weights_array_u64[5605] = {
  0xbfe65cd6U, 0x3f285cf03ee99ba9U, 0x3d034fd93e3fc5b8U, 0xbc8426823f193d36U,
  0xbe7c39ce3edd896dU, 0xbefb3fc13e1dfa34U, 0x3f1156e93e6bbfcfU, 0x3ea7d293bf012731U,
  0x3ebe6bdb3e897a96U, 0x3e8e9bd2bdd8bfd5U, 0x3e783d6dbe55cfd0U, 0xbe84a8fa3da93d1bU,
  0xbf009b573e7ec612U, 0xbd530f513e6b987cU, 0xbef6c07d3ebda956U, 0xbe111f7dbe1ca76eU,
  0x3de6f053bede68d9U, 0x3f42768fbf13b2e7U, 0x3f7c8392be887ea1U, 0xbd3453073ed54b32U,
  0xbd1e60873f1e8143U, 0x3c8b8d743e2d9ac0U, 0x3dafe4eebe1ac2e6U, 0x3d60fc24be55dbf7U,
  0x3f0c7bdf3ec570aaU, 0x3e3d7af0be39bf16U, 0x3d223b353d9d4e04U, 0xbebc6a64be1ca6f3U,
  0xbe94ff0b3db17d78U, 0x3e237a2b3ef91514U, 0x3e6a12663db9cd14U, 0x3ed1dd823d6891ceU,
  0x3da29e1cbf1a049dU, 0x3e34d5c9be83431dU, 0x3ce1a963bde5fbc1U, 0x3ea181bebdc0e0d3U,
  0xbeadbdfdbe8ba2a9U, 0x3ed60effbf053563U, 0x3ea008443e8df99eU, 0xbf0b3d39bf0ee610U,
  0xbd006e87bd1e0b19U, 0x3e8337d63d438c44U, 0xbeee5ad93eb60e00U, 0x3ea5c86ebe598adbU,
  0x3efcfc0ebeef8caaU, 0x3f1d702fbe6dab89U, 0xbdeedbe6bea75390U, 0x3eb691403e3fdaf4U,
  0x3efca6dbbd12c0dbU, 0xbee0b48a3da6e531U, 0x3eae527abe3db0e5U, 0xbe8ab572be940dadU,
  0xbdda079abf1c5805U, 0xbc2ba4163e0b8638U, 0x3d980d36bdea3786U, 0xbe7df0f1bf15b09cU,
  0xbea491a2bea37718U, 0x3f1c6914be493a5bU, 0x3e0783d43e5fd7dbU, 0xbe33e5c8bf2d8997U,
  0x3d027317bd3b3bedU, 0xbc939629bf07af75U, 0x3d5ecbf7beab0d4eU, 0x3ceedc6a3e0030a4U,
  0xbdd72636bf026ab9U, 0x3cffc809bea825acU, 0x3eae8a31be91d5b9U, 0x3ec04d03be8589acU,
  0xbeb499cc3e80fa56U, 0xbed076103eb60c4eU, 0xbea168d1bed474a6U, 0x3e5d4744bedc30b2U,
  0x3e851984bde187f8U, 0x3edcc613be9e397bU, 0x3d1ee5cfbf279b86U, 0x3ea43da83d7b927eU,
  0x3ece09e23f1ce7c8U, 0x3e9b1e43bf3956ebU, 0x3e78dacebde87284U, 0x3f101637be5c10c2U,
  0x3d975477bf3145ceU, 0x3dbacb7f3dbac484U, 0x3ea30e47beee6335U, 0x3ebe97de3e930605U,
  0x3edd7323be449269U, 0xbc921bd03ee67b98U, 0xbda7ab603f2debecU, 0xbe8914fcbe8a6f87U,
  0x3e5bfaeabda9f4bfU, 0xbf0062bfbea4ea28U, 0xbf067569bc216a24U, 0x3eb5f9183e82b6f8U,
  0x3c5770debf3b1249U, 0x3a294a683bbcf1fbU, 0x3e62f389be981b22U, 0x3da651b03ed7d127U,
  0xbd27b8c9be35f9a2U, 0x3da147f63a5a3dc4U, 0x3ec2efbcbcf9c4c7U, 0xbe2a18dc3e424696U,
  0xbbc980de3b307e1cU, 0x3e665112bab200fcU, 0xbf313a923de13883U, 0x3ec5064fbeac89e2U,
  0xbe80e9d43eb2afdfU, 0xbe92d699bdfb9e91U, 0xbdef4edebeb7719fU, 0x3ed088953dc101a3U,
  0xbf380f843e356592U, 0x3cb34c0b3e209361U, 0x3ebc7b193f47e0a6U, 0x3efd915ebe13fa8fU,
  0xbe2673433d03c01bU, 0xbe9a45143e3ee404U, 0xbf28c7053e94f25aU, 0x3e694ade3e259880U,
  0xbf128d613ea7f7c8U, 0xbeb702fcbe95f806U, 0x3e3edf333f023d01U, 0x3b54c0673f4fc15fU,
  0xbc958d75bd7bb1b5U, 0xbea757c4bf1da7bbU, 0x3d569e96befcb989U, 0x3da282a0bce53f1cU,
  0x3e369942beb55e25U, 0xbe91ebbdbf109264U, 0xbec7831b3e80e3b4U, 0xbe4259023dc1f472U,
  0xbe22e5ecbe7de7ecU, 0xbd981196bd941f2cU, 0x3ebf0e31bebda3e6U, 0x3ec463a2bf27bd55U,
  0x3f2633ff3e37b4a1U, 0x3ed5a9e4be6fa316U, 0x3e5d735ebf047ce0U, 0xbea7d9cd3ec7d3eeU,
  0x3e005febbde483c7U, 0x3f1f9749bebd811aU, 0x3f4b2836be8653a4U, 0x3ed2faf33f018767U,
  0xbee30e53bee09076U, 0x3e8426c63dfa1934U, 0x3e507ac2bf0db70cU, 0xbc8aeb9ebeffab4cU,
  0xbcb1f2d93d05351cU, 0xbed38903bce71bf5U, 0x3e21ec2c3eb7e0c9U, 0xbe1e51f9be4de859U,
  0xbed16ebcbed0dbadU, 0x3cbabe30beef8fc9U, 0xbe4a8203bdd9993aU, 0x3c92bb41bd73f2a9U,
  0x3beada6fbd275220U, 0xb91fd2ed3b8fb9e1U, 0xbe26bcb03d8ef61aU, 0xbdfd2d4a3eed05d8U,
  0xbe4c7a2d3e1b9e7cU, 0x3ee52de0bddbc442U, 0xbf56979f3f0069d3U, 0x3f46c2953e54aad1U,
  0x3ec40d703ddd06fbU, 0xbe0b333e3f417e70U, 0xbea66e7e3ddd0dd9U, 0x3e90c452beba7441U,
  0xbeecbabe3eb72dc7U, 0xbea390d2be3c07e9U, 0xbe1b7314bf009262U, 0x3edc766cbd5ea0ffU,
  0xbf106f5c3d485c95U, 0x3e8f9fa1bea2c6c3U, 0xbd857405bf0f4b26U, 0xbeb519ed3e58be15U,
  0x3c9bf538bd674ac5U, 0xbef74320bd84ce29U, 0xbf033f5fbe2dfb35U, 0x3f11f598be285f97U,
  0xbe6b0d12bf1995beU, 0x3d472b9d3e259954U, 0x3eb589e43e4f8130U, 0xbf0eb6ac3ef8b4faU,
  0x3ee40a113e42b446U, 0xbe5ddab53e992b81U, 0xbec7949e3f0e6c5bU, 0xbe997f83bd852f29U,
  0x3d2374dd3c8c2739U, 0xbe0dbbc53cae6b8bU, 0xbea3861dbec403c9U, 0x3ec0ce60be764f5aU,
  0xbe81e68a3ec6a137U, 0xbf13b5313ea5fbcdU, 0x3e31c707be344c94U, 0x3f245bef3e3f2400U,
  0x3f321134be6dfbdfU, 0x3e6288d0bf19e94bU, 0x3dd06e013f1af723U, 0xbf2a151d3f077d39U,
  0xbe8983d63e8c2671U, 0x3e1ff937be982788U, 0xbde1771cbe4f7a22U, 0xbe125a5ebd487656U,
  0x3df4e04a3d479283U, 0xbdbf1c70bc94e7b0U, 0xbd5e85193c89fce6U, 0xbdb2f378be2169e9U,
  0x3d83e3aa3df4c518U, 0x3cc508c3bd83c37fU, 0x3d9882713c4f4e67U, 0xbdf03eadbec2734aU,
  0xbd658987bd0f227eU, 0x3e8c87b1bd6a677cU, 0xbcefb167be838d60U, 0x3dc113b83c5eb58dU,
  0x3b2d1416be325206U, 0xbe568941bdd0e4ceU, 0xbe2aaa263c9145e3U, 0xbdeb6119be178b7eU,
  0x3dfc637bbd8d7d13U, 0xbc7a69b1be1c8cfaU, 0x3df36483bd57d71cU, 0xbc25d6bebc22b6a6U,
  0x3df945efbd11f808U, 0xbd66e8d7bc4ba6d1U, 0x3d88872dbe85f2d5U, 0x3e394079bd60fd01U,
  0x3dbc00a2bdf95d57U, 0xbb4c68ccbe1645a4U, 0x3e3230c4be001104U, 0xbcee4a2cbd72f18bU,
  0x3bb782763c288d54U, 0x3dcd93debe072a5aU, 0xbdd1d7b9be788cddU, 0x3e02383fbab9db67U,
  0xbe156ec63d80869aU, 0xbdef8ce1bdd3be17U, 0x3d4e556e3d01ed25U, 0x3c8369b0bd3b8b84U,
  0x3c3dd03ebd031669U, 0xbd0135eabcfc34baU, 0x3d9192db3d137487U, 0xbdb667fa3cc8b71dU,
  0x3db0b731bdce418dU, 0xbe08b4f3bc7f2ce4U, 0xbcf7172dbe111808U, 0xbdecb5953e10278fU,
  0xbc7a24e33d322cb6U, 0x3d009cf6bcf20539U, 0xbdd2e6753d140bd0U, 0xbeaad8f6bcd83b64U,
  0xbd8fa408bd9b5db6U, 0xbd3394c0be88aba7U, 0xbd2fb8b4be553af7U, 0xbd4d67f0bd1fbd12U,
  0x3d90e93f3b5ffb6bU, 0xbdff4ae53cb49dc1U, 0xbe401c52bc359e63U, 0xbdd2da0e3d8481fdU,
  0x3d133394bcfc844fU, 0xbe1bdd5ebe859fcfU, 0xbcf58507be77bf75U, 0xbd852f69be759109U,
  0xbe356361be0f019dU, 0x3c956f0ebe98c578U, 0xbd8fbdcfbdff8dd7U, 0x3d9e32813d85de29U,
  0x3d3f49e43ccf094dU, 0xbd471220bdac2e11U, 0xbd75ea5fbcce84b4U, 0x3cb75445bdb7eaacU,
  0xbd4c7885bb9093a8U, 0x3df47535be0dceecU, 0xbdf90f76bcb08467U, 0xbd9e2a01be7273cdU,
  0xbe92a9163da893b3U, 0xbd67d8f1bdf78371U, 0x3d886a303c721806U, 0xbcdb69f53da09563U,
  0x3e0923893d46ec8aU, 0xbd240a013d9afc54U, 0x3be85dadbe35433bU, 0xbcb40c383deba76eU,
  0x3dba0a853cc4b86cU, 0xbd4da5f6be1ee119U, 0x3d0f2afa3e3bd620U, 0xbd9210f2bd54f044U,
  0xbd8a764abeba5f87U, 0xbdfeaac2be741afaU, 0xbd6f1524be8163ffU, 0x3bd2ab34bd8dafccU,
  0xbc84102cbe53174dU, 0x3d8698d6be631e6cU, 0xbd33c5b6be55a8edU, 0xbe57442f3babb578U,
  0xbe27b8b0bcfd6e77U, 0x3d8cd693be8beb67U, 0xbe83d98b3d936817U, 0xbd59b317bc8f31e8U,
  0xbd58d7113cdb5e4aU, 0x3e14cfd7bc93321fU, 0xbd9640be3d77d1dbU, 0xbd3f914e3dd05fc0U,
  0xbd8a6a54bdab13efU, 0x3e108333bdb3abdbU, 0xbd8cf71fbdb5be02U, 0xbe974a27bdb01638U,
  0xbb73e956bdc4aa2cU, 0xbe54bc49bea62132U, 0x3d8a97b43b6d3705U, 0x3c2630eb3e28637dU,
  0xbcc882033d3f932dU, 0xbbc5eb653d9a56b9U, 0xbccfcdfd3c90e9bbU, 0xbeba4984be37f5a4U,
  0xbdd8af32bcb4ba49U, 0x3ca7454cbe4bf4dbU, 0xbe6b4e4c3bef905eU, 0xbe09dfd8be0e306bU,
  0xbc976ba33cde5098U, 0xbe085e64be220050U, 0xbe242847bd9168adU, 0x3d277abc3d9d4039U,
  0x3c434286bd3766b6U, 0xbe0c744fbe548b82U, 0xbc0a6424bdb754cbU, 0xbe3a3d04beb3951aU,
  0xbe837c55bd55ead2U, 0xbe8d9e2dbd584748U, 0x3e6d47503e5a5568U, 0x3eabb90ebe0cb332U,
  0x3da1a8eabe2ea998U, 0xbebaeea8bdcc3265U, 0x3bbc8d7bbdda3fd3U, 0xbdfcdb273e0d975cU,
  0x3db506963e86bfb3U, 0xbe2c2087bd38dca0U, 0x3d9546ad3dd52e13U, 0xbc90e9edbe00988fU,
  0x3ec05df3be113511U, 0x3d04e0c6be1be341U, 0x3d2cf2b23e0c2778U, 0xbac79bc5bddc862dU,
  0xbe4789403dcb2bb1U, 0xbdbf9b1bbe6c1d8eU, 0xbe3aff22bdcddd4bU, 0xbdcb09fe3d26da16U,
  0xbe4a2a893dcb8ab7U, 0xbea1a9f73e532b4eU, 0x3dad644dbdece9d4U, 0xbe7c76c5bd9d2fedU,
  0xbdb9d2283be43d45U, 0x3e0dc9e13e011e1aU, 0x3cd1c100bdb982c3U, 0x3e43d33d3e650576U,
  0x3d91b641bd7662edU, 0x3cef914dbee3e9bdU, 0x3e084e1abf0620b0U, 0x3e432a8e3ca7a396U,
  0x3e0995bcbec9b15cU, 0x3d7d5bfb3dfa9066U, 0x3e65825cbc842456U, 0x3e0ccb02bee3c859U,
  0x3d91b5283e3a8565U, 0xbd83a016be1036f1U, 0x3e2dc947be2f02edU, 0x3e24df39be4bef80U,
  0xbec0bf62be4bad6fU, 0xbe3d36cfbd36d8b2U, 0xbe3ba570be1d2d41U, 0xbdda942abdd01ed7U,
  0xbdea116d3d27b9b5U, 0xbc943a943e3d6e6bU, 0x3d6b3070bdc984d7U, 0xbe0d14b33d51d491U,
  0xbd9e34623dd467c7U, 0xbea4bfb2bda86d18U, 0xbcf1433abcb598afU, 0x3b896260bc306f36U,
  0x3e1bf742bcdd0d7fU, 0x3e8387ac3e724acaU, 0x3e83a4afbdd7313bU, 0xbc7d905dbe81a17cU,
  0xbe2172bfbcac25efU, 0xbdc453683d0b98c9U, 0xbcd05460bea0a965U, 0x3e25263a3e4559d6U,
  0xbe26dc933de2a947U, 0x3e245b4abe151105U, 0x3e8650b4be90eb24U, 0x3ea970093b3d442bU,
  0x3ddf92cebdc5c867U, 0x3cea99cc3c346d86U, 0x3e1023b73e77351dU, 0x3e376230be112adcU,
  0xbc9b201c3de997c8U, 0x3c7adef33d83f29dU, 0xbe2f69b73e100f30U, 0x3d096430be7e3cf1U,
  0x3d4182f73e04de54U, 0x3dedaf563c3837a7U, 0xbd91414b3dd1a5baU, 0x3de0b902bcb493c2U,
  0xbc87516abd3788dbU, 0xbe2f3150bdaef546U, 0xbe02ceef3e8a50a5U, 0xbd2fd51d3dac232cU,
  0xbd948ffb3d7a117dU, 0x3e1d9316bcc83fbaU, 0xbd462930bdf18ae9U, 0xbca5c537bdafc598U,
  0x3da4f79bbe8c1981U, 0x3da90299bbe1ad4aU, 0x3e2cb01cbe4e7549U, 0x3cc21924be51e78eU,
  0x3d765e9e3e3d6ea4U, 0xbd3c8694be9881ffU, 0x3d09e8c6bd073db2U, 0x3d0073ba3d82bc6cU,
  0x3d0a153dbc809fd4U, 0x3d7ef8c03dcecd0eU, 0xbeaf16a33df2ce23U, 0xbeae38183bc657deU,
  0xbb5cd24f3de3881dU, 0xbe3e05ff3dc50057U, 0x3d76fd5c3d195d96U, 0xbdda54e0bd28df90U,
  0xbe90298b3d3f6946U, 0x3d9bdf80baebdb1fU, 0x3d7a60443d9ba5f7U, 0xbb79234c3e2421bbU,
  0xbed6e1083db85544U, 0xbdd6ab523e223211U, 0x3db30fcabec0168eU, 0x3d81815cbd1dc18dU,
  0xbd3f4c80bcaaf55bU, 0x3e4d7332bdc57ef6U, 0x3c139000bcc2375dU, 0x3d877b623c604491U,
  0x3d7ff2cf3da1ca58U, 0xbd6fad92be05f784U, 0xbd3bbe393db7f1e9U, 0xbe106dafbed531e3U,
  0x3c53338cbd037095U, 0x3db35e123d7a4f99U, 0x3e4b675b3e1adf45U, 0xbd4229313e6642ccU,
  0xbe845a933e6d065bU, 0x3d9813f6bd49a56bU, 0xbd8260ebbd4ee040U, 0xbedba6e3bb8f0e6eU,
  0x3d84fce53cc8a8feU, 0x3e21e6db3e202fccU, 0xbe8d9f973dd76362U, 0xbe8acb3abd83040aU,
  0x3d9b6f853e4f66ddU, 0x3df1e9ef3e4f178dU, 0x3d66dc413e0bdeb7U, 0x3dcefcff3dd3d789U,
  0xbd6f6eca3e59bc96U, 0x3a31c1d1bc092785U, 0x3e0a49313c54f3b3U, 0xba98733fbd26b449U,
  0xbdc20a2abd66fc0cU, 0xbe8ac708be901dbbU, 0xbe0913a33bf10b35U, 0x3c110e473c7a1034U,
  0xbcaae4f43c26adf3U, 0xbd181e8cbd27421cU, 0xbd8c4ea43b3c34d7U, 0x3e208cbd3c067a0eU,
  0xbdb372273c46190bU, 0xbd55ec11bd53de80U, 0xbd11ce47be26f1d6U, 0x3bb713c8be18d215U,
  0xbd7f7f87bb9ee362U, 0xbd5fd2cbbd0a7581U, 0xbdd2b9e7bd5788dfU, 0xbdf20f613ccbcb98U,
  0xbdebf369bd35693fU, 0x3aafaa63bd25a54fU, 0x3d820069bd3a8001U, 0x3c95fd93bd0f7250U,
  0xbd99d957bd8af147U, 0x3d816f00bdbe3bf5U, 0x3aaab7063dc56ae3U, 0xbea82981bdccb5aeU,
  0xbcd22648bd864b11U, 0x3c2a340cbcca93f0U, 0x3d664b843b8044beU, 0x3c887182bd68306bU,
  0xbd17114d3d3e7a19U, 0x3dff9eeebd68e15aU, 0xbcce6ee6bdb2448cU, 0xbe23326a3c9295f5U,
  0xbd4f85a1bdd2b072U, 0x3d38459abe0deb47U, 0xbe7bc2da3d84f1cdU, 0xbd8ac2b4bd6c4071U,
  0xbdaed5663d099dabU, 0x3c9ba567bd4cfd05U, 0xbd5427653b932edaU, 0x3d789404be3cf7cbU,
  0xbdac04c6bd278c38U, 0xbc9e5e28be64d547U, 0xbd9aa994bd801e9cU, 0xbdc3fa46bd40cde6U,
  0xbd48935e3d409606U, 0xbd43b157bd3ddbcfU, 0xbe038396bdbd612bU, 0x3cd9f1b1bd5088eaU,
  0xbdd39259bd12cfecU, 0x3daf135ebd24db04U, 0xbd81dcec3cdb10f7U, 0xbc601ab93c40fae2U,
  0xbe776abc3cd242d1U, 0xbd959c6fbd967fdfU, 0x3c1c0dabbd5ede9dU, 0xbdf7863dbbd747ddU,
  0x3dd3195bbda91e33U, 0x3de3518cbd42f2b3U, 0x3bd24049be0a19c3U, 0x3cc88156be85316cU,
  0x3cca3b323da2e2d3U, 0xbd128a3fbd016581U, 0xbdbbd4a5be536878U, 0xbe8370bfbdc73ed0U,
  0x3df6f8f5be7b1bfcU, 0x3e7b0da23d4ceb83U, 0xbd807cce3e1321d4U, 0xbe18c1a7bda10da4U,
  0xbecb9b6e3c848931U, 0x3d2e01cabe678ac8U, 0xbeafa0563e105951U, 0x3e0e25b5bc778ac3U,
  0xbe677a76be105ce4U, 0xbd97ae8bbe225fbaU, 0xbde9fa083e4ac9dfU, 0xbe58004e3dd8d537U,
  0x3d3250823e7c72a4U, 0xbddb23c03e2e1634U, 0x3e42c0263e35156aU, 0x3e0be9a33e905ab1U,
  0x3e273bcb3d65dde9U, 0x3dfbbf4d3e741998U, 0x3df366853e4f7a71U, 0xbc0d4d1abed9b48eU,
  0xbde798043de9169bU, 0xbd3603553e108a73U, 0xbe350f1e3d6a3c29U, 0xbdc6fa4abd0391b6U,
  0xbd8e7bc5be1e0a6dU, 0x3dca26e73d6154deU, 0x3da8fb3a3d5dba9bU, 0xbe0f87463e013973U,
  0xbdfee67abdcfeab4U, 0xbe5b35b83e52952cU, 0xbc99bd00bd8e7c99U, 0x3e0b5c3dbe8fd0b3U,
  0x3c9d8a7a3e61c50eU, 0xbe045e7d3da463b4U, 0x3ddacf523d4aaa0bU, 0x3e47dd86be5914b9U,
  0xbdf9c337be7ccf5fU, 0x3e1589d93e8d1881U, 0x3cc4514e3e1da9abU, 0x3e95ba3abdb33a4fU,
  0xbe3afd0c3d2c9926U, 0xbd8d5f3fbd487f14U, 0x3c88ae613e2bcbadU, 0xbd87e92dbd7705e5U,
  0x3d5aea0f3e98f460U, 0x3d2ff2913dd9f556U, 0x3c5839ad3e238499U, 0xbc164fa23e8531e7U,
  0x3e44bf443d8c0078U, 0x3dd8d37ebed3bb8bU, 0x3dcf1f47beb17068U, 0x3e3b2b50be6078ecU,
  0xbc15cfda3e0046a5U, 0xbd4fe8e83e05f52eU, 0x3e2b02023d854007U, 0xbdc066413c3ee22dU,
  0x3dcdaa47becc52ffU, 0x3de1130e3e1625ccU, 0x3e040cb3bce5c399U, 0x3e544ceebe8c51f1U,
  0xbdbbe9533dfea502U, 0xbd032f033dbd8a0fU, 0xbe8fbda3be172c33U, 0xbdb6b6fcbdd23282U,
  0xbdc5100dbe15bb19U, 0x3d82a670bd50a30eU, 0x3d5e132ebc1624ddU, 0x3d517f5d3d364464U,
  0x3b1be832bd38f6a4U, 0xbdcfdba63d59000eU, 0x3c8190fabc98d765U, 0xbad6027abd5a0ccfU,
  0xbdaf15d03cbb14b8U, 0xbcbe14c03c74bb42U, 0xbcbcf9123d278ef0U, 0xbdde3f10bdb3cfd9U,
  0xbdc975dcbe29e0dfU, 0xbc98cbd2bdbf3e97U, 0xbd767671bd0376edU, 0xbd266b1dbdc6f7a9U,
  0xbae0a1723c8d05d1U, 0xbdec48bdbda637d7U, 0x3db86fa4bcf8e03dU, 0x3de130c93dbc1f34U,
  0x3db0f868bda5faaeU, 0xbc8715403d501bd0U, 0x3c030a793da61d3cU, 0xbe0a0e28bc5afb0bU,
  0xbe109edfbb5bc32fU, 0xbd2840153ada2c01U, 0x3d4aeb9dbd70fd3bU, 0xbc26e380bd9ba22dU,
  0xbe1843f23e008fa6U, 0x3c6d4f933c251a10U, 0x3b0a84d53a3dc4d3U, 0x3e7a883fbcad883eU,
  0xbb40ededbe410ae3U, 0xbca7cc0e3d564792U, 0xbd260801be1b4523U, 0x3c56e8253b5485cbU,
  0x3daaa9c5bcb542bcU, 0xbdce9ca63d33b80cU, 0xba548df5bd992988U, 0x3c79bd3dbce72f87U,
  0xbd7e785ebddb0524U, 0xbd910d2dbd47bf4aU, 0xbd644cce3d93286eU, 0xbacd49383c60977bU,
  0xbd9a3acabdb0a92dU, 0xbc93319ebcaa1e15U, 0x3d80d8c6bdebf30cU, 0xbcae6f69bd39de66U,
  0xbdb0e5043c940e68U, 0x3c57a254bcde12e7U, 0x3d20e637bcf7de5fU, 0xbd697599be6285adU,
  0x3c63efe7bc8366c1U, 0x3ca687463d9b4c87U, 0xbdeae964be1e4a88U, 0x3ce58c2cbdae6590U,
  0xbde88afcbc93db14U, 0x3deead0e3cf40318U, 0x3c176be1be2b692cU, 0x3dd94c433d62ed90U,
  0x3d934f5b3d4b09bbU, 0x3c3861a6bca2c83aU, 0xbe87eb753cc4aecfU, 0xbda9e9eabe306fedU,
  0xbd3bb0b13cdda205U, 0x3dc54f94be27f5eeU, 0xbeae3da73db681d8U, 0x3e13e05a3ced8c92U,
  0x3e73fad1bd6c673eU, 0xbed9dbba3d262220U, 0xbe2e7381be89ae52U, 0xbe12c453bd8ab4e0U,
  0xbd88b064bc681502U, 0xbe8ce1d63dc2ee8dU, 0x3db8f00a3c8d3b4fU, 0xbd7591203bd31a3cU,
  0xbe0f2aab3d844284U, 0xbb70bc4a3de29d56U, 0xbec23b473d96ec4fU, 0xbeabe8d33e7f3607U,
  0x3bbefc2b3ca46569U, 0x3e00fc1b3e7962eeU, 0x3e615d463e899e5fU, 0x3e966d2d3d0db28dU,
  0x3ca4c3c53e423e4cU, 0x3e1d63773e1e7313U, 0xbccb1b70bd8278eeU, 0xbe5f382a3dbdb693U,
  0xbdef93603d335664U, 0xbe76272b3d107a2cU, 0xbdb1379dbce0cc60U, 0xbd82913d3d487ad7U,
  0xbcba95bfbe94c9e8U, 0x3ded71753d90dbedU, 0xbe2e55023d254633U, 0xbe2a83813caf033dU,
  0xbda9d2b13d3b1edeU, 0xbcb02d1dbe1b2b76U, 0x3e23a027bdeb11f8U, 0x3d8c77fa3e9a92cbU,
  0xbe9defd03b0466d5U, 0x3d8b1cba3d007819U, 0x3e8c483fbe7ac17cU, 0xbc4ac3d8bee3f1f0U,
  0x3d9164c03e6cce48U, 0x3d5dbafbbd54e142U, 0x3e80562cbdbd0145U, 0xbecb592a3c6fd50dU,
  0xbdf55ca53b9ebb1fU, 0xbea6ca2fbdb94309U, 0x3e4a9594bd3df7ccU, 0x3e1521ed3dfb2247U,
  0xbc96a7d03e3544eeU, 0xbd7da2bf3e32523eU, 0x3d723c2a3cd23a9bU, 0x3d937d973a8ddeb2U,
  0x3df5b6acbe324f7bU, 0x3ce3fe49be80aaf4U, 0x3e0d0c4b3c8c934bU, 0xbb4ec6373e5f9429U,
  0xbc414c143d76fd89U, 0x3dc8b5f2be4adc03U, 0x3d310807bd00f3ecU, 0x3dfdeff9be9b9661U,
  0x3e2029d33c2d6ee0U, 0x3d8eb1bb3d35870cU, 0x3ddd0911be11f72dU, 0xbe84b2093d9d3079U,
  0xbc2707523dc35b8bU, 0xbd9edf32be6599b2U, 0xbd30481cbd1561c6U, 0xbe7af335bdc3af09U,
  0xbc97fc12be080786U, 0xbe50a0813e272823U, 0x3e128b1e3d8a8b4eU, 0xbeacd89bbea05ea3U,
  0x3ca705d6bdf68cbbU, 0xbd2d192cbd92a752U, 0xbdbe1ff93e6e553cU, 0x3cb8016abdf1a08eU,
  0x3dc4ef97bd4e2de3U, 0xbe1b8efb3e58a3daU, 0xbc27cd8d3e0e3556U, 0x3ddb6cb0bd0bc504U,
  0xbdbe49bdbe8cd9e8U, 0x3e293393be7f6d46U, 0xbde3a5ee3dd8f8c3U, 0x3e2c38d33d429ef3U,
  0x3e503e60bdc08f12U, 0x3d6314b23d9c8737U, 0x3da681d3bd2a8785U, 0xbe3bc3823da2b2fcU,
  0x3e33c6aa3c95b0e6U, 0x3da5a102be1cb679U, 0xbda46884be258472U, 0x3cbf095fbde02d4eU,
  0xbe3a69c2bd91340bU, 0xbe82229cbe4794d6U, 0x3d52188d3e51a483U, 0xbd18a6123e68a024U,
  0xbe58233dbd677db3U, 0xbdd1d42f3a10fbd6U, 0xbda76e89be391455U, 0xbdbecb123e365c37U,
  0x3d431feb3e6dd3a1U, 0xbe6b61d93d9718d8U, 0x3c70022dbebcb78fU, 0x3d3cc4823d579a2aU,
  0xbdca19bd3e1b3d4dU, 0x3dd8a1a73de81dfbU, 0x3e29d50a3bf7a257U, 0x3e765c943d9d8556U,
  0x3e083d3a3e30b79dU, 0x3ddc46e6bd997890U, 0x3e607a5ebdb3ee0eU, 0xbd7cf280be6b595cU,
  0x3c559915bdea734aU, 0x3d496f6dbd4b663cU, 0x3e55a1cf3e522c57U, 0x3e053f2c3e18b72dU,
  0xbda14a64bd613926U, 0xbd53cf8f3d60b5fbU, 0xbced0216be96694dU, 0xbe2de5db3e5a23d9U,
  0xbc4f917c3dc92417U, 0x3e0409e63e318f7aU, 0x3d71981f3e1b17faU, 0x3daa5c2b3e32d70dU,
  0xbdabd6d0bdeebce6U, 0xbe2bbfaebe9df051U, 0x3b83e9f73e11258cU, 0x3b25153e3e7165eeU,
  0xbddb22d33db2ba1aU, 0xbe9f8fe6be8e3e49U, 0xbbe117dcbd0a2e84U, 0xbe777ba8bceeaf05U,
  0xbca2828fbe9116aeU, 0xbe2eda533d8136a1U, 0x3d8860973e2cfb5aU, 0xbd52b8a3bd3d184cU,
  0xbeaeca04bcb4dc9fU, 0x3dbfb308be58112bU, 0xbd87ee94bd71f23fU, 0xbc9db2d43dfc063fU,
  0xbda3030dbe2e9067U, 0xbe580617bd125d86U, 0xbd93b312bd1c6a62U, 0xbd1b47233e2def69U,
  0xbc734bb5bd15e5b5U, 0xbe9bdcec3df65e41U, 0xbda5fcac3ca0a4b4U, 0xbdb6dedcbe3196f5U,
  0xbdc777c9bdc8e46cU, 0xbe11a5e0bdf4503eU, 0xbd8feca2bd48e9a3U, 0x3e296a873bcb52bcU,
  0xbe17e449bd976088U, 0x3d325b993e062b2dU, 0xbe3893debd853780U, 0xbcdb25a03d60c16dU,
  0xbe5679e8bdae42eeU, 0x3e626fd4bd441afcU, 0xbe28911c3bda8d94U, 0xbdf05b73be144accU,
  0xbe1b6e1a3d3d6d86U, 0x3d366c30bdd80bbaU, 0xbe6546c83d447474U, 0x3c7b46a93dfeeb69U,
  0xbdbee6c4be2957f5U, 0xbdcca53f3dc79ccaU, 0xbe1df984bd98c73eU, 0xbe9a7cdcbe126252U,
  0xbd577274be3738a7U, 0xbd2e52f73c76640cU, 0xbe56504bbdfefcddU, 0xbcd5b30dbd488dabU,
  0x3d325162bc055688U, 0x3c20fec7bdb7d07bU, 0xbde5c6a5bd6ee156U, 0x39f51a13bd2b68edU,
  0xbe621977bc8c336cU, 0x3d33d282bdeb37b0U, 0x3d3189f8bd053cd6U, 0xbccf9c87be6dd1aaU,
  0xbd0d14cdbe154201U, 0xbc107733bca55a13U, 0x3d5327eebdca8707U, 0xbdffbcba3bc8644dU,
  0x3c9eba1bbc97e51eU, 0xbde53c8d3d6189cfU, 0xbe3916c8bc876092U, 0x3d3415c93d43f8e7U,
  0xbd931875bdb3bde9U, 0x3e0b7b73bd3f1adcU, 0xbbf59d87bd89fc64U, 0x3c6a1a2cbe510925U,
  0xbdaab2733e5fd067U, 0xbc6337373dff6685U, 0xbe7e6a923e22c93fU, 0xbdb0ebc9bcc8b07eU,
  0x3e36eefcbcd975caU, 0xbdc0f8333c869dd3U, 0x3de4cdc33d16ce12U, 0x3da7e800bcf4325dU,
  0xbdd7b338bc623769U, 0x3cec316abbab1ff8U, 0xbda02411be5f100eU, 0x3c9888a63d5124a9U,
  0x3d378c1b3c50775bU, 0xbd4b48f43dc02ca5U, 0x3d1369c63cc0437aU, 0xbc0942753d168c0eU,
  0x3e10d21dbd51586aU, 0x3dd8dda03c1e9f26U, 0xbc22ff063cab2b3bU, 0xbd8090d1bdb3dadaU,
  0xbd6855dcbe23bec6U, 0x3be7fbc63da46e0cU, 0xbd123ba23d047a98U, 0x3c99be23bd838b79U,
  0xbbac57d63dd0dab8U, 0xbd12b9793d950e5cU, 0x3d27f35bbd7bffaaU, 0xbd84c06abdbc2223U,
  0xbc4a7647bda09433U, 0x3d6a99753bcb212fU, 0x3d8cc410bd21d005U, 0x3df63acd3e01f176U,
  0xbdf1005ebc00d132U, 0x3e42a793bd2ab240U, 0x3d8fc241bc876650U, 0x3d6857a73c038005U,
  0x3e68cf21bd88561dU, 0xbda10cbcbc977008U, 0xbd1feafb3e13acc2U, 0xbdb29dbfbde75d81U,
  0xbe4cc75a3dc27498U, 0xbb85f9eebe557bf2U, 0x3db7e2133d7ea9e8U, 0x3b9de8c63c114dc5U,
  0xbde15c04bdbca1baU, 0x3ca3d5d93d3ec1d8U, 0x3d572e30bd876804U, 0xbdd5e4853bdde037U,
  0x3d097c49bde466baU, 0xbcf37dc13ccd5e3dU, 0x3d984702be16cab6U, 0xbd1adc46bd3744beU,
  0xbe3425f83e166529U, 0xbd3d7a5f3ca0f1bbU, 0x3db5a5d6bd6728a8U, 0xbd6b38c73e2435a1U,
  0xbc74a6dc3d0ed42cU, 0x3da70e03bb7653aeU, 0x3d499ae13d51409cU, 0x3cc916fdbdbe58b4U,
  0xbd247b953d945895U, 0xbda3e4a13c175428U, 0x3d8a13bbbd3309aeU, 0x3b62c1b0bd70b05bU,
  0xbe2973f9bdb3e379U, 0x3bdeb5b93da4b3f1U, 0x3d81a4fa3da30ed3U, 0x3c86c58abd27cc1dU,
  0xbcf8cee43aea798dU, 0x3e1b0a7e3de8b61dU, 0xbcb7b4463dd95babU, 0x3de423dabcd17431U,
  0xbd796b4bbcc9b497U, 0x3d159ea23d54cec5U, 0x3d1da9e8bdb03f7bU, 0xbea6263abc43a098U,
  0xbcf91f23beace822U, 0x3d25eb763d13905dU, 0xbccd0e90bd25f3fbU, 0x3d21e73a3d152c84U,
  0xbdffe8ebbca42d9eU, 0x3d882c5a3d040ec5U, 0x3db2da693d5df813U, 0x3d4147c4bdb1e106U,
  0xbdaf1915bc8edfa6U, 0xbe56411a3daf8a19U, 0xbccbb0ee3d6e8695U, 0xbdb1c09dbc1f43e3U,
  0x3d552a9b3ddc7ff6U, 0x3d6779f2bd3214a5U, 0xbdd602c73dfd8e59U, 0x3bdef8a03dd57a07U,
  0x3e1257603cf40295U, 0xbd1ab5d43dd3a451U, 0x3ccc20773e0cbb6cU, 0xbe0b86ef3cf6c287U,
  0xbc56aef83da8266bU, 0xbd9a64bd3d7a874fU, 0xbda75051be9ad1b0U, 0x3db10b72bda4b1e2U,
  0x3cdb15d93d3c86ccU, 0x3cedd694bc861259U, 0x3d1ad36abd906f78U, 0x3d9776f9be44e0aaU,
  0xbde7b3713dac4d9bU, 0xbaedde243d4819f2U, 0xbe412ee9be7c5cb1U, 0x3d185308bd0550c1U,
  0x3da016ebbd8f9423U, 0xbd776f4dbe5c4ff6U, 0x3d3f46b83d6d2076U, 0xbc5df3b23a171decU,
  0xbd6d937c3d9cfb1bU, 0xbe25d7063dad5790U, 0x3d29745d3d151d85U, 0xbea4bc94bdf8e393U,
  0x3d810bd1ba59a90dU, 0x3d7cc082bc400a12U, 0xbb8a6e7dbd396bc5U, 0xbc022598bcf434eeU,
  0x3cc70fcfbd0605efU, 0x3cd849f9bce5cf48U, 0x3e6bdef8bd40be92U, 0xbd81626d3b69ab33U,
  0xbd255eb83b625f7fU, 0xbd7f96113dae0687U, 0x3db6138d3c059a60U, 0x3d9ee8c9be7e0818U,
  0x3d8fdae43d763bdaU, 0x3db43ffdbdc357ddU, 0x3c976e13bdab286aU, 0xbd909a1b3e059e16U,
  0x3d26edf2bd78b008U, 0xbea1c1eabcfdfcb6U, 0x3c238aed3d8cdaf6U, 0xbd58b727be0c993fU,
  0xbdb7d5a6be00f6a5U, 0xbe0b4e49be357001U, 0xbd92f0653aeba8c0U, 0xbcdc0a13bd6977daU,
  0xbdc14330bd8c27d3U, 0xbc20ef11bd3770d9U, 0xbd010cbe3df31243U, 0x3ac0c3893d333723U,
  0xbd3b58c3bdabf011U, 0xbddfa6eebc493a52U, 0xbd78ae523cc5200fU, 0xbe36b5b6bdc81f7cU,
  0xbd4572bebceb5736U, 0x3cb170cebd6a835fU, 0xbd5831493d493975U, 0xbd75ad923c7a86f3U,
  0xbdbb79cbbdf85065U, 0xbca4e532bd5a430eU, 0xbe101e19bcae44f6U, 0xbdd2c093bdf50922U,
  0xbd37fcbbbd2cd3b6U, 0xbd9837ed3d1bf62fU, 0xbc6785063b588f5dU, 0x3c9162653bbc0182U,
  0xbe34ac98bd73a671U, 0xbd14a2523b5f2eedU, 0xbe27465abc7c12a7U, 0x3d3f9e4abc76392aU,
  0xbdfe40383c2700edU, 0xbe4017523a9dd071U, 0xbbc5f05cbd2b91a8U, 0xbd3de62e3c5e79dcU,
  0x3ce67df7bd164793U, 0x3c1bb6b9be5857a9U, 0xbd81fe313c9064c9U, 0xbd7d0dfdbe7ba190U,
  0xbb9a04d23c9a57e6U, 0x3dd045e3bceeb91cU, 0xbd83818f3d50903cU, 0xbc56ee15bd3103d5U,
  0xbc905cf6bda84b67U, 0xbd85d7c0bda91956U, 0xbbbe8ee83bf579c9U, 0xbd873d60bd84f977U,
  0xbcf97a58bd486805U, 0xbd73223f3cb649faU, 0x3d7bd879bd6cd26dU, 0xbcdf611f3b327b2bU,
  0x3d88e292bdb8c721U, 0xbdd732e5bdeea9b7U, 0x3cc71e763c48edc6U, 0xbd1913fcbc8ceb59U,
  0xbce1acccbeaddbfaU, 0xbe039957bdeb5034U, 0xbaa798ccbd0315f0U, 0x3ce16c8bbe6efb09U,
  0x3d454bfebde8a28dU, 0xbd3fd65d3d6d00dbU, 0xbce33685bd9892f9U, 0x3bfe897dbda40ab5U,
  0x3d3fda93bbac6a4aU, 0xbd5011203c4b8284U, 0xbe535a003ce1d135U, 0xbe5a9d713d58ee32U,
  0xbcb1e43cbdc09295U, 0x3d3ac1543d57d95aU, 0x3e7fc81ebee6041bU, 0xbe44e5983e46308aU,
  0x3e18278d3e894b6fU, 0x3c5b909d3dd48cbcU, 0xbdeed80ebd517a24U, 0x3d860d80bd0d4b4fU,
  0x3d31cb88bdafda27U, 0xbe061cd43e21f91eU, 0xbe139eb9bd620997U, 0xbd6730953e0f326bU,
  0xbe8ff6393d249f6fU, 0xbe5935f53e9e7f90U, 0x3c82e6943df4a4a0U, 0xbe3110873ddfdd33U,
  0x3d70e61b3e0fca05U, 0xbe91997bbe72c312U, 0x3c80c3113d96e56aU, 0x3e0a62d0bcdab281U,
  0x3e5173093d5634e5U, 0x3e5cd2533d44a5d0U, 0x3d22aa06bd9b116cU, 0x3df093863e62794cU,
  0xbe686dbfbdec5bc2U, 0xbd5eac6d3e024d08U, 0xbe2156493cab5c21U, 0x3bd67c033b6b3597U,
  0xbd2731c23e45c0ffU, 0xbe374562bd915229U, 0x3bad8b423e4dec83U, 0xbd77f3e93e4a8419U,
  0xbee08b203d4bff51U, 0xbd9bfe463e6c027bU, 0xbd5989debd3f8961U, 0xbad3ba013e02d067U,
  0x3dbf80cd3e43e855U, 0xbe4cb8bb3d2602f4U, 0x3dab1141bc7be792U, 0x3b875f45bd62f37dU,
  0xbe1b95f6bdd6f426U, 0xbdfa1883bdc2db98U, 0x3db484753d0a6bc4U, 0x3db1a09abe02591aU,
  0xbe59622ebb0db914U, 0x3d87d62e3c21464dU, 0xbdb76a193d56743cU, 0x3d961248bc8bf341U,
  0x3de479413e11c4baU, 0xbe1bc1c5bd809727U, 0xbdd77d4abe69e8c9U, 0x3da06d823e238634U,
  0x3daa27f13d77fa95U, 0x3de90e79bd60c8bfU, 0x3d2c30a1bd3c00b3U, 0xbb6513b33e7be959U,
  0xbda69d7bbced4f51U, 0x3db0d2803d67bd51U, 0xbd1fda973df2b602U, 0x3dd601403d10b062U,
  0x3dda8b57bdd330adU, 0x3b861e233c62c3e9U, 0xbe297eb13dae7eacU, 0x3e1632363e51c257U,
  0xbdb965543ea3ecb9U, 0x3d1ddbaf3e5e22e0U, 0x3e2d110ebc9b7b2aU, 0xbde8134b3d40ae01U,
  0xbe299e41be39432dU, 0xbe11fee3bdb3ef55U, 0xbc9c600abd7202a5U, 0xbc91a8ac3e0a6e2eU,
  0x3ca21fa33d024e39U, 0xbd1adbd2be409366U, 0xbe02bf90be1e3680U, 0x3d89622bbd579ca2U,
  0xbe0f6eedbe1d7204U, 0xbdb3e91b3e1bc0a4U, 0xbe871428bdfe73dfU, 0x3ddf2d6abcea6ba7U,
  0xbd974570beaa7d52U, 0x3c9c25debe1eb448U, 0x3e313ca5bdaf7eedU, 0xbd2bfbcabda38b4cU,
  0x3e01c9623d9c7907U, 0xbe5e933bbd8cdf42U, 0x3dddafe73e0b5cd8U, 0x3e0d0010bc809173U,
  0xbe8c4d473ad37b28U, 0x3e7940c3bdb64c20U, 0xbda81409bd987ddbU, 0xbeb9f03abe105366U,
  0xbdd5bd27bde0b44dU, 0xbe6473e93cfbb1fbU, 0x3d7ba4f93d923549U, 0xbd744d3c3e094658U,
  0xbeb1b0c63b5b5563U, 0xbe256373bde0f09dU, 0xbd88024bbd866282U, 0xbdf5a478be92233fU,
  0xbe67e3c1be671b7dU, 0x3dfe1c7a3d35c266U, 0xbdbd766dbe9fee9cU, 0x3df09f003d230633U,
  0xbdfd6aa9bd068dceU, 0xbd581e773e088131U, 0x3e5740bb3c95d59aU, 0xbd7a1912bd3feadeU,
  0xbc3b4507be090304U, 0xbe065a153e17d4ffU, 0xbdf6a9bcbe0dd196U, 0xbdb9a1a0bea9af75U,
  0xbeb55462bd90e99eU, 0x3dc59dfcbd8b75ccU, 0x3df53a683d452d6bU, 0x3e2aa3d9ba965f42U,
  0x3c629ccbbbfa9cb5U, 0x3ce1b380bd102963U, 0xbe2d61f3bdd98deaU, 0xbd0c3bdbbea10c67U,
  0xbe1a677abb5ab3f1U, 0x3dbe771f3e230451U, 0xbe0b90c3be713023U, 0x3b2e355abe233525U,
  0xbe889e723dcd3803U, 0x3bbbd903bd80418eU, 0x3cf452f3be66c6beU, 0xbca081393dee4d50U,
  0xbde6cce53e1e4654U, 0xbe0b752bbc8e3880U, 0xbe4ba346bd7ef7a3U, 0xbe1d5a19be75403dU,
  0xbd833e06be6fc65eU, 0x3e0c7e21bdab8322U, 0x3d1e519b3cf9421fU, 0xbdfcb16b3d20d312U,
  0x3d4f3ce23e43650fU, 0x3e02512dbe1aca1dU, 0xbbeec6ef3e667a65U, 0x3da41eebbe514bfdU,
  0xbe835de2bc6fc56cU, 0x3ddf11863e6d64abU, 0x3d339b63bcb20950U, 0xbe627492bc42a26dU,
  0xbeb9e528bc001a9bU, 0xbe2c3b953d1e2976U, 0x3a780100bd88843eU, 0x3e27095a3dcad9c6U,
  0xbea1c05ebde0b77fU, 0xbcf21be43d76d021U, 0x3e4ff206be0cf447U, 0x3e007262be8a087eU,
  0x3c303007bdac99beU, 0x3d8c9d4dbdd1c28dU, 0xbd96f7573c90b1eaU, 0x3d838c35be8c220fU,
  0x3e84e92ebdd4bebdU, 0x3d8d39ebbe35b9cbU, 0xbc6b6503bd9d43ceU, 0x3da7accfbc9b1b0cU,
  0xbe29ad0a3e79fedaU, 0xbd415326be0ead65U, 0xbbd3796cbe561608U, 0xbdfe91393e32d984U,
  0xbba001353cf71f52U, 0xbecd9ad23db8c31cU, 0xbe70b1153da44e00U, 0xbe9f26763e18121bU,
  0x3db16dbb3ea591c5U, 0xbd107a7b3d8d3d15U, 0xbd8dc2e03dda3686U, 0xbda7def73e24015cU,
  0x3d0f1c62be33599cU, 0xbd85eff2bdbfca2eU, 0xbe002d98beb6a6f0U, 0x3d58d655bb7f9d89U,
  0xbda711e73d2102c5U, 0x3e4bd72ebdb2754eU, 0x3e03c700be43cf04U, 0xbcb6cc773d0552a7U,
  0xbe558d383d09382cU, 0xbe56ee77be80d35fU, 0xba0368653a9a52acU, 0xbdc15aa83e2b1758U,
  0x3e84f2b53deecb60U, 0xbe8047193e0d6872U, 0xbd21ff7c3cab29edU, 0xbeb509c53d97e0a6U,
  0xbd7eea21be24c4dfU, 0xbdd5437cbd7485a8U, 0x3ce0ce5d3d91b635U, 0x3e97fa9e3d564722U,
  0xbd1225103ded9985U, 0xbe4cf0333aef3549U, 0xbd202f88bd328d48U, 0x3d5934db3df8ab16U,
  0xbc921cae3dfdb422U, 0xbbb7ee3a3c8b15e7U, 0xbddb16bf3ea14eb6U, 0x3e3848fd3e0e93baU,
  0x3d51499cbdd8f3c1U, 0xbd6164a9bceeb8cbU, 0x3c29ac1c3d5ac4c2U, 0xbdca3741bd9f1b20U,
  0xbcada6863db4422bU, 0xbaf0ee48bc7a11f7U, 0x3c84fc223d89baf6U, 0x3e24aff4bd4f0efaU,
  0x3a345d33bc9c246cU, 0x3dfd77813cf7fe8dU, 0xbcf63d6a3d8dc241U, 0xbd567f243c93c18aU,
  0x3da5008abda43be1U, 0xbd624d7bbd987059U, 0xbacb2f243e2003ccU, 0x3cbfd5e13dad4cbaU,
  0x3ddd0217bb47c1b1U, 0x3d6e8dc93e043fd2U, 0x3cbc24b53d226905U, 0xbc9c8cddbdb462ccU,
  0xbd047a1c3d77d657U, 0x3cf1b72cbc97940dU, 0x3e4efd0abc2208b2U, 0x3d6dc244bd81491cU,
  0x3ddc3b6dbbabde6cU, 0x3a2135d9bdf30856U, 0x3dfcd214bd3a8555U, 0x3e3abb4fbd7adb76U,
  0x3e1ba642bdc8d0b9U, 0x3b29fb04bd168e88U, 0xbe0366973d9bcd15U, 0xbb52bc1e3dd7f6ccU,
  0xbc31117fbdb38013U, 0x3c878e483e59fb34U, 0x3d9a2389be05531eU, 0x3c8ce045bc6892f0U,
  0xbcb229d6bdc2d447U, 0xbc2505353d0d9162U, 0xbdc170b33bd4f133U, 0x3e2c27c93cce0d56U,
  0xbd601b343d9279faU, 0x3bc9ec19bc7bde93U, 0x3d5e348d3e01073dU, 0x3d8aca57bdac42c4U,
  0xbd6c9b113dea4114U, 0x3cb754713dd997b5U, 0xbd4b30093da67437U, 0x3ccdfbfebcc23e42U,
  0x3bf9bfb63cabaaa0U, 0x3dca28fa3d83a55bU, 0xbb49ea453e20f9fbU, 0x3e10d2d03d6891dfU,
  0x3dce2a06bd08323eU, 0xbd142fa23dcd96ccU, 0xbd15a56b3d78aef7U, 0x3daf09e5bd53f11cU,
  0x3d134b413d880cdfU, 0x3c94f7b13e05a47cU, 0xbd55a5e6bc63e484U, 0x3e0fd4ddbd37c26fU,
  0x3dff817b3d8df7ceU, 0x3e31146d3cd84bd3U, 0x3d433a103dd6c034U, 0x3d84019e3d486dc2U,
  0xbd41d160be59ce6dU, 0xbe439094be4c0f16U, 0x3c929279bd33b30bU, 0xb897ebc23d1ab474U,
  0xbe1eb7c4be791cb0U, 0xbd04f57dbe127e8eU, 0xbe638d6abdaaa053U, 0xbe6e83ec3c04f8bbU,
  0xbd6823a93c2cf329U, 0x3d2596d0bc29ddfaU, 0xbe64210abdb8ce53U, 0xbea82a67bd3478f4U,
  0x3e15fbaa3cb16372U, 0xbe5ac8eabce2ad9aU, 0xbde8d23b3e0d7927U, 0xbe8234a0bdeeac50U,
  0xbc7f81383d05667eU, 0x3c406beabc2a1f22U, 0x3dfe421bbe18a650U, 0x3dfec349bd80062fU,
  0x3c51e23cbd1414d9U, 0xbe11a56dbe199fcdU, 0xbdba5e32be02240dU, 0xbdaba1fabdf70f34U,
  0xbe0301b43d4caaebU, 0xbd9e858fbcb2954dU, 0xbd88f2e0be38d23fU, 0xbe7ef6edbe13a728U,
  0xbdd85a383db81d4bU, 0xbd3fc7483d04a4c1U, 0xbe82a6d1bd5c433fU, 0xbc8f59cc3d05f169U,
  0xbdef4bddbc39b1b5U, 0xbd20f35ebe315135U, 0x3d657a04bb1dc16aU, 0xbe04f79ebe0772b1U,
  0xbd19c5e63ba27473U, 0xbdbac13dbc17abe3U, 0xbe5f6da5be6423bfU, 0x3d49ca75bc96b6b9U,
  0xbd72ae143c314714U, 0x3d960cdbbe77b725U, 0xbe12117cbdbe0ab4U, 0x3d7d8609bd9dfc20U,
  0xbcc6cee8bd88db4eU, 0xbe254adc3dbde645U, 0xbcf36ce6bd7d450aU, 0xbe40925a3b7fb2acU,
  0xbdff1610bdbaa865U, 0xbd850e58bd33b195U, 0x3cfd6cb6bda65820U, 0xbcb637c1bd71f4e6U,
  0xbb877b70be4e556cU, 0xbc39ed30bc20ad6aU, 0xbdcdb7773d20c948U, 0x3d5d8c18bccbf6faU,
  0xbdbfffadbd948ec2U, 0xbd038f43bc92b555U, 0xbcd75fa5be81bc5cU, 0xbcb9e68cbd9c5dbcU,
  0xbe107ebd3d515167U, 0x3dab6257bda8acb1U, 0xbcc96434bc85cfafU, 0x3e166e66bd2d1cfaU,
  0x3d0e54b7bd7f7767U, 0xbdcb3f2fbdb8c909U, 0x3d67d90f3d7ed44fU, 0xbda073c8bd4ca5cdU,
  0xbda53ec83c55048eU, 0xbce870d83ce62bb6U, 0xbe1b3c1fbe84d758U, 0xbd57d9863d4a09d1U,
  0x3d1adc10bdef0ebfU, 0x3d7be02dbd2d5730U, 0x3d93fba1bd947953U, 0xbe1c58153dd34b7fU,
  0xbce4f7273d0d8f4bU, 0xbd841051bd9fcaeeU, 0xbddd3ef53d19b304U, 0xbd109a63be2ac95bU,
  0xbdb5e2a6be0608afU, 0xbcd4d347bd8f2703U, 0xbdc0e7673ce34079U, 0xbe179c063d5bfca0U,
  0xbd9a783cbd851067U, 0xbc2523d53d2cf354U, 0xbc9fbbeebd43a2dfU, 0xbe0724febc27fc56U,
  0xbda1052dbcb5a841U, 0xbd88d379bd5d37d5U, 0xbd1b4b0fbdcc3f66U, 0x3d0a868dbcdea941U,
  0xbe10be3dbd9cfd5cU, 0x3d231f55bc83affcU, 0x3cc8a929bdb715a2U, 0x3d8a925f3d23735eU,
  0x3cae731bbdf7017dU, 0xbdd85ac3bdabb081U, 0x3d888db1be0314ceU, 0x3c110278bd93f599U,
  0xbe84bbb5be0cced2U, 0xbc42bc22be2bbab3U, 0xbb7e090cbdffb7c2U, 0xbe76ce66bdd2ee31U,
  0xbce62d613d1ab85eU, 0xbda6472a3d1bdf6fU, 0xbda2e77fbcdbd28eU, 0xbd1dad22bcbcb667U,
  0x3d548415be272a2aU, 0xbd45caa9bce8bdf2U, 0xbd8c9e17be78446bU, 0xbdf7aca03d07f103U,
  0x3d6fa4b7bca311e2U, 0xbe08aef2bd51efc5U, 0x3d3a8fecbbf985a4U, 0x3d59ec0c3c4f190fU,
  0xbd083c133bb58dc6U, 0xbd4fe8fbbc5805f8U, 0x3d347ebfbd01b8c1U, 0xbde09c033bd2d798U,
  0xbdd5107fbd55e426U, 0xbe0bf528bd63718fU, 0x3cca441ebd1c0b11U, 0xbe258032bdd626a1U,
  0xbdcf4ab4bc0c2bc1U, 0x3de27e19be09570fU, 0xbd8fc8c8bd011d70U, 0x3dd2f7a3bcfc57d3U,
  0x3d5007bebe43b6d6U, 0x3ca6b9a4bcc647b5U, 0x3da7f9f63db614f1U, 0x3b7eb6433d5c32d2U,
  0x3cac8ee33d8f5987U, 0xbdf730ad3dbdd751U, 0xbda563dabd987f0aU, 0xbe669df9be0b1e3eU,
  0xbbf47b09be465c02U, 0x3dd44c673cdd05b7U, 0x3c62050dbd22227bU, 0xbcdfc074be139eb1U,
  0xbdb73191bd8bff20U, 0x3d735544bd69762cU, 0x3e280f043d97a5fbU, 0x3d8ce0193cb291c6U,
  0xbda56180bde13947U, 0xbe28fa08bd55f2d9U, 0x3d4c0db23d9f1990U, 0xbdb8b7a8bdc6a435U,
  0xbdd3732b3c9d0465U, 0xbd6d0c153dc869f3U, 0x3da605a5bd012878U, 0xbe579e69bdb278efU,
  0xbe13e8283dc06dfcU, 0xbcd920023d92374dU, 0x3ca4c626bdcc784aU, 0x3c6326713d121880U,
  0x3d50d5b6bd8663e2U, 0xbdd3bc8a3c7cc8b2U, 0x3d0c19d4bdc12dacU, 0xbde921093d660d16U,
  0xbccde0aabce45d8eU, 0xbdae9f6c3d974aa8U, 0x3dd575793d68ec90U, 0xbc53e5c0bcb62d02U,
  0xbdc1ae83bc4226d8U, 0xbd3b91523bb543e2U, 0xbcd5d353bdabcbf9U, 0xbdf5d523bdac6d4aU,
  0x3cfff6593e076abbU, 0xbc6e57c43db97b9cU, 0x3d154bf2bd7d76abU, 0xbe2d1469bd947009U,
  0xbd689ebd3df7f253U, 0x3c0d8b4dbe46fa94U, 0xbbba2411bdf656efU, 0xbdca0d2ebd954617U,
  0xbd20a27d3dc823b7U, 0x3d175438be3b5058U, 0x3d11fdc7be783ed2U, 0x3db9e44bbd18d924U,
  0x3cc3188bbc8457f5U, 0xbddff348be3c77beU, 0xbd32b6fd3d584982U, 0x3d82430f3d82ee4aU,
  0x3d2ded773dcc7b5aU, 0x3d56b995bafa82b2U, 0xbdade582bd96658aU, 0x3c939354bc5ad1f9U,
  0xbc3923eabdfb0ae4U, 0xbdfa6026ba7167abU, 0x3c607cf7be1c4fc1U, 0x3d727a713cef2914U,
  0xbe2ac3f43ccc42c8U, 0xbe43cca03dba0dacU, 0x3c872f83bbd59e34U, 0x3d9f85353e2877cdU,
  0xbd9ee7aebe127bf9U, 0xbded4d09be3e7932U, 0xbd271737bc0ddff2U, 0xbe101033bd5b5ef8U,
  0x3d08d9a03d94796cU, 0xbd84797bbc81ce42U, 0x3c9f63ddbd87b057U, 0x3cd47e5e3dcb2260U,
  0xbe296d7c3d40038bU, 0xbd79d04abd5d4a56U, 0x3c6b7d89bdfa7bf8U, 0xbd4b2006bbc6d851U,
  0xbe28884f3d2a4e30U, 0x3d0f05b4be0578d2U, 0xbc844e54bd8c6d55U, 0x3db535cbbdda7e18U,
  0xbd9eff11bd2df56bU, 0x3c46da67bd3e787eU, 0xbdb883a4be40d2d2U, 0xbbd7817dbd3d7f39U,
  0xbd15d5343e2d525bU, 0x3d8e6d87bd2fbfbaU, 0x3c91ad7c3c653c2cU, 0xbc4e48a1be248bdaU,
  0xbd8a4fa4bb93036bU, 0xbd7ccad6bc061ac8U, 0xbd8d55583dd450f3U, 0xbe270bc2bdcf9987U,
  0xbcaff1db3d2dc4d1U, 0xbe4b00993de66c25U, 0xbde1ea903dcc0d1fU, 0x3e2fe2aabd8f6ad0U,
  0x3e1ea5f9bdea7dc9U, 0xbdb02bfbbd1498ccU, 0xbda2202e3da811f8U, 0xbe1e8244be0190e2U,
  0xbd82af95be33e7c9U, 0x3c34cd1f3d14eeadU, 0xbccc83eb3a059752U, 0x3cc3ef06bd467f6bU,
  0xbceb77debd36b40aU, 0x3d596d8fbbb3d61eU, 0xbcb251fe3da0d6b7U, 0x3b8bb58c3b05e79fU,
  0xbcdea9e3bdbe3ba9U, 0xbc7e1973bce0ff60U, 0xbc411784bd8662a1U, 0xbe31a266bcd54199U,
  0x3d1918d13cd1c828U, 0xbdf100103d16c05eU, 0xbd8cd356bd59e91cU, 0xbba7d0f13dd31dc0U,
  0xbcf004b7be23d083U, 0xbdec1804bd1f3805U, 0xbc35829c3d4e662eU, 0xbd8098e0bd4793e2U,
  0xbda99991bd850b61U, 0xbdd2cc143ddfeb21U, 0x3d182875bd9bdc5bU, 0xbdaaa60cbde048c2U,
  0x3d519ed43d259e05U, 0xbd4d3f943a969b15U, 0xbbe8746bbca945d0U, 0xbe4f315ebbc68568U,
  0x3d21420abd982ea8U, 0xbda8418fbd116be3U, 0xbde440443dbf591fU, 0x3e24ea9ebe44270fU,
  0xbe55d2d9bd8ce93dU, 0xbe89d558bc2b00e7U, 0x3e3ea634be52df74U, 0x3d97e51b3e1f1a7aU,
  0x3d2080d9be633e73U, 0xbdcddfffbe36f181U, 0x3d111a5b3cb2a60fU, 0x3cd3d4ecbde882e8U,
  0xbd76d6e4bd8e6ee4U, 0x3cc63feabdd96f52U, 0xbe3cd211be0ac4acU, 0x3d81fc7bbdbae4b7U,
  0x3dad7285be123422U, 0xbd66c1de3e0537f0U, 0x3d417df6be8078f2U, 0xbd77e683be50610eU,
  0xbdd21ee5be5c9e97U, 0x3d1871e5be5cf9d9U, 0x3aad152fbe2be4a2U, 0xbd213db4bd6b0463U,
  0x3d9f0537bdff0a86U, 0x3da65f82be607401U, 0x3e453133be9771cfU, 0x3e0270aabe029a82U,
  0x3db110ebbe17406eU, 0xbd8ba9ea3d955bd6U, 0xbe10610bbd93f6aeU, 0xbc1f8ff3be5d0448U,
  0x3e1326043c3b2f39U, 0x3c73a067bd471277U, 0xbeaf5804bdefee31U, 0xbce88e153cb6d2ebU,
  0xbec66b5abe1231beU, 0x3e7b62963dd178a5U, 0xbdd7833c3d794df6U, 0xbdc1a8dc3d2aa0a7U,
  0x3bbb61ee3e477556U, 0x3e21924cbe2f7316U, 0xbd8fec46bd66a04fU, 0xbe14b114bb1b40e4U,
  0x3d9e3f03be1c922fU, 0xbd843e58bd90c4a8U, 0x3df0fc50be6076bbU, 0xbe80df62be582484U,
  0xbdad57a0bbe66c39U, 0xbc443b263c43f56eU, 0xbd44351fbde92363U, 0xbd3b6d09bcea07e3U,
  0xbd99ae3d3d30ec57U, 0xbea681cb3dc17599U, 0xbe86a0193b638a96U, 0xbe2341c7bdfde44fU,
  0xbe23aa43be3e6803U, 0xbe5a188cbde6941cU, 0xbce73ee3be13e157U, 0xbdfe2752bdc006fdU,
  0xbe4830343d3b23cdU, 0xbe28169d3d83c58bU, 0x3be48af73da6f687U, 0xbe2cc566bdb43c22U,
  0x3e1665e4be1d3ba3U, 0xbde7c866be5436eeU, 0xbda6c9c43d5f94b4U, 0xbd83d7e73dfb0fdcU,
  0x3dd0a5553e0548adU, 0x3d41560fbd89e915U, 0xbd8d25823daa53cdU, 0xbe0e7284bd12729cU,
  0xbe50331dbe9014b0U, 0xbda2d0423d961a29U, 0x3c6548343d8fff9fU, 0xbd06efea3d197782U,
  0xbc052378bc2c2b02U, 0xbd2a0a523d879b09U, 0x3e5e67533dc5c114U, 0x3d01234f3e070c04U,
  0x3d380f4bbd17066cU, 0x3d2e3b6abe3bdc0aU, 0xbc5f5067bd5aaa6fU, 0xbd0b883d3dea2888U,
  0xbdd12d8a3bded472U, 0x3d71105fbd54aa6cU, 0xbd3fe6843c4add41U, 0xbdcdd7cd3dc3eb04U,
  0x3d1612b9bcec76deU, 0x3cf362213cb1b606U, 0x3d363aebbe7ebf0eU, 0xbd4b900bbcc30434U,
  0x3d023e06be649986U, 0x3de9a4a53dbd9829U, 0xbd9b5b46be1d52e5U, 0x3d126c15bd139ec1U,
  0x3d00de44bdf71eceU, 0x3bba0dc5bd782091U, 0x3e60a33dbe1bc904U, 0xbd773746be092a7eU,
  0x3cffb3f3bcb09748U, 0xbc81f646bde11412U, 0xbd9684913dd39a4cU, 0xbd13ba9cbe8a8008U,
  0x3c7b324f3d593f6fU, 0xbcf80644bd1415b2U, 0xbde9aaa4bd96b119U, 0xbdbdf7983d65e708U,
  0x3d817063bdbe23bcU, 0x3d5068ce3a7a0e56U, 0x3c916ca0bd7011cfU, 0xbcf95cf5bb3cb9d6U,
  0xbd51e55dbded0352U, 0x3d5859d3bbd426a4U, 0xbd15d98f3d01d42fU, 0xbc0d7e003db00cfaU,
  0x3d31fae93d9b4bf9U, 0xbbe1e35f3d0aef81U, 0x3dbdeab03db7a3beU, 0x3d55f0923e0f6d1fU,
  0x3da6e8ec3d0215caU, 0x3cce4d18bdb66998U, 0xbd636f123db2e35dU, 0xbc2506d53dc565faU,
  0x3d3a13adbdda5cf7U, 0x3b12d5ad3c8615f7U, 0xbe2075bd3daa45b4U, 0x3d2e28e1bd28c227U,
  0x3d3fe44c3cb5211eU, 0x3de6dfe7bd0e049bU, 0x3dccbc29bdc2d38fU, 0x3de16a653cc8829bU,
  0xbd317fe73da0c1adU, 0x3dcfa6b93cb4ea7bU, 0xbd27bfee3e1258d3U, 0xbc875bf43c642216U,
  0xbd334c87bded404bU, 0xbe044bf3bd000050U, 0xbbeac94cbe23aa23U, 0xbd560cb4be13742aU,
  0x3be331993dac7a6cU, 0xbdb23af9be2a1a34U, 0x3d254f9b3ca1b64fU, 0x3da3d8cfbe23df7eU,
  0x3e3d7ebc3dba82baU, 0x3d9593103da9fa14U, 0xbc81facebdac8939U, 0xbd551fe7bde0549dU,
  0x3e3551063c526910U, 0x3db9ed29be32776eU, 0xbd26b9d9be1d934bU, 0x3d5351cf3dff194cU,
  0x3e245845be2942f1U, 0xbe06cbb4be10fa99U, 0xbe0f3ac33d4f2133U, 0xbe0cf762bda42ba0U,
  0xbcf202fbbddab42fU, 0x3d32d4503e30dcb6U, 0x3cb92dc2bd7aee3eU, 0x3d1a64443aac5c81U,
  0xbcaed8e4be377733U, 0xbe2dc59abd4c3ec3U, 0xbde135063dce82e6U, 0x3c0786f73cb538c1U,
  0x3cec198c3e044415U, 0x3e1a2302be3747e8U, 0x3cb7fdb03db5f39cU, 0x3d9fc19fbe0123a7U,
  0xbe017f4cbe345519U, 0x3c8ccd3a3c232c74U, 0xbdf77bd43d6a287dU, 0x3cf1d2abbd3e711eU,
  0x3d1f6057bcabe73aU, 0xbe5da862bdb9a73eU, 0x3db360f43dbc6f07U, 0x3c3228fabe1e2034U,
  0x3dcf94afbe2f76bdU, 0xbd7245383d75f2faU, 0xbd1a76a53da89d2bU, 0x3d126f97be365316U,
  0x3e736caebe33d1d5U, 0x3d93db83bd62dd7aU, 0x3b8a15c43d1d6ed0U, 0xbd7fbacdbdd17249U,
  0xbcacda0c3cfa9867U, 0xbcf2769c3c1e44d5U, 0xbdeff0753e0a6a1eU, 0x3e46cb83bd8aa3e0U,
  0x3d569aa9be1bda86U, 0xbdea1812bb9e7829U, 0xbc0c4b20bd7759a0U, 0x3cf47ac83d951a2cU,
  0xbdc1b0acbe2f9551U, 0xbb3ad115bd83bccdU, 0xbddabe9d3d5ebdbdU, 0xbdbf83de3daf61c7U,
  0xbd54b753bd361a24U, 0x3e0f88f43e03b3e3U, 0xbdbbf695bdd26dffU, 0xbe121f05be2da06cU,
  0x3d8ed9b4bd6699b0U, 0xbc097a73bb54003aU, 0xbe28615cbda18513U, 0x3af7cd6fbe37d4e2U,
  0xbc8830253c5c9c07U, 0x3de73c1fbc2eb0ebU, 0xbdfe3e7ebcf1899fU, 0xbd9b1d47bd03638eU,
  0xbc589feabe277831U, 0xbd2aea41bdacb2feU, 0xbddecac7be04dbc4U, 0xbe09a7bfbde69535U,
  0xbdd9b163bdcaf8f2U, 0xbddb935bbd8d3b73U, 0xbca78956be32edfaU, 0xbd0d246ebd529b9aU,
  0xbe8566c63c915288U, 0xbe2f7378bdbaa5ddU, 0xbd818c053dda568aU, 0xbd410b00bd2c724aU,
  0x3b5812bebdc15180U, 0xbe174839be13a0bfU, 0xbe585acabc06ccf7U, 0xbd4cd599bd67f7a0U,
  0xbd8887823e080cb3U, 0xbcf5f44ebe21b95aU, 0xbdb1db4ebc0fe6a6U, 0xbe4eb6ecbe04965cU,
  0xbd03ff923d397ae0U, 0x3dbe1d04bd7fb4cbU, 0xbc4c7595bd0d5608U, 0xbd10f0ebbe2a5e01U,
  0xbde5676cbe019496U, 0xbe2d860abe0719d2U, 0xbd5ba00fbe1e60b7U, 0x3de8312abe1c2ed2U,
  0xbd473272be0768b0U, 0xbcf28bc3bddf01a1U, 0xbdac978cbba67c72U, 0xbdf3bb89bd333311U,
  0xbdf288debe0812a4U, 0xbd81fc013bbb1111U, 0xbd6207be3dcf9a6fU, 0xbd8c3703bdd8a667U,
  0xbe3faddebd8867f2U, 0xbd9bf0c53bcff9a1U, 0xbca3da68bd7f6d9aU, 0xbdc1c8b2bd3991b2U,
  0xbe2f67313da09b9aU, 0x3d337cb03d3363a0U, 0xbce31c2ebe95d925U, 0x3cb5efadbdce75e1U,
  0xbadf9f0dbe035630U, 0xbd1af6fdbdff9b30U, 0xbbc5ccf63cb06708U, 0xbdfa1174bdbf3cf3U,
  0x3ccea107bd43b3b0U, 0xbe1fc383bdafa01eU, 0x3e04d89ebd72ea78U, 0x3d24d3babd0330c3U,
  0x3d00c950bda3738fU, 0xbdb93671be1b5755U, 0x3b18b345bdc057afU, 0x3d7c6e7dbd45ba0aU,
  0x3e85de4bbe8626aeU, 0xbe47bd3b3e1932f0U, 0xbc58e4423e487fe1U, 0x3d6d8174bc48d963U,
  0xbd84f739bdd746bdU, 0xbba6dd62bcb7f230U, 0x3da27e93bd804141U, 0x3d7c0a503da3d476U,
  0xbd9ecbc2bd88d096U, 0xbd4eb5663d89c66aU, 0xbda9c003bce19b75U, 0x3c4afff63e59a547U,
  0x3db60bdb3e151d6eU, 0xbc80c8fd3d692af6U, 0xbd8de98b3e25db88U, 0xbd56457cbe58acc8U,
  0xbd6c83413d9e4585U, 0x3d74c72ebd9ae12dU, 0x3d7be6ca3e4d9723U, 0x3d3ba8a4bc7939bcU,
  0xbdb7b42bbd933520U, 0x3dd876083e3168f0U, 0xbdf6a2f5bdc88424U, 0x3d937bf8bcf8d7e8U,
  0xbe7ec2be3d765d01U, 0x3d6535e13cd13ff8U, 0xbe0ae9c33e789f52U, 0xbd81c886bd65e88fU,
  0xbdc857483dfdb049U, 0xbda34df93e362642U, 0xbe9dde633e288408U, 0x3dbc697d3d8accb4U,
  0x3dd2cd5bbdc18dc3U, 0xbd789d0b3e41f26eU, 0x3dc2e87b3e23560fU, 0xbd3922e73d2b9585U,
  0xbd93f8b4bda95fa1U, 0xbd80d9b5bccc7cf4U, 0xbda49212bbced8bbU, 0xbb23c5d3bd4b7658U,
  0xbc16a66ebd38ff77U, 0x3dec7448bd28fbb9U, 0xbd0e4649bd9c7a47U, 0x3c63c0463d49e1d3U,
  0xbdc95d1f3d877780U, 0x3e3ee5283deb9341U, 0x3db4f61dbdc05776U, 0xbccd32efbd9bfe7eU,
  0xbd692802bd45e8f2U, 0xbc90d7ab3da77d6fU, 0x3dca1e4f3cbddc53U, 0x3e77e494bd321cbdU,
  0x3e105e563dbd176cU, 0x3d7122e23e4de89bU, 0x3e4827ffbc86a468U, 0x3c927b3fbcff773bU,
  0xbdaf02dd3bca4ed1U, 0x3df7c2ae3debcc1aU, 0x3e53cd383d19f6c1U, 0x3db1101bbcf2c2d5U,
  0xbdb2f673bc988812U, 0x3d86c7353e4004a8U, 0xbccee1013e748cdeU, 0x3d9a452e3e2d7676U,
  0x3d281aa1bb08079cU, 0x3db54a47bcc1609aU, 0x3e5747513e79de61U, 0x3da016993bf26190U,
  0x3d1a8623bdf69259U, 0xbd49f8f6be35be3aU, 0x3d6e0fd03d6e326bU, 0xbd5e1a8dbd106aa6U,
  0x3dcd190d3dcb764cU, 0xbe2bf49f3e3b7735U, 0x3db0fa0cbd9b3980U, 0xbb5821503d5efe74U,
  0x3e560bcc3e9d3e10U, 0xbd6c946a3e999cbfU, 0xbc8010f33d1f1028U, 0xbdfe4bd83d7b4382U,
  0x3df650363bf89157U, 0xbe097ff83e54e352U, 0xbe389f843c37487dU, 0x3dcf41fab94dd911U,
  0xbb87a67cbc391f79U, 0x3b4dd7043e0aea20U, 0x3e5b9ddebd153a05U, 0x3d240b1bbcabc543U,
  0xbdda513dbd32cec5U, 0x3da288603d94ad4cU, 0xbe0d5049bd045784U, 0x3e6967b13d062409U,
  0xbc4f7f65bd4f9caeU, 0xba27f1ea3dd91637U, 0x3d919d75bd53ca57U, 0x3e4e62e2bde2f860U,
  0x3e13cb1a3dab7108U, 0xbe4baf5f3cf78c75U, 0x3e2004ad3e29edb3U, 0xbd70d940bcaca6fcU,
  0xbce3b8cb3e665441U, 0xba1b41663cf5fda2U, 0x3d7768023c9e38fdU, 0x3ddd7f41bdbc969bU,
  0xbe14eb583d27bb6bU, 0xbe0094f03c8cfa14U, 0x3e5ce32bbe1f3e67U, 0xbe18a6fd3dcefdfaU,
  0xbd6ae6293dabafc4U, 0x3db12b0c3d16c7fcU, 0x3d801cc2bdd69210U, 0xbd736c4dbd7db729U,
  0xbcf7aff93e0e3434U, 0xbddbfa063e869646U, 0x3e277ec43e766d4cU, 0xbdbf7c8ebd30087eU,
  0x3e51255ebc693965U, 0x3e83a6c43e4faabeU, 0x3e00ea473c623227U, 0xbe3d9e0bbdac10f8U,
  0xbcb6d2d03e38b519U, 0x3cf2952bbd24fb0cU, 0xbdf298a1bdb41f6eU, 0x3d94fb2cbcbf46aaU,
  0xbd6f22f83cb5dfa7U, 0x3d0a5c253d83a0f0U, 0x3e83bd033e091568U, 0x3e4db767bdafbcf8U,
  0x3e74ccc8bd1b5e59U, 0x3e0ac43dbdcd9d89U, 0x3b189fd03d8d520fU, 0x3d43b2d83a9ce3b8U,
  0x3da7eee2bd8aa111U, 0xbd88d733be163e27U, 0xbd04a9c83df05b97U, 0x3dc04efe3d7984deU,
  0xbdbcbd4b3e6063e7U, 0x3d586ce43b2ce401U, 0xbb912f06bc9701adU, 0x3d851b793da9d6c1U,
  0x3d5b7bf3bdf3321cU, 0x3d1d25d73c53e58aU, 0x3d130553be38d25aU, 0xbdba39003baf2a56U,
  0xbb96ffc13d69a7b5U, 0x3e4524c0bd2646afU, 0xbe03b86c3d1c25d8U, 0x3df2f5e3bd80b722U,
  0x3d4ff5073d5c24d9U, 0xbcd08725be06fc59U, 0x3da85122bca6cc05U, 0x3dc53ff5bd0db89eU,
  0xbc0bf471bd2176a9U, 0x3e20db313de14f5bU, 0xbcdb79f93d66ea91U, 0x3e294828be01f318U,
  0xbda487ae3d38ece0U, 0x3d14d090bdef42d2U, 0x3e01f29b3e4d8e0eU, 0x3e35b6f9bd97425fU,
  0x3d908db6bd9b0edfU, 0x3dcc842b3cd8af27U, 0xbe01e9f53cfb05b5U, 0xbdcc7dba3dd7a233U,
  0x3d9508d5bda65578U, 0xbe64db86bd941170U, 0x3e50cd963e6ac664U, 0x3dbac3aa3d8f5caaU,
  0x3cc7ffdbbc013984U, 0xbd2edd7cbc15099fU, 0x3e3460abbbc7fe2dU, 0xbd0d506c3dd8718fU,
  0xbdba3ed2bc9ce698U, 0x3da922193d1045f1U, 0xbd85fa0d3c91990aU, 0x3dbbf536bd950535U,
  0xbd8fee27bd68ee40U, 0x3cba78a83d64a8f0U, 0xbd90bbc53de82fa8U, 0x3d474976bc901e8aU,
  0x3dbfdb01bd5f14dfU, 0xbe0e364b3e34e662U, 0xbdb387503d0aafe8U, 0xbd40b5783dae3fecU,
  0xbc4cbc65bd8c5819U, 0xbe5666f8ba26ec3eU, 0xbc90c5cb3cca2625U, 0x3d69900fbd16de16U,
  0xbd4d953d3c599e56U, 0x3de463723d04917cU, 0x3d4dfb6d3ddefeb1U, 0x3cc3a7f53cb1fb40U,
  0x3df31e253ab8bc65U, 0x3d9103b43c133753U, 0xbdf01d1c3d63d827U, 0xbd1356b1bc7f5f2eU,
  0xbe54ee583da2334cU, 0x3ceaa91d3e12aa43U, 0x3e005f1ebd8b552aU, 0x3db88ab5bd042ea7U,
  0xbde542373d48daefU, 0x3c7b17dfbd54c05aU, 0xbdaa7a053d625337U, 0x3dc283b1bd91f813U,
  0x3d8859913cb6d3deU, 0x3c763cfcbcc56ca2U, 0xbe2d6dbf3d9c7321U, 0x3e1640f93c9d3312U,
  0x3df065e73c2b197aU, 0xbd9d1af9bda10901U, 0x3e178c49be2bc606U, 0x3cac181abd6527f4U,
  0x3ded5be23cf1c5fcU, 0xbd76a56dbcd50f03U, 0xbd15e0b33d4fe691U, 0xbdb2e0003daa2722U,
  0xbda540733e5d6d69U, 0xbd8006703d2d942fU, 0xbdd79279bd9590d3U, 0x3cd4e7c8bdec68a4U,
  0xbc4601d93daa53f0U, 0xbdae1906bdfb057fU, 0x3d51484e3e3b7222U, 0xbd74276dbdf8a04aU,
  0x3e16fa7bbe67e999U, 0x3d2d745cbe854bcaU, 0x3aa3b1993d5d50c7U, 0x3d9666ffbe14e702U,
  0xbe0c336e3d1e0914U, 0x3be0d8683da2be32U, 0x3e2bcafdbe5b9308U, 0xbe01925f3da12bcaU,
  0x3a6ef3f4be1b4e87U, 0x3dc242d4bd6f8319U, 0xbd5a67c4bd7c5dc5U, 0xbdd2bca1bde0dceaU,
  0xbe035493bbf52b11U, 0x3ca0ee2abcab9977U, 0xbe18b54dbb814a79U, 0xbd48ff75bd25a320U,
  0x3d8c40a7bd0fb7ebU, 0x3d9e6de3be265d9bU, 0xbd82d8c73ced80dcU, 0x3d2eea1b3bb2063dU,
  0xbe0c421c3e5151f7U, 0x3e0121a7bc52033bU, 0xbc494bfebb8a5306U, 0xbc6caad43dd06cc5U,
  0xbd51f9293df1ffdeU, 0x3e0e33a13bf5aeaeU, 0x3df972c93c73505bU, 0xbd0315283d43520cU,
  0xbe0cf33dbd97a15cU, 0x3cd63a81bd6691f2U, 0x3d8105d13bed29afU, 0xbae0c853bdaa3fcaU,
  0x3cbdcdd5bcdc658bU, 0x3cc799e7bda23f7bU, 0x3e3b8f2b3cfadd18U, 0x3d9968f63d70ccb7U,
  0x3da714323dca2487U, 0x3d1f76fe3e01a3b1U, 0x3dfac2aebe5228beU, 0x3d3b7ab63e10fd4eU,
  0x3d8ef0a73d6748bfU, 0x3cb506003d1b111dU, 0x3d8d2caabd17f920U, 0x3ce2263f3db41574U,
  0x3dc740f3bc7e8aa9U, 0x3e1ddf883d5de116U, 0xbd0c79c4bdcd4c52U, 0xbc2cb7333dae63bdU,
  0x3da3fdcebe2bf33bU, 0x3e17dd0c3e208eb2U, 0xbd3fc5f73daddd7cU, 0xbddc28df3c5f0a96U,
  0x3d69c0bbbd42b080U, 0x3e19ac4f3dfd515aU, 0x3da4f8e9bb20656dU, 0x3d77f76ebe1d99edU,
  0xbd6b53263e2efe19U, 0x3e32e45dbe220508U, 0xbdb98501bdc6adbcU, 0x3d5c56d2bc2ce589U,
  0xbdae4fd0bd5c6146U, 0x3dbed27cbdc0b376U, 0xbd824dedbd468e19U, 0x3e0f2b7a3c2e26e2U,
  0xbd00fb853df83d3aU, 0x3cea96fa3cdff9d5U, 0xbe33a91b3dad1440U, 0xbb4988a33dd70f4dU,
  0xbe4c7f633e12fe7aU, 0x3b830fb63dc0731bU, 0x3e5509afbe488bddU, 0xbd8bfc493cf8d34bU,
  0x3e1ee00d3cfb8d82U, 0xbd7f599e3c86d84fU, 0x3df3166bbd36eedaU, 0xbddac9993dc81cf8U,
  0xbd95ecb03e33b424U, 0xbd7183dcbe1fb687U, 0xbdc6f07c3be9fc99U, 0xbdab5fc23e61a3aaU,
  0x3c7d444ebd5989f4U, 0x3d957b993d0026f3U, 0xbd0d8da73e38795fU, 0xbb4b1679bdfb3310U,
  0x3dfc603abde58707U, 0x3e2ed4dabdb3b55eU, 0x3e10e43bbc2d6facU, 0x3bb0cd65bc4a558bU,
  0x3e410b18bd21e001U, 0x3e178a673dd2b5c9U, 0x3e17d6953e7830f4U, 0xbde3b2a53e46d2c0U,
  0x3dec73aa3b542856U, 0x3d9065a0bd33652dU, 0xbdeb18eebe4483e4U, 0xbcad8af93d93f2e4U,
  0x3de469cc3d096d92U, 0xbd21d8e8bb6f2973U, 0xbb2ea6ef3d525f51U, 0x3d451b2e3e6e60b2U,
  0x3de5e6843e2005bfU, 0x3d18c2373d82c3b6U, 0x3bd0cf5d3d9c2179U, 0xbddda6c6bc0a781cU,
  0xbd573a5ebdf1c8e1U, 0x3d3a798d3d2b8a68U, 0xbd0ee862be19f8eeU, 0x3b6ee57bbc1f9181U,
  0xbe6c753abdd6504cU, 0xbd4206dd3dac3c1dU, 0x3d9a44f4bdf26bbfU, 0xbb065901bd8816d1U,
  0xbdbf6d35bdc7d3cfU, 0xbb3c05b93d582101U, 0xbdf612c5be3acf34U, 0xbd6015b0be543801U,
  0xbb016f8ebd0c165fU, 0x3d64c7b43ca85f80U, 0xbcc5fa5fbe17619aU, 0xbd83554dbd83a64aU,
  0xbd85008e3c74c3c6U, 0xbe81a03b3d8c8583U, 0xbd484ac13c22a4f9U, 0xbcd1a5cfbbddecfeU,
  0x3d107d11bda67f18U, 0xbd90f3ae3ca5fc4dU, 0xbdd1091fbdba90ceU, 0xbe1a8ce9bd0abff8U,
  0xbd12ccc8bc7bd394U, 0x3d29a608bcab6268U, 0xbe659a5fbd44242cU, 0xbdf90247bdbd4773U,
  0xbe7a8e59bdbf6c9dU, 0xbdae183a3ccbe22eU, 0xbd5ecb0539aebab2U, 0xbd5d7d91bdb83881U,
  0x3bf0ab78be967dd3U, 0xbd3398f4bd550875U, 0xbdb33e79be642397U, 0xbd231d0ebe29c13fU,
  0xbdb0c24cbe338028U, 0xbe49c6c23d40c90aU, 0x3d59d017bdc58afeU, 0xbe0657f5be052b7bU,
  0xbd88f1ce3bf9c984U, 0xbd5835c23c6e2b8cU, 0xbdc7d745bde8edf3U, 0xbe52b646bcb0e891U,
  0xbdde4854bda8692fU, 0xbd44d29f3cacbf1dU, 0xbc1bd8a13cd1ed6bU, 0xbdd10f62bcbac20dU,
  0xbd3671c8be0f062bU, 0x3ba7a7953ba6329aU, 0xbc22b32fbe0d8e68U, 0xbe643a55be3a51aaU,
  0xbdf97774bde9e8adU, 0xbd9ffd1dbdd660e0U, 0xbd156c85be2df75eU, 0xbdf0b29ebda3570eU,
  0xbdcd8186bdf11737U, 0xbe4274fcbd538142U, 0xbdfc91463c367743U, 0x3ca82a40bdb1df61U,
  0xbda0c1dfbd5f0aa8U, 0x3d2bb3ecbe3693cfU, 0xbdfdc3b3bd75db6aU, 0xbe0eec26bbbfa4edU,
  0x3da1e119bd1b0c5bU, 0xbe8baf19bd5db1d5U, 0xbe0f0a61be02dfcfU, 0xbe14bf45bdf117b5U,
  0xbd49e1a0bdc11464U, 0xbe1652aabe2537e6U, 0xbe15ed03be5a6785U, 0xbe0e85e03d28265bU,
  0x3dee7688bd1c266aU, 0xbe31fa37be44f6d2U, 0xbdc6f395be250738U, 0x3d81209dbd822fb0U,
  0x3e7ac06fbe1bcfd3U, 0xbd41576ebd08d2ddU, 0xbdf42ea4be43703dU, 0xbe0200a4bdebfbd9U,
  0x3d0f60a73d99ec78U, 0xbd14932fbe428d7aU, 0xbe5963183d96ab1eU, 0x3d5d9072be3341bdU,
  0x3d4f75d33dab9e20U, 0xbd85e25f3d38e486U, 0xbe52be17be91eb5bU, 0xbe2465773e1bb59eU,
  0xbe8e2405be2e9007U, 0xbd1775b9be111258U, 0xbc6d51aabe8c2c8aU, 0xbdba22a4be8a0d41U,
  0x3c19cbbfbd9e66a2U, 0x3d39750ebbe2714dU, 0xbd31b052be22149eU, 0xbd817af0be9f578cU,
  0xbe2798743df9d44eU, 0xbdee25adbd8f813aU, 0x3c9175f4be84c0cfU, 0xbe2b3e42bc921ca5U,
  0xbe39da27becafcd7U, 0xbe10f267be39ffceU, 0x3cb63ff5bc23b16cU, 0xbd805b18be39319fU,
  0x3cad11013d0b8229U, 0xbde67f15bde316f0U, 0x3d6191433e412cacU, 0xbe125777be110427U,
  0xbdf60dbcbdd55fd7U, 0xbcb077763d97dd2cU, 0xbe52b7fbbda55e6eU, 0x3cba3ad2bdbfb164U,
  0x3e33a37fbd8b18f1U, 0x3e0dab303e196123U, 0xbc8b8f163d84357cU, 0x3ddf0317be3c0c42U,
  0xbf06828abe8532d5U, 0x3d46a348be7f9001U, 0x3d3db869be8a741eU, 0xbcacf46a3d718176U,
  0xbda24955bd801f57U, 0xbc18a90bbdb2cfadU, 0xbe23ff19be92755aU, 0xbe908470bdc053c1U,
  0x3e2781c6be5a5ad0U, 0x3e2648a23c3adc23U, 0xbd3819b1be502802U, 0x3c11a21fbe134629U,
  0xbe31fcc9bee2cd35U, 0xbd80ba473aa2e8daU, 0xbd977a54be3af5c3U, 0xbc52fb143cc914deU,
  0x3ca799edbda12941U, 0x3de51e303cb29d22U, 0x3c18b698bcb5fb28U, 0xbd5d361abd915d28U,
  0xbde002a9ba982172U, 0x3d9765f53d0ba84aU, 0xbd6e6bd63db621ffU, 0xbc52cbd9bd7711b4U,
  0xbd60fb68bd22700fU, 0x3de33bc73e00a26aU, 0x3d39b2bb3daafba0U, 0xbd4aa0a8bd73b236U,
  0xbba96bec3d847821U, 0xbc99d52b3d128669U, 0x3c0f11c63d0b9b30U, 0x3c7af98abcf3f77bU,
  0xbce5076abd05269dU, 0x3d87c9733dd6b580U, 0xbd8ff4f53d97e916U, 0xbcd50b1fbd6baaecU,
  0x3dacfc17bdb7ea86U, 0x3c5d1520bd9f5b49U, 0xbd715ee43b99ce96U, 0x3d302bda3d0f5be5U,
  0xbd0653603d132e03U, 0x3c96fb5abc0bfbf7U, 0x3cbfd1763d80d79fU, 0xbd837621bddb6215U,
  0x3d9820153cbcc0b3U, 0x3bbc662cbc75522cU, 0xbd0ac29f3d173529U, 0x3d31e5f43d83e40eU,
  0x3d4e917abdc29932U, 0xbdc9194c3d834247U, 0x3d81c6fd3d2bcad2U, 0xbc62a5ec3de2b58cU,
  0xbd8a6e2cbd5e91a2U, 0xbc86afc0bd470b2aU, 0x3d09d90a3ddde847U, 0x3b3fd08fbd770536U,
  0x3c6475423d3600d1U, 0xbda502b6bd3be1e9U, 0x3d8979ddbce4f5e4U, 0x3c9c3b64bda3b8e5U,
  0xbd5a2f053c627087U, 0xbc9b5005bcfb2390U, 0x3d87d05e3e0d22a2U, 0x3c585f073d8fa5e7U,
  0x3dc46c0a3e04fe00U, 0xbd3a61213d8926bbU, 0xbce3bc073d8b651aU, 0x39eab7013d4067adU,
  0x3bdfe6aeba937589U, 0x3b20811bbcc5b28cU, 0xbe2739083d65359eU, 0xbd75e49c3cbdc0bbU,
  0x3ccd2d37bcf44f10U, 0x3d208d98bc5eb73cU, 0x3df25ba1bca16af2U, 0x3d43ea80bafaf7fbU,
  0x3e0137ea3d23818dU, 0x3d870ce43d2fa32bU, 0x3db2b2ea3d123cf1U, 0x3c9eb76fbbcb8910U,
  0x3e1d14c8bd36ffa6U, 0xbde084763e035a88U, 0xbcaacee73e33f442U, 0xbdc1901c3c2ea749U,
  0xbe5ce995bdd1dcddU, 0x3ca10518bdd34870U, 0x3d9d788a3cdbbb97U, 0xbcc497313e0e7e2eU,
  0xbdc3f3c8bda3931eU, 0xbc1f0d553e05a9ddU, 0x3d9163c7bd8849adU, 0x3cf5fa263e24b64bU,
  0x3ce51ae33e25267bU, 0xbeb274953dbf335cU, 0xbd6a8c113d6d9ff3U, 0x3d9771283b1eac93U,
  0x3e1e86a5bd71ab43U, 0x3d9768edbdd7df7eU, 0x3d5f3ff43b291bb9U, 0x3d9ada63bdc0b3c7U,
  0xbd7fa461bd915a0aU, 0x3bb3a7403dee632aU, 0xbe6d73ca3cd10e85U, 0x3d997a363cfa8ecdU,
  0xbe86e0cfbc65e03dU, 0x3d8da3663ddc0f6bU, 0xbe0f09cb3dfa78e8U, 0xbd9b769fbe3e29a9U,
  0xbdbb02d63dd8b2b7U, 0xbda7d1563db3bfd5U, 0xbdffa7fc3d50bee1U, 0xbdd1d31e3e2b45c8U,
  0xbcab6100be4bb4a9U, 0xbd282a5b3ddaa41cU, 0x3e041c43bbbb5d18U, 0xbe8fcc5dbdc64193U,
  0x3da693283d032a64U, 0xbcc5b85e3db3e335U, 0xbdefc751be1a2d66U, 0x3d6b6841bddb12f2U,
  0x3d375332bd894a39U, 0x3d4345663c932c82U, 0xbdf151a8bd489bcdU, 0x3cb7ae243da508dbU,
  0xbe7d80893cb97946U, 0x3acc2668bd97157bU, 0x3c8b8ea23c8067b4U, 0x3e0e28803c5e7ab0U,
  0x3dc663ddbd18554bU, 0x3d084f733df888c5U, 0x3dee443a3d81baaeU, 0x3e0511123d78f409U,
  0x3d2390403d891c58U, 0xbac2cfad3e2968eeU, 0x3e2562973c5e0059U, 0xbc28eb46bcf74442U,
  0xbe0d6bb33a1a8920U, 0x3e3ca9123da81625U, 0x3d6b83cfbc36e6e5U, 0xbdacf82ebdbc9cebU,
  0xbd0238e33c1ce593U, 0x3d9d87e83d98811bU, 0xbe17d90b3e812851U, 0x3e1602a83e208057U,
  0x3e2472c43d820a3bU, 0xbeac59913d459398U, 0x3e1f80eabca47073U, 0x3dfb8b4dbeab7e95U,
  0x3cf183663eaf8b7aU, 0x3e1a75313dfe63c4U, 0xbed52a3abf1fa2ddU, 0x3d81dd51bd6ae17dU,
  0x3ce28c95be1b37deU, 0x3d354f103de4fe52U, 0x3e897996bdb3d82fU, 0xbcda6c97bd9d3fdcU,
  0x3db736d23c1a6be0U, 0x3e15f3d4bd1bfc3cU, 0x3e997acc3e59f53aU, 0x3e58bb17bf226ea5U,
  0xbe1b1e62be5b9733U, 0x3e140e8abbc94b62U, 0x3d6669453dd5fae8U, 0x3e2f7d3f3e2c0594U,
  0x3e195cde3d6aa022U, 0x3d58b0873e865ce2U, 0xbcc5d5e83c457672U, 0xbc8c323f3df60f1bU,
  0x3e487c8ebee53379U, 0x3e8311a6be9c44e2U, 0x3ea6cf0ebe5f523bU, 0x3b9b7cb43cf9a3acU,
  0xbe7ed7cfbe3e09a6U, 0x3ec190cdbdb13850U, 0x3ee599303c3d0f89U, 0xbdc66d46bc869affU,
  0x3e20116dbe2c4472U, 0xbcd714d9bc92a2cfU, 0xbd37d83c3e83237bU, 0x3e6c5f2fbda434d0U,
  0xbe7e20fd3e9b8946U, 0x3d8ed3c5bf2ea344U, 0xbc7f98873f0567bbU, 0xbecbf7d0bc9478c3U,
  0xbdadc749be2050b1U, 0x3e9aa8903c60b477U, 0x3d1e571b3df7c8f9U, 0x3e408f8e3beb4c58U,
  0x3e685be6be89f30aU, 0x3eba37333dc581d7U, 0x3e48cee9bed22c09U, 0x3e92e7fbbd148e3fU,
  0xbd574ebc3d17249cU, 0xbe0b91ed3dc9a021U, 0x3e284097bc9533d7U, 0xbce104d33e17ea7bU,
  0xbe47db293e94ac68U, 0xbe8953ff3e8acb71U, 0x3da68c6b3ea3110aU, 0x3e2b84a9bc0af80dU,
  0x3e865b2e3e35b255U, 0x3d2d53983e4efac3U, 0x3e66938f3aa12a25U, 0xbe4478013deeb8f0U,
  0xbc03332c3dd8a7f4U, 0xbd5d3bfd3dfd5984U, 0xbd335686bde23bafU, 0x3e47ebbe3ec97296U,
  0x3da31af9be4f15d8U, 0xbddc68503e84befdU, 0xbea249ca3e6652ebU, 0xbe969a9e3c5adfc7U,
  0x3d70fcbabdfe8c32U, 0xbe168446be3149b5U, 0x3d3d478b3d97af8eU, 0xbd4cf818bcf576e6U,
  0xbdd41f403d978903U, 0xbdf474d63cd07531U, 0xbe0b5040be32322dU, 0x3dfc83cc3dcc5becU,
  0x3dd074c0be6df9a3U, 0xbde62323bd06b746U, 0x3ba0500dbe46b5cfU, 0xbe1a1a0bbd0189d8U,
  0xbd1488f23c330238U, 0xbc0bfe78bd613642U, 0x3d12d7e83d6d6947U, 0x3cc7f6aebe0a1a11U,
  0xbbc7b1343cfc0621U, 0xbd5add5dbe5aece1U, 0xbdb45d463de9798aU, 0x3de05976bd2f32baU,
  0x3a23fcb7be103193U, 0x3d28ee6d3dc2611eU, 0x3c1c4b1e3bbef350U, 0x3da2a749be8a06d7U,
  0x3d401262bdb4e1eeU, 0xbce5e0f1be04e672U, 0x3de0a26c3cae0db7U, 0x3db94fa0bd4e1601U,
  0x3d1c1898be489398U, 0x3d1d4f09be07b0cdU, 0xbcda56aebc023693U, 0xbe91f3d03c49be28U,
  0xbc889826bd6324fbU, 0xbebd9c71bd4559e0U, 0x3c544278bdb996aaU, 0xbda7da283db3c3cfU,
  0x3d931eb13d9d33beU, 0x3df304753da9c01eU, 0x3da2bd183deed3c0U, 0xbd3e4d5dbd0a2571U,
  0x3d4c54e5bc180b20U, 0xbd7ea8cabd813fbbU, 0xbe25fc25bdf38182U, 0x3c9d4ce9bd942925U,
  0xbe5802a8be432c85U, 0xbe0b3aed3d387a9fU, 0xbd7fc7ec3e033f8eU, 0x3c8844cc3d9fa17dU,
  0x3cb9a665be031b3eU, 0xbd9898bebb365cfbU, 0xbe952731be02df72U, 0xbdb2aa4dbd29aa8fU,
  0x3dd28ab1be4c4dedU, 0xbe3b75173d1c63e6U, 0xbda5e4acbd811c26U, 0xbbab9119bd6cfafaU,
  0xbdee6670bdc5fd83U, 0xbe987057bcd0847bU, 0x3d4ae7203d43ab69U, 0x3dce8f28bd8c53d2U,
  0xbbac317bbe57f430U, 0xbceefe6dbe0cb90fU, 0xbe61f6c7be24d919U, 0xbd10fb67bda18214U,
  0xbdce38ee3c9cae3dU, 0xbda13d24bd397731U, 0x3d5f8fddbc7a58f1U, 0xbcf86f593c7816bbU,
  0x3c89da393bbe477fU, 0xbe19d6b7be58adf4U, 0x3ce6dc6d3da1b858U, 0x3c8419993d7c4dadU,
  0x3bd92a8e3c3bfc27U, 0xbd7056303da6dd28U, 0xbd0f9c06bba48704U, 0xbe13a9ecbdb80ec9U,
  0x3cb07d083ce9b88cU, 0xbc22bb4bbd6eb837U, 0xbda9549ebdb5e671U, 0x3d20f3a6bd95c895U,
  0xbd629973bda39db9U, 0x3da8fda8bd8a824aU, 0x3c9d715ebc6a295cU, 0x3d40b66f3d391c7fU,
  0x3d2794063e0e62f6U, 0x3dc775d5bdb068e6U, 0xbc867851bb22b310U, 0x3d7454a9bdd167b0U,
  0x3d3f77593cf93c07U, 0x3da8c422bd40799bU, 0xbcfc9a1ebbaa6267U, 0xbe205924bd890540U,
  0xbbdb9c443d5825f9U, 0x3d291cf33c27d3f2U, 0xbcacef1d3d14f33aU, 0x3c6a7151bda3e87fU,
  0x3d7b03d5bd3f227bU, 0xbda56c163d7b92a0U, 0x3d4a6df1bd3d14e4U, 0xbd60ae52bd65c3ddU,
  0xbce6b78cbd8e5aa0U, 0x3dd75e35bdf805c7U, 0xbae5f5953d5a35d9U, 0x3d887498bc9b46dfU,
  0xbcc0326cbdaa22a4U, 0x3db510d4b99cc56eU, 0xbd1acc81bd4d35c0U, 0xbd931ba1bdc86143U,
  0xbd1e47af3d37818bU, 0xbc547687be132064U, 0xbd3947cbbd8db762U, 0xbdad3adc3c7c336cU,
  0x3d82af333d244adbU, 0xbd5ea41a3d672a9eU, 0xbd89ce67bd21d47dU, 0x3e0083743cf0d23dU,
  0x3d99b104bdcb5bbfU, 0xbd60d3fcbde54277U, 0xbdbcd1e4bc9ee94dU, 0x3cf192b1bd5bf801U,
  0x3c1b0c48bcf0da0bU, 0x3d36007cbd802cd5U, 0x3e0d17de3ca59516U, 0xbe2122a2bdf3758bU,
  0x3de9cfeebc49e574U, 0x3dfda45a3cebe252U, 0xbd743118bde3b4a2U, 0xbd90bf30bdd44cefU,
  0x3dafdcc7bd2a995cU, 0xbe26bc3abaeb58fbU, 0xbe0023df3d609346U, 0xbd09260ebcf81c65U,
  0x3cce73603d249092U, 0xbe1ca554bd228fa9U, 0x3cf8fdb6bb56a319U, 0xbb873c1abdf55770U,
  0xbd1ceffe3d1e717bU, 0x3d3abc82bcf46bb9U, 0x3d9bf19ebd9c1751U, 0xbce36fc2bcd02885U,
  0x3db22e503dcf2f81U, 0x3d47e7de3d086e4bU, 0xbd2e317bbd77d58eU, 0xbd50e8b83cc536eaU,
  0xbbe7a9a8be5026b4U, 0xbd0c7535bdc12e1dU, 0xbe1d772ebe4071aeU, 0xbdd21f00bd794710U,
  0xbdf9a16ebe01dbe0U, 0x3b8b78bebe0f9ba8U, 0xbdf1ee66bc6cd308U, 0x3dd13df73cc41720U,
  0xbcf11f3abde23e5cU, 0x3d2c4baebd996daeU, 0xbc9fb0dfbd14629eU, 0x3db705d23d0df2caU,
  0xbdd2ccb03d8d3decU, 0x3dcb2d7dbdc2fbabU, 0xbb73d7d43cc9c48eU, 0x3cddabfbbd62fdeaU,
  0x3dde9c503d0f9f56U, 0xbcdcdc263c0bdf1aU, 0xbc55a61bbaaad958U, 0xbd57b4d33dfe06b1U,
  0xbddd2b91be20698bU, 0xbd1a3379bdc802daU, 0xbd0873fbbddd84cbU, 0xbdc8b4033d208360U,
  0xbbf9f6353d6b378dU, 0xbb43f032bd14831eU, 0x3d4dd4b2bcd19c22U, 0xbd69749dbd3fa702U,
  0xbcf4c7bbbcd39d58U, 0xbd295b08bd823a1bU, 0x3cc55e99bd0f2eb0U, 0xbd9f9c87bdc53490U,
  0xbd9beafb3d1a98e1U, 0xbd5de322bcf48662U, 0xbc0a33eabded59f0U, 0xbd2433e8bdf32278U,
  0x3d4ff2b8be33e049U, 0xbdb978c03cd8fab5U, 0xbdeddba4bd5da14dU, 0xbc445caf3ce40689U,
  0xbdee2f90bdf18c2fU, 0xbd6f5349bc825c30U, 0xbbc94c4f3cc1a0adU, 0x3d7cc5813d5fa8e9U,
  0x3b7187903c54a72bU, 0xbd6c57eebce7ea76U, 0xbdb4b603bcd420c9U, 0x3ce0e0233d93cde5U,
  0xbd94e950bd39705cU, 0xbe1fef9abe0b0b2fU, 0x3ce09e9fbc5117e4U, 0xbe185cd8bdcdc481U,
  0x3e5cf0373dbdda32U, 0x3e12968dbe23df5cU, 0xbdfdff9fbd00c981U, 0xbd66f194bd395237U,
  0xbe600de3bef0213fU, 0xbd3a4e4d3e22abd0U, 0x3cffff14bdcc2a45U, 0xbe3ac820bc133326U,
  0x3db439c7bdaffceaU, 0xbe302965bbef8d3bU, 0x3e7d1906bd9d88e1U, 0x3d32a3c63d0aa3eeU,
  0x3c45afd83ccca511U, 0x3d914ec9be9e62a5U, 0xbd6a1941be1d9c0dU, 0xbc051f3fbdb164e6U,
  0xbe2643debc1b45d4U, 0x3cb3bb2abd373177U, 0xbd90ceacbc4b0821U, 0xbccd1e263e87ff52U,
  0x3d85d1cbbe293de9U, 0xbdf6c070bd684556U, 0xbde37596be78585cU, 0xbc3fe6083d0f3b99U,
  0x3cf29840be992e2eU, 0x3e829a113de7b007U, 0xbe8a313fbe9192c7U, 0x3d6143eebe8ae470U,
  0x3dcc7c12be1b7fe8U, 0x3e013e50bdb90435U, 0x3e27fd3fbe7f5886U, 0xbe2af73ebd9e510eU,
  0x3ddd88bebde5c739U, 0x3cf2f4eebe19ea7dU, 0xbe613b8e3d0d7a83U, 0xbe19aea4beb60db9U,
  0x3d1e2715bd2faacfU, 0xbea3a30dbcb2f8d1U, 0xbe4f10fcbe8624dcU, 0xbd89b21b3d187077U,
  0x3d841117be112762U, 0xbe173a943b8017b8U, 0x3ccd6c0bbe8f1ce9U, 0x3d2b9c593dd7b611U,
  0x3c7e1526beed7a90U, 0xbd5dec8d3d40ad6aU, 0xbe5e35203e139498U, 0xbd480b703dadae22U,
  0x3cb926adbd88d6c6U, 0xbe329bcf3b939e98U, 0x3d950cf23e319d02U, 0xbddf38cb3c1fc402U,
  0x3e4e6e523c69a3a5U, 0xbe0d2a02be0990aaU, 0xbc8211b63d34c166U, 0xbe06fcac3d0afad9U,
  0xbaad27fbbe4e54d3U, 0xbde56ee13d643b67U, 0xbe6fed873dd12e02U, 0x3e07df52bd42965aU,
  0x3e23e4a4bcfc117bU, 0x3d8d6e153db9efc4U, 0x3d7c0b60be9b2ae3U, 0xbd21942d3daa104aU,
  0xbd91f1193e1dd175U, 0xbe37f329be2234ecU, 0xbe37f9adbe21db3dU, 0x3ded722f3cb31896U,
  0x3e177621bdaf2a41U, 0xbda608173e25632aU, 0xbd922f01bd7ba2bcU, 0xbe03bd4abbfd9f96U,
  0x3e15a8a2bd30b91eU, 0xbe361fe73b7c4ff1U, 0xbacbde9ebe049799U, 0x3d78382e3d8c27c8U,
  0xbc6355ccbe033a8cU, 0xbdf6c6ce3df2fd4fU, 0xbe2dc81dbbdbaa6cU, 0xbe2a6a1c3dbce6faU,
  0xbd88e0e53d1c02d5U, 0x3dd430923e1b907fU, 0x3c6c0af03e2dcb5fU, 0x3dfa2282bdf9fd44U,
  0x3dca7cbc3e0c4542U, 0x3dffccd33e6c25f2U, 0xbda7d0a4be03b69eU, 0xbdd1b0343e85440eU,
  0xbe16618fbda9e7c7U, 0xbe1f47dbbe1ef1bcU, 0xbcad2f24bda091f6U, 0xbc1cddefbdacad93U,
  0x3e0529703d63bcdeU, 0x3e37c698bd99e074U, 0xbdad8001be33ad65U, 0xbde942c3be2235c3U,
  0xbe9131bf3ca1d2bbU, 0xbdbb052cbd6975beU, 0x3e1746d3bdffaa18U, 0xbdae754b3e1760e5U,
  0xbe2f30c3be2996b6U, 0x3c98f26c3d862e43U, 0x3e530fd23c42ba05U, 0x3bc39ce8be16b8edU,
  0x3d48cbf13e69c6fcU, 0x3c0749f93e34377dU, 0x3e3ecbda3de8cea1U, 0xbde1fc25bc353e5bU,
  0xbe84603cbe15ffc2U, 0xbdd730a43e26cc29U, 0xbcd5ff00be43ea6aU, 0x3d9fe9a63da75897U,
  0x3d2bbc6a3d9f2900U, 0x3e1a2b4b3e08cd3bU, 0xbd211a2f3d9446adU, 0x3d64d5e53d72884eU,
  0xbeac9eb1be2afa5eU, 0x3d97ac33bddc21e0U, 0x3e80dbd7be2ae2cfU, 0xbe1f673a3e1a9288U,
  0xbd0554b23d9e066fU, 0x3e41216c3dbd6db0U, 0x3cb0c7b6be517883U, 0xbe20db1fbc8a67e3U,
  0x3e80628ebc6b273dU, 0x3ddb4055bb8bf30dU, 0x3c86dbcdbdc069afU, 0x3bc2ddd73de2749eU,
  0xbe5d33fabe83ac49U, 0xbd8681dcbe3d6d47U, 0xbda211eebddbf6baU, 0xbd2988a7bd95247cU,
  0xbd9f1802bbeddf1eU, 0x3c322c7cbdbc03d6U, 0xbd2795e13d894bb4U, 0xbe0926f3be1eecafU,
  0xbdea96233d113e9cU, 0xbd82f82cbbbf7fe6U, 0xbc856c69bdd4ea69U, 0x3d3b6d4dbd5398e6U,
  0xbd9a9c32bdb2a6ddU, 0xbd2f34e0be08f0edU, 0xbc69aaa2bdd8be10U, 0xbdc6518a3d80ffe3U,
  0x3d77eec6bdac39a2U, 0xbdbaa5633babcd2fU, 0x3dcd688abe2f1722U, 0xbcb8e8913d890231U,
  0xbe183d503b73b798U, 0xbd34718cbd85afddU, 0xbd860419bd377ac8U, 0x3d6dcfd73da9284eU,
  0x3cf02de9bd9540d8U, 0xbd2673e03cb9a398U, 0x3cff17643bbaf32eU, 0x3d038b7b3d9db33bU,
  0x3a3189bcbdf71a48U, 0xbdececd4bd31c8c5U, 0xbdfa27f538548b76U, 0xbdadc595bdc6d9ecU,
  0xbd08162abc8c9a3dU, 0xbc92fadc3c2e1d89U, 0x3e53ec6f3d5c2db0U, 0xbc5088b6bdb305abU,
  0x3d81cda6bd6d7283U, 0x3d0fc3a3be2952cbU, 0x3c8799283d87d538U, 0xbcef207a3d44fdd9U,
  0xbe66a1d4bd16d908U, 0xbc9e8e7b3d0beb04U, 0xbdf647703d9b6e8bU, 0xbe60b967bc226c21U,
  0xbdf12806bd0dc2ecU, 0x3c4a0b65be3e2854U, 0xbd1351453e14f69cU, 0x3e1776b2bd929a8bU,
  0xbe0d5d1d3df0ce42U, 0x3dbdea213c48a523U, 0x3d6a9672be0d06edU, 0xbd84f211bb3f2d06U,
  0x3c57cc063dcb806aU, 0x3d218e38bdef4202U, 0xbd06bef3bc7dcfe4U, 0xbceed085be3b3d92U,
  0xbcc2d356bd0aa542U, 0xbdfb406fbe0a53aaU, 0xbd27c9233ccc6b7aU, 0x3cc3ae513be4f50dU,
  0xb9ed277bbd9873a9U, 0xbcff3ed93e0222cfU, 0xbd114c0cbd565ff6U, 0xbdb66c1dbcaa9a9bU,
  0x3d8b1c91bc56f0a3U, 0x3de7fea5bdc0f6b8U, 0xbe3825bb3daa42e3U, 0xbb3104aabc9039dfU,
  0x3bb1a88cbd14ba16U, 0x3d0e83743cf10ac4U, 0xb9be76d23d636851U, 0x3d0cd13cbdf3a3c1U,
  0xbe3f9646bdb0374fU, 0xbd844033bad5bc9bU, 0x3dbd8a3bbde7b536U, 0x3d812b693c85f8c6U,
  0x3d462d3bbe0891b9U, 0x3d03fe0b3d86ba9dU, 0x3cecdc71bdcb9d38U, 0x3df8140d3db30744U,
  0xbd590f64bd882bc8U, 0xbc4a3008be06c8e5U, 0xbd6a85f2bdb0cea2U, 0x3cc7ef7cbd1f49a6U,
  0x3d935396bdbda5c6U, 0xbdf70151bdf4f428U, 0xbdb55e4a3d42d386U, 0x3c81f170bd1f2736U,
  0xbc39b21dbdc2af4fU, 0xbcd239c03cc09711U, 0x3c8662e0bd45d0adU, 0x3de1cf283c9ed4deU,
  0xbd92109ebc681e19U, 0x3d92a7dbbdc050bfU, 0x3c4104563db0a061U, 0x3d65e402bd05619cU,
  0xbe323531bda8abbbU, 0x3c8e3073ba7add10U, 0x3d677255bc9d148aU, 0x3d90461c3d4bef73U,
  0x3de37a90bcfe08c3U, 0xbda48c9b3e15c3d8U, 0x3d81814fbd70863fU, 0xbd3aaf603c9af349U,
  0xbd94360bbd685758U, 0x3c9d5041bbdc3186U, 0x3d4c6012bd69d8d6U, 0x3ca135c3bd029e80U,
  0xbdf1d94ebde01c23U, 0x3c56554ebd478448U, 0xbc7f77e0bdc7354dU, 0x3b5b3c83bd76aac7U,
  0xbe2bbf893ad305b0U, 0x3bd3eba83cc4c2d6U, 0x3dcb1dc5be3ab2c6U, 0x3daa0d9ebe03cfcbU,
  0x3bfca0573d1cd344U, 0xbe02348a3d7f6e1bU, 0xbdd93bbebd9f375eU, 0x3d104cb23b416debU,
  0xbda3c8bc3e06e66cU, 0xbd9a99963c9a760eU, 0xbd45d37ebcbae93dU, 0xbcfbeea0be0fe2faU,
  0xbd4183c7bd7fd038U, 0x3d4fd99abd5b63c4U, 0x3d8870603dba66a1U, 0xbd215b4fbdac7342U,
  0x3d50e8033daec549U, 0x3bbe6d1f3dffc85fU, 0x3adc3f13bc30f8c3U, 0x3de4f1ed3cf56d62U,
  0x3de4b3963de1df1fU, 0xbca52c923cbaf30fU, 0x3bdc16d03d4a89aaU, 0xbc71b408bdb934b4U,
  0x3bae3bbd3daeb0aeU, 0xbd65674abd3e0952U, 0xbe2ce432be9fc17bU, 0x3c05c2a13d977598U,
  0x3c44bfd73c9e3db6U, 0x3d313f4ebd8a2641U, 0x3d64e573bdb66b87U, 0xbdd9764dbd0bfaacU,
  0x3db8f8acbd89c995U, 0x3d5d033fbe184723U, 0x3c0c3779bdf32066U, 0x3c2dccd3bdf55c6aU,
  0xbdfd3de6be0dd5c6U, 0x3c3325f5bca8bd5fU, 0x3d18f5bd3a999939U, 0xbdd7f7e53cd1bfd5U,
  0x3d1e4adf3ba64745U, 0xbd28b37c3d054457U, 0xbd0a705a3d1987c1U, 0xbd9662c9bce065b4U,
  0xbd788b0abd9d4fbcU, 0x3c307afd3d4f7810U, 0x3c421282be236c1fU, 0xbd588a293dadb6c9U,
  0xbe22564dbc922080U, 0x3d81422bbda2b3d4U, 0xbd8cd152bd709ee4U, 0xbdaf0505bdd314b1U,
  0x3af9b077be2af059U, 0xbd7978eabe0badd7U, 0x3d3a92f9be1052c1U, 0x3d90b231bd19be61U,
  0xbe577d03bdc2b421U, 0x3d2199bfbe322bfeU, 0xbde4a355bb487c90U, 0xbe4fc7843c8c8f8eU,
  0xbd9c57a2bd3e604dU, 0xbe1a2afc3ca965eeU, 0x3c31207f3ba4a00fU, 0x3a1f7ffb3d18258bU,
  0xbd45ca2ebdfb579cU, 0xbde3985b3d85926aU, 0x3ccf73c9be658409U, 0x3c8457cc3cace6ffU,
  0x3e0bce71bd3b4d08U, 0xbcbf76a6bb8448dbU, 0x3b50f5343c4726c1U, 0x3d651bf6bae86549U,
  0x3c8f1269bd0e4434U, 0xbdb92cbd3d948ba4U, 0x3ca5a2f7bd454db4U, 0xbd873925bd98007fU,
  0xbd3f2b8ebe17a5a5U, 0xbe5af362bdd768ecU, 0xbcef84c8be1b19a0U, 0x3c272a04bcf82091U,
  0xbdb6230dbd42fa13U, 0x3dcf4b00bdf04183U, 0xbca23384bdd1737cU, 0x3d4e9feebd00cca9U,
  0x3e2b9225bde53002U, 0xbda8ca433d72d393U, 0x3b2a23613cdb8236U, 0xbc96b15f3d074a1cU,
  0x3c6df6a03d69ff10U, 0xbd02e7bdbde0b064U, 0xbc93f323be1e7db4U, 0xbe21c546bdc19293U,
  0xbdbddb28be1a0ac0U, 0x3c06334c3bbec14eU, 0xbdca4ff2bd8cc44bU, 0x3d4616263cc5f892U,
  0xbd263d03bd9fdcc5U, 0xbd71a4c7bc08b41aU, 0xbe512a1ebdbf1bf6U, 0x3dd681b6bc6f4cfaU,
  0xbd0d4da7bd633238U, 0xbe1aeb1abce84685U, 0xbd817f1abdd26befU, 0xbb9aae1d3d122387U,
  0x3d00bf8fbc245030U, 0xbda217233be585bfU, 0xbc289a413c9e3d49U, 0x3d82b4fb3ba19d61U,
  0x3d29b94f3ca7b39cU, 0xbdde68ae3cbed30dU, 0xbd55e956bdb71cf5U, 0xbc0280d93e232458U,
  0xbd105c7b3b1a70ebU, 0xbd1268c7bd3657b8U, 0x3c213c86bd2a7f0aU, 0x3d2fe7a4bdc110deU,
  0x3d29d7a63db3ba45U, 0x3cc89f35bd96aa12U, 0x3e0cb035bdf18d0bU, 0x3c5394fbbe28c790U,
  0xbdbdbaf7bd963c34U, 0xbb0b931c3c21fb77U, 0xbd4b48d5be2f671cU, 0xbe180699bb1cc687U,
  0xbdbd0a0bbd93d1c0U, 0x3db75b5dbd1d8712U, 0x3a2c1a15bde81fd2U, 0xba89ce1abb68f043U,
  0xbd12057fbe30fb01U, 0x3d011670bd0f510eU, 0x3dcf4a80ba0787c8U, 0xbdbefd08bdbb6c7aU,
  0xbd70f24b3e0f58a4U, 0x3cac5ac1bd9eae2dU, 0xbd5171e63d91ec92U, 0xbd2a9c2fbd411e8fU,
  0xbd01f2b9bdcaf9a4U, 0xbd031ad93d359129U, 0xbb94451a3c466861U, 0x3cf4a20abda034efU,
  0xbd7eb8f6bda70337U, 0x3d2e145bbd8e8707U, 0xbdaf1039bbed8f49U, 0xbd2bfd93bd7fa9b3U,
  0x3d0bb9afbd1e2aa4U, 0xbdd160d4bcced719U, 0xbdf55ecdbd528c94U, 0xbe173d31bd270d24U,
  0xbd99fb30bdba94a4U, 0xbe25f788bdb83057U, 0xbd3473b83cde3febU, 0x3cc2a38fbcb7a18bU,
  0xbe81c98e3cd0a479U, 0x3b5fc1f33dab4597U, 0xbca74aa2bdb2c582U, 0xbcfa6f26bc37beb6U,
  0xbdb1c8bf3d1ca363U, 0x3dc7393ebb0f6f0bU, 0xbd668f693d5cf952U, 0xbd5d6fb23c7a7a37U,
  0x3dc24548bcfd6a62U, 0xbd1e8a5f3d1c565fU, 0xbd707908bdc21b40U, 0xbde5c53dbe001961U,
  0x3d23758d3b572a63U, 0x3d46e9b9bc33bb84U, 0x3bc44b77bd11870cU, 0x3b86fa673d7e3c47U,
  0xbbdbce67be35dac5U, 0xbe2e7641bc1cbbfcU, 0xbe525daa3d8f2a03U, 0xbc852ad93db143d4U,
  0xbe154a99bcea58c3U, 0xbcf17d1fbcab7445U, 0xbe47f5673d81a3acU, 0xbddcb05fbc2a73ebU,
  0xbe25ac3a3d4345d1U, 0x3dafbe36bcf66d5eU, 0x3cef0cbebcb420e1U, 0x3d462e3b3d3d95f2U,
  0xbdf88e06bda91179U, 0xbe17444bbd8ed6f5U, 0x3d1218b43c929484U, 0x3d2f03cbbe185103U,
  0x3d25651bbdf2ee14U, 0x3c1a7754be4fc1bbU, 0x3ddfd3e0be13174cU, 0x3d89aa5dbdc60118U,
  0xbd17cad5bd5f0df2U, 0x3d9230dd3c9e9886U, 0x3b52ae5abe074171U, 0xbe303dd0bde8713aU,
  0xbdef2d72bd443171U, 0xbd7840abbce95d08U, 0xbdfec1d33d3af1e5U, 0x3b0aa0f2bd2c561eU,
  0x3c3d155e3c850843U, 0x3c6d7133bdb7a4c1U, 0xbdc5c7aa3c21f457U, 0xbcd484f83d850a1fU,
  0xbe591345be5e00ddU, 0x3c930b293a8f69c5U, 0x3d5fbffa3db27fe8U, 0x3c44e8cfbdf5e6dfU,
  0x3a843f903e20ab27U, 0x3db2b65dbe1da5d5U, 0xbb983f16be105043U, 0xbd5d3a76be6aab40U,
  0xbb414414bd1618cdU, 0x3d588c48be67a284U, 0x3da7ac33bc0a572fU, 0xbc3a5c263e2c7ba0U,
  0x3beddb94bde20495U, 0x3df9b88bbca78b00U, 0x3cdcb9193d13124bU, 0x3e24f74d3c79a4e1U,
  0xbd929d173d46b13cU, 0x3dd1f6f63da678c9U, 0x3def399dbe51d076U, 0xbd02c7cb3e249f96U,
  0x3dbd29633e101063U, 0x3e16a9c23d6371abU, 0x3ca05bdebd735f71U, 0xbc946decbcb73905U,
  0xbd9ea298bd04517eU, 0xbdbaeaf13b179647U, 0xbd87f7273e059008U, 0xbc171f763dcd4bd1U,
  0xbe7b6115bc929d7aU, 0xbe34762d3e649527U, 0x3d84d2503db3f0f9U, 0xbbaedbb33d6190a1U,
  0xbcdd7a273e41a80cU, 0xbe891888bd29c654U, 0x3db54ab13e408b87U, 0x3dbdd7ae3d72b4ddU,
  0x3d9de32ebb9b55d3U, 0x3d871a1abd153c2fU, 0x3dbcac263ddb5852U, 0x3db64d9f3d013778U,
  0xbdbce3edbd65ab6dU, 0x3d79a79c3be8d0d8U, 0xbe2959343d074e81U, 0xbcad293a3d37aedfU,
  0xbd99c7d23de1cbebU, 0xbd15c9fa3c9ab530U, 0xbd54bffc3e2567b4U, 0xbc3c05c73dd93c43U,
  0xbe3b30823e403a78U, 0xbb8199ad3dbad439U, 0x3d9315e2bd941cc7U, 0xbded496f3de88c7fU,
  0xbcc979f43dc7b70fU, 0xbd39154cbbed3580U, 0xbda4b19c3d1e2efbU, 0x3d042c82be07e754U,
  0xbda93252bd6ad091U, 0xbd663efabce14b87U, 0xbbd1ee6ebdab55a1U, 0xb970ca56be08bbc5U,
  0xbd9f8c04bcd93833U, 0x3df7ed4b3dcdff72U, 0x3be9e98ebce6a702U, 0x3df7793c3d5efb88U,
  0x3d1db935bccbefc6U, 0xbd8603f8bc37de20U, 0xbe176d06bd5b87ecU, 0xbd504c2a3d8d9367U,
  0x3e1204c83e0a308cU, 0x3eaa2d69bcb81eebU, 0x3dcf8248bd23407dU, 0x3cd723573df61d9bU,
  0x3b4904703e12296eU, 0x3d16419f3da2579aU, 0x3bd10e02bd3a9b16U, 0x3e3223b13d752196U,
  0x3e09bf10bd6d624eU, 0xbb902df43bd66966U, 0xbd5f100a3c9cf285U, 0x3d8013fe3cff17dbU,
  0xbbad59eb3e0f25d8U, 0x3e29cb9a3e674eabU, 0x3d1ddcd5bdf585e0U, 0x3e075e233dceca0eU,
  0x3d155143bde1ef36U, 0xbb9632aa3a999f79U, 0xbe1d7d3dbda87ac9U, 0xbb044a18bdeebe0dU,
  0xbe501c1cbd055fb8U, 0x3ccf3f4fbc9eeee0U, 0x3ba14b9ebd84431bU, 0xbe177b8d3e6d304eU,
  0x3dec7f28bd160870U, 0xbdb32b99bd1ccc26U, 0xbd1af9703e8feca1U, 0xbda85cfd3e687f49U,
  0x3d3e50213e332a14U, 0xbe0c64f0bde3ec6bU, 0x3e46e35cbe420167U, 0xbe4659be3e9c2890U,
  0xbd77ff703cf58c45U, 0x3e9d619fbe7bf9e0U, 0xbda359b0be3e8498U, 0xbdea42fabcf3da7aU,
  0xbb611c03bdcfb71aU, 0x3db020f7be1738ddU, 0x3d6c8c06bd8d92c6U, 0x3e8c1f35be6b401dU,
  0x3d6b2ed7bc965f1aU, 0xbbdcc342bd2811f9U, 0xbdb5489fbd0c9f5fU, 0x3db53f083e183f19U,
  0x3db0a2fdbcc0310cU, 0xbcc3c953bd32ccb4U, 0x3c9f42d63e551ed7U, 0x3b7c977c3e311579U,
  0xbcaa862e3e69bb89U, 0xbe0366933d4ba2efU, 0xbe6f1bf83e615e53U, 0xbda1301cbceeb57eU,
  0x3beb7d16bda238beU, 0xbd1e40123d4b2608U, 0x3d37a9493dba6728U, 0x3d85ec293e079096U,
  0x3e11870ebdffc366U, 0xbd45125e3dc0f935U, 0x3cab596d3d6fce79U, 0x3dfd2ef43c7119caU,
  0x3dd26cb0bd6f378aU, 0xbdb070ddbd843cb3U, 0xbe56b67f3c82c274U, 0xbd18a5143e9ab27cU,
  0x3d7bba633e5ef0d7U, 0xbe2e3ba4bb876066U, 0xbdbd6b533dc7e626U, 0x3cbb6e03be1ad0e8U,
  0xbd961a1a3da1c76dU, 0xbe07bbce3d3e7925U, 0xbd54381b3eb0fd91U, 0x3e189d1d3e006e50U,
  0xbd52a49f3d0cac55U, 0x3cc8fcaabd7c6d3eU, 0xbda0da6bbe212ac3U, 0xbd6456623cb80448U,
  0xbd4539e43db28738U, 0xbddaa1dcbd3fbe74U, 0xbd4fba493cbe4166U, 0x3e5bc9553de9a86eU,
  0xbe1e69b23dbf3a4aU, 0x3e270ba3bdc7aa3fU, 0xbe3e08123dd3f79bU, 0xbd9363783dfa3342U,
  0xbd4f79b43d888466U, 0xbe29dab0be39c91aU, 0x3d9be2c8bc413e8eU, 0xbd6c5b25be328f58U,
  0x3db6e7da3d96b643U, 0xbd8778acbd99152eU, 0x3db4d0e5bdb71186U, 0x3e0db3fcbcc9d3acU,
  0x3e54eafe3ded873aU, 0x3d554c033dcb6d6fU, 0xbe5e065c3bf0c76bU, 0xbd64e3483dae9ffbU,
  0x3cc474a43e25d43cU, 0x3e08ecad3db997b8U, 0x3e15b5663dac3bf0U, 0x3d004d7f3de42715U,
  0x3d106d19bd146412U, 0x3cb089b73d38ef76U, 0xbd48d8d13d61321eU, 0xbe0e12c93d2658d1U,
  0x3cd2f1cabe0983cbU, 0xbe793e3fbd624686U, 0x3dcb9b3bbd051dc7U, 0x3d62017e3dcdf933U,
  0xbdb2f70abd905099U, 0xbdbd11773d81a0faU, 0x3c9adf0a3d04a1b1U, 0xbe2f11d63caa1a5dU,
  0xbdd9c09f3da198baU, 0x39dcd6b93da50c33U, 0xbdaff7a9bbc6f3bfU, 0x3e19edf23e261187U,
  0xbe3d9562bd17edf9U, 0xbb0915293daa8609U, 0x3d0bdcf33d7553dfU, 0xbcb364893c193b5aU,
  0xbd441de13c5afadcU, 0xbe2ee480bdb82116U, 0x3da6998e3e1eaa30U, 0xbdffa881bd3d0754U,
  0xbb1718c8be237d82U, 0xbdc9bf463dd9f0b4U, 0x3e0aae64bc31dc68U, 0x3d7cb674bd0d7f95U,
  0x3e82f9cd3d31c1c9U, 0x3e0e0123ba8d5a79U, 0x3d8138a23dedefa4U, 0x3c94a1183c510cddU,
  0x3df44c143d1b8d80U, 0x3d2c58a9bd80f12fU, 0xbd0ef0503de04f22U, 0x3dad9b7b3cac67f7U,
  0xbcd506aabd7d7faeU, 0xbcaa41cabd2561dcU, 0x3e1ed7f6bdea56b6U, 0x3e025c963b13694bU,
  0x3de15244bdbcf3cdU, 0xbc0c957e3d48f086U, 0xbcd8b4e53e436e35U, 0x3d8870163e48e780U,
  0x3d6fd6fb3e3cc528U, 0x3da326c43c45e038U, 0xbd9a2e34bd10006aU, 0x3cc3bffb3c5f98d5U,
  0x3dd7243b3cbd6e7eU, 0xbd90f8b23d82a7beU, 0xbd4a2833bdd2f2bbU, 0xbdf24802beb41ea8U,
  0x3d5f0c0a3d7f65f8U, 0xbd59093cbc77fb46U, 0xbe3ead1c3ce10c3dU, 0x3e3efc76bcc5234eU,
  0xbd62cc6bbdfcd172U, 0x3e0921a83da4c1e5U, 0xbdb5bcf63d23b324U, 0x3e19667d3e0681e2U,
  0xbdf71b87be3e0deaU, 0x3c675f0abcc61591U, 0xbd9112b43ca845ecU, 0xbcaacb6ebd0b70acU,
  0x3d51bf533c8b7b65U, 0xbc82dea53c88b310U, 0xbdf6c4773d9445caU, 0x3e226c7abe4a70e3U,
  0xbd89481d3da49361U, 0x3e425830bdaf1843U, 0x3e698a963caa41f7U, 0x3e520e24bd88bf5cU,
  0x3c95d1793e070adaU, 0xbd850c55be29c19bU, 0x3df065cdbe11303cU, 0x3e9c20c1be161c8fU,
  0xbce59d083c529cc6U, 0x3d9137ed3b4db58bU, 0x3d3313683d32884eU, 0x3e001c133e01d6e0U,
  0x3d2a905fbe21bc8dU, 0xbd449d973e4155abU, 0xbdbf1881bdcf3cd2U, 0x3da91155bc6683c5U,
  0xbc46ea98bc1059d5U, 0xbe03bb62bc063caeU, 0xbc374e38bca3a106U, 0xbd3540cd3daa27ffU,
  0x3dd1afa5bccb89e3U, 0x3e4d06d7bdbf45f0U, 0xbad0b2073da78417U, 0x3e01c79cbe90e315U,
  0x3cea2ddebc30f5a4U, 0xbe3560053d04d790U, 0xbcfd39653d47d0b2U, 0xbd7990a0bcd455ceU,
  0xbdf76db7bd81bbb5U, 0x3db529f2bdc6f288U, 0x3de3bdef3d023734U, 0x3e051e983ce87a26U,
  0xbbb7ae00bd0ce198U, 0x3dda81dd3e256d59U, 0xbdf147fb3de2c008U, 0x3e01827fbd9d5428U,
  0x3d79a2cfbd509e8fU, 0xbe7f62893d1d92d5U, 0x3bcfa790bb8e0c9fU, 0x3d7d2b25bda9f3c7U,
  0x3d49022e3da40261U, 0x3d6a8766be955379U, 0x3a15e3f93e995137U, 0xbe27072c3e1cab75U,
  0x3e12c0c7be30f55aU, 0xbd96e28dbda7bb42U, 0x3d3f1896bdb19f2bU, 0x3e1452303dbb69bcU,
  0xbc456ef5bcdc4f96U, 0xbe48cda53d8794a4U, 0xbba3fe3cbe09ab9aU, 0xbeaabd2cbe2768a1U,
  0xbe04a0213e52e181U, 0x3df220923cf3ec41U, 0xbe9c018abe1f4ea2U, 0xbed6a23fbdc90c15U,
  0xbbc0f1d63d8be7edU, 0x3d5924323dcdd06bU, 0x3d040acf3e28a58aU, 0xbea73481be2af2eaU,
  0x3e165b713e61f641U, 0x3e2d2507bcfde3a0U, 0x3e3f109bbda9238eU, 0x3d9fb9d33d8bd0dcU,
  0x3dd876483d92b2d4U, 0x3dd53daabe08223dU, 0x3cbda6f2bc55d399U, 0x3e0593293e11d247U,
  0xbdd4db30bc0b943eU, 0xbd83255a3d208a98U, 0x3d070c4dbdc24377U, 0xbe053f263e407ce9U,
  0xbc3362283d408852U, 0xbde306393d9ea859U, 0xbd9f08353d81e772U, 0xbe08a1a6bce7e4fcU,
  0xbe1ba2c6be0269e2U, 0xbce3d2c6bc2d5114U, 0xbd135ba23e067e54U, 0x3db404c73e39d846U,
  0x3cc41fd03e0cfdf8U, 0x3d6df59dbe5ee26eU, 0xbcf65d52bdfb984fU, 0xbd53d045bd88c912U,
  0xbd5b502cbdcf2b45U, 0x3e34f824beaca891U, 0xbd9aa8d03cccd90dU, 0xbdd4d2713d1b4dd1U,
  0x3daf20cdbdc695ebU, 0x3d01942fbdd9f528U, 0x3cb69bf23d115c65U, 0xbe6ecc6a3d900ff6U,
  0xbe65007bbb0a3d5aU, 0xbd687166bc1b765dU, 0xbbb400a03e43c942U, 0x3e21141cbe083160U,
  0xbe168b2fbd468cc8U, 0x3d797f083d020db1U, 0xbe84a75a3e2bcb35U, 0x3ca318dd3dbd05f0U,
  0xbdbf2938bd95e55bU, 0xbde8ded63d15ea85U, 0x3dd4e476bda9081fU, 0x3c407dc93d8349d6U,
  0xbdb95cabbd93a21fU, 0x3c81f37cbe05478cU, 0x3d9961a63dccdd3cU, 0x3d8e62fb3d9ac0f9U,
  0xbc8947b3be090d0bU, 0x3c2287b43df17e64U, 0x3d5d5b0a3e066ac3U, 0x3db58c413c5900ddU,
  0x3d0fe705bc8d9517U, 0xbd836efcbc57395eU, 0xbd91820abd81f347U, 0xbd9e670e3dfe0e09U,
  0x3d90d44a3cb78e84U, 0xbdeec7993dbfd88cU, 0x3dad26f8bae908e7U, 0xbd7073ffbe2241fcU,
  0x3cb921083d9e4daaU, 0x3d877f123d53d42cU, 0xbd5044533d14d952U, 0x3c2b389cbd739917U,
  0x3df449ddbca9eefeU, 0x3c979c303d426bfdU, 0xbd1b3c43bd9a74e5U, 0x3de1f9c2bd8432e8U,
  0x3d663253bb9e46e4U, 0xbd21ab9a3b49b676U, 0xbcd78bcfbd7add8eU, 0x3cb0b1f2bdeafbecU,
  0xbcb1e931be36c86bU, 0xbc0e1f32bd08b7b9U, 0xbc8e93f5bd0b857aU, 0xbbbd7175bc4b539aU,
  0x3d202bebbc70b904U, 0x3c5e77b83d8045ddU, 0x3db8bbf1bdab6026U, 0x3da9ee543d702c66U,
  0x3e0e1df33c774770U, 0xbc3a785abd76b31eU, 0x3bf29ac13dffa68eU, 0xbc02a0c5bc400e0dU,
  0xbd406eaa3c961a02U, 0xbd7237c6bdcb0453U, 0x3dfdd413bd2aa1e3U, 0x3d99ea6d3dd17dfaU,
  0xbd477151bdc2c58aU, 0xbe095ab0bd3be173U, 0x3e4195b73c867197U, 0x3be684533dae983fU,
  0x3ccdbc223de5aca0U, 0xbb494a8a3dc4f003U, 0x3d22db64bd955793U, 0xbde63269bc02e467U,
  0xbe3cf1333da6d222U, 0xbd40791f3d6c81cbU, 0x3e247ca93d536efaU, 0xbd434d313df95e67U,
  0x3b4308623ccc23faU, 0x3e44065c3cedd8cbU, 0x3de5b558bd0259d0U, 0xbd8813293cf62f2fU,
  0xbc6730ba3d0fe3ffU, 0x3dae5091bce2efd1U, 0x3d6a584dbd8d5af4U, 0x3de9db203cb5f201U,
  0xbe1c4db73d154a80U, 0xbc2bf2c53b444d1fU, 0x3e07ba3f3d88b8ecU, 0x3d954788bd2e6d2eU,
  0xbca998adbd9dd193U, 0x3d93c7dc3d621477U, 0xbd2f54afbc9f53eeU, 0x3dcf54d8bde7f989U,
  0xbe0c491a3c6a5327U, 0xbcf7d23d3d848949U, 0xbca9d7583c9973c5U, 0xbe1790b9bd11fff5U,
  0x3d985bc4bdf42263U, 0xbcccafcdbdd3add7U, 0x3e026ce03dc36322U, 0xbdda4b18bd790701U,
  0xbd0eba9c3df3f7e7U, 0x3d6e8eddbd1bc3d2U, 0x3d29a36d3dca9f10U, 0x3d3d72583da0c911U,
  0xbea1370abc4ab23eU, 0xbe2e9819ba8ef88eU, 0x3cbb4070bd0e81abU, 0x3c124c313c198bfbU,
  0x3d8c0beebe1ba7cbU, 0xbcab1d203e1284f0U, 0x3e3802d4bd8564b1U, 0xbdb1200abc5ce60aU,
  0xbb6484063d9e9a80U, 0xbe16194f3d2bbf89U, 0xbd9dc1df3ce384ebU, 0xbd9443cc3d447231U,
  0x3d557f45bd0ba981U, 0xbdca2a7ebc31a5e7U, 0xbd9131e3bce332c2U, 0xbde46d723e03b98cU,
  0x3d050d74bbf28521U, 0xbe092e4ebc85c2b8U, 0xbc530bfe3dbbc8aeU, 0x3dbf72d3bd2403d8U,
  0xbe2be0913dbfae02U, 0x3e0d66c8bd7abd3cU, 0xbe1da1c5bcf10667U, 0x3d9f2c40bda69a44U,
  0xbd91d57dbb6dd87dU, 0xbd046bd7bd6dcdabU, 0xbda976c7bda08fd6U, 0xbe00bb75be1bfdc3U,
  0x3d8706d03e158005U, 0xbe05cbd3bd0438d9U, 0x3e11832dbdde42efU, 0xbe63850a3e01bee2U,
  0x3cdba8983c9f6518U, 0x3d53752fbc923d3bU, 0x3e104d9ebdffdbe8U, 0x3d3b04073d19dc66U,
  0x3da7589c3df66a9eU, 0x3ce76eac3da9439bU, 0xbd51226c3daa8feeU, 0xbb89e8523d819b8eU,
  0xbdc067c33e23251eU, 0x3cf42dc2bc82b7bbU, 0xbcaf450bbd1da7a3U, 0xbdd05fa0bdd878d2U,
  0x3ca588493dae5d7aU, 0x3cde821c3ab23788U, 0xbcee5d24bd9ca619U, 0xbcc312dd3da64212U,
  0x3ccccb883da10b93U, 0xbe32d2733de55f2aU, 0x3de0d504bd49c978U, 0x3dbfc23e3da51462U,
  0xbe0398fcbde30f54U, 0x3bf50c143da7a5c9U, 0xbcc9683fbe01d560U, 0xbd9c22ce3e1db0b4U,
  0xbc90c0c13d7162e4U, 0xbe3e1e1dbeb0af19U, 0x3dca87503d2b53efU, 0x3d8ee77abd8a4048U,
  0xbd86523cbe02dad9U, 0x3dd2005abdb0839bU, 0xbcfb389bbd5ce4e3U, 0x3c31dd2fbcb242a6U,
  0xbc7edb7fbe39ffc1U, 0x3e12e5953d0e3102U, 0x3dd7b880bea7740cU, 0xbe217fa5bd93b3bcU,
  0xbd80c6d1bd801685U, 0xbda947303d3f74aaU, 0x3deff1593cab0967U, 0xbc97c2733da21434U,
  0x3c2cf4393e10bf1fU, 0x3da00e07bd3c1c26U, 0xbe32b74ebc0438e6U, 0x3e0a9c43bdf0b415U,
  0x3e67fdd83c9b7a99U, 0x3e574006be0503c2U, 0x3db2bbf53e02203cU, 0xbe0f6351bd1ae697U,
  0x3d14fb8ebe22ae82U, 0x3e9618dfbd87e48dU, 0x3d84148bbbb19332U, 0x3caed551bcbb5707U,
  0xbe031f5e3c272150U, 0x3da82a953db06aebU, 0x3c5223a4bdd88072U, 0xbc5bb60f3e80e6d4U,
  0xbde39ff5be842012U, 0xbcb38d9e3d7c76b8U, 0xbe380bd5bd88d8c8U, 0xbe051dde3ba74aefU,
  0x3d712bc23de4bb84U, 0xbdf436a83c8e3246U, 0x3e44dc9fbb13e353U, 0x3e0168dbbe5e3773U,
  0x3dcfd5aabb628124U, 0x3d723ce2be390fe0U, 0x3db6e5f43c5e0eccU, 0xbd302ded3d6adf4aU,
  0xbdc3293fbd5e1e0eU, 0xbd9b8d7ebccf8a7cU, 0x3d4e3f61bd4b470aU, 0x3c800966bd183cb7U,
  0xbd8ab3353cd3c43eU, 0x3dc50d24bd53d62dU, 0x3db3bf29bdca0fecU, 0x3e1045693e11a17dU,
  0xbcf53cb53e0098c6U, 0x3de64232be2312a0U, 0xbe17c43dbca665b3U, 0xbd0e54663ca6457eU,
  0x3cec99dbbe0a7261U, 0xbd59c924bdfeea7eU, 0x3d9213733e6edf0aU, 0xbca94195be6f2699U,
  0x3dc40c793e475b3fU, 0xbd31d15e3d9af3c1U, 0xbdb69af2beaad8bbU, 0xbe9b72b63d3c7079U,
  0x3e93f17f3dd32460U, 0x3d4531c1be5485e1U, 0xbf3583a43e58b5b3U, 0x3dcc3c44be9d1867U,
  0xbd905d1c3dc6e246U, 0x3aa1a76c3cf31fa5U, 0xbda0ad4cbe19c88aU, 0xbe1727903e8eaf8bU,
  0xbd3245883d7e7025U, 0xbd3e139f3d28edd2U, 0x3dd33788bd3ea134U, 0xbf13bf103e1e80c7U,
  0xbeaa5e603d2f724eU, 0xbe31f8bebe45a6f2U, 0xbde819e93d721b14U, 0xbd05b6263daaa264U,
  0x3e0834593e2b3ea1U, 0x3d4f36e03e65d7ffU, 0xbdc592b83db645acU, 0x3e873f32bbbbbe35U,
  0xbe5d33f13d3662eaU, 0xbe0c295e3e663071U, 0xbe1af3f83e245dceU, 0x3dfe7a213e629797U,
  0xbe662a893e01e659U, 0xbe21b23abeafb56dU, 0x3da3eec13dc4996fU, 0xbdcceefb3e39e0e2U,
  0xbdf2d0a2bd7d2733U, 0x3d32fddc3d1e8e40U, 0x3d3aaf08bc96e426U, 0xbda4e3e4bce1318fU,
  0x3e4415463df7bf04U, 0xbeb5e665be8709caU, 0x3e8d5ae3bc3440b1U, 0x3d866c6cbdb2c4a1U,
  0xbdcbb351beb102b0U, 0xbe0a35913db64e06U, 0x3e5e48df3e639318U, 0x3c23e3fdbda392baU,
  0xbe96a7593e7a9353U, 0xbbf59b1a3e83a449U, 0xbf1439e03e2f3905U, 0x3d8418973e11caedU,
  0x3d3598973e7afb8fU, 0xbe5072a5bd8ed6f8U, 0xbb3dad99bdc1cf0bU, 0xbd5c34de3d8ecfcbU,
  0x3e18371abd8a3ac5U, 0x3d6796b5bda81a81U, 0xbc3df557be8808a3U, 0x3be288c13cb7cf89U,
  0xb7b7a82f3d710e2cU, 0x3e6d3c633e5f4334U, 0x3d9d43863d9092a7U, 0x3d6857cb3e8dd35dU,
  0x3d83b66bbddc844dU, 0x3d97e0ebbe89f569U, 0xbdc985583d5c593eU, 0x3ea241463dabe845U,
  0xbea17f663dc7129cU, 0x3e640dabbd74304fU, 0x3e027371be3fe6c2U, 0xbe6cae4ebe1b2921U,
  0x3d92f42a3d52ec7fU, 0x3d6182cbbe812bb5U, 0x3b18b1a93e745db5U, 0x3e977fb13e96fe1aU,
  0xbe308a1dbe3a3e0eU, 0x3e356b7ebd3cb4f2U, 0x3dbe01c8be6f2bbfU, 0x3da5c557bc0b4954U,
  0x3e95f943bd689707U, 0x3e79d4053ca7a034U, 0x3c526256bdc4ecc3U, 0x3d0089cebe2e927bU,
  0x3e8b387b3e20f69bU, 0x3dd063ebbed0eee2U, 0xbdb3a155bd292a5aU, 0x3e74d23dbe1a86e9U,
  0x3e8fa591bd3b2b1fU, 0x3ddfee403e747eedU, 0x3e51f0fc3dfc7568U, 0x3e7432cebe0aee33U,
  0xbd8cf8503da3f79fU, 0x3e1375cd3e8aeef2U, 0x3e65220fbd8f126aU, 0x3e9f6627bd7fd16dU,
  0x3e80a95fbdca7a3fU, 0x3dd56fb0be02b78dU, 0xbde200733cc5856fU, 0xbd30d3b53d6e79aaU,
  0x3e0705493eb74399U, 0x3c943fbd3e006936U, 0xbdd98b553d79b78dU, 0x3e9b2f2a3d32f5c8U,
  0xbdd394513df5f28fU, 0x3e5eed233e5fef79U, 0xbca40fba3e17097fU, 0x3de2629bbe14af10U,
  0xbdf68e123e2035b9U, 0xbee03e4e3e652b2bU, 0x3e0b51913d9704cbU, 0x3eae7d33be01f1c4U,
  0xbcaffeea3ea89028U, 0x3e42d68f3d8b0585U, 0x3e1dd842be9428c9U, 0x3e0cbd753e32a03cU,
  0x3e2cdab4bcb00661U, 0x3e9fa4db3e71dfe0U, 0x3d8ae6a7bda9703bU, 0x3d5eab3cbe725f8cU,
  0xbdade3ca3c90af21U, 0x3e46fb63bb86263eU, 0xbe27320a3c423641U, 0xbe8a6c713db6f301U,
  0x3cdc1a36bc2de2d9U, 0x3e7f2e923deb2b16U, 0x3e2a195fbd5b3711U, 0x3e4e56eb3e28b663U,
  0x3e743bca3e30fb03U, 0xbe0b78583dce17bdU, 0x3d1c35ff3e3883afU, 0xbd2beb4c3e2ff14cU,
  0xbd3a17933be224b3U, 0xbda1a7973e9c0dc6U, 0x3cbfe27cbe4c04aaU, 0xbeebe82f3e8065f6U,
  0xbdf3441fbcfca735U, 0xbe2993213dd241ecU, 0xbd3c5d7dbe81e287U, 0xbda6c12dbe32d5ebU,
  0xbd81ba56bd869f0dU, 0xbd8bb24dbd9b1265U, 0x3d0f3808bd89a0a8U, 0xbdc3b4b63d0bd49bU,
  0xbda72af9be11c03eU, 0x3da0a666bd0a06efU, 0xbca8adebbe6c0618U, 0xbe00714cbc5361c8U,
  0xbdea4221be8aa96dU, 0xbd8a4fd6bdc29f95U, 0x3d5fb6733ba84cffU, 0xbd9dabd6bd831330U,
  0xbe05d5443ddfaca9U, 0xbdb57ffbbe0dfcbeU, 0x3cbc586c3ddf3875U, 0xbe1a9d4cbe89b1d9U,
  0xbd8343cdbda01f3eU, 0x3d530fb4bc178d09U, 0x3d452bcbbdd0ce87U, 0x3d4294053de09028U,
  0xbdc05a2fbd1d082bU, 0xbd4c8cc6be682b95U, 0x3c5b4ce9be120084U, 0x3ce0c0aabe4addc1U,
  0xbaf6e952bd93109cU, 0xbd3ca633be1f6b51U, 0x3d8b9952be5fed25U, 0x3de0d58bbc8a799fU,
  0xbda7a818bdbee3d9U, 0xbe7de1a33dd6ae49U, 0x3b9bd6efbd5a5a55U, 0xbe89794fbd10c1f8U,
  0xbbc77c38bcbddf17U, 0xbcb718683bde4262U, 0x3de56b24bcc3573aU, 0x3d1f1b9abe0c2ccdU,
  0xbd5dcb7ebc64eeceU, 0x3c4067c8bca28c40U, 0xbaa1c8c9be01a819U, 0xbd71c112bda3d954U,
  0xbe33099f3bf336feU, 0xbde63120bdd3ff4fU, 0xbe2dda3cbdd4c33bU, 0xbde66120bdd2b9ccU,
  0xbd32316d3da0a1faU, 0xbd94dba43e0b3a8cU, 0xbd5e6640bd3ddbd0U, 0xbe16ba31bd33747dU,
  0xbe5c34bdbd1337a1U, 0xbd03f2c0be3083cfU, 0x3df434b6be0cd716U, 0xbe734f67bd912fbaU,
  0xbcb02907bdad48d9U, 0x3dd052c3bd8b39d6U, 0xbc8e29b5be1a4ef9U, 0xbe3a8b72bdca8c51U,
  0xbca84a22bdc2b930U, 0x3d8373613c7faa14U, 0xbd277b63bd537dfcU, 0xbb244772be3aca83U,
  0xbe6e8f8cbe4247fcU, 0xbe007ab1bd62d0c8U, 0xbe14af983d9b33d4U, 0x3e07efac3e664bcbU,
  0x3d5322bcbe1475dbU, 0xbd6e78a9bcd8e947U, 0xbe1ea1d4ba8824ddU, 0xbd8b1ebdbdfc152cU,
  0x3c0b6e0bbdd0c8c9U, 0xbda3ad75bdbb1dc6U, 0x3cb2fa4c3d264314U, 0x3e3b520cbdec8cf2U,
  0xbd7dcab43c307260U, 0x3e000081bc256c9cU, 0xbbc9edb2bcb4bca5U, 0x3d855b393dab8910U,
  0x3dcfe2dbbe1a0f65U, 0xbd8eddeebe376ea8U, 0xbce7c9fbbdb06b38U, 0xbd97000e3d8ba64aU,
  0x3da1445f3e0122d5U, 0xbd7fd3e73d6d040dU, 0x3bd09fd8bcbcabacU, 0xbc2699903de7369bU,
  0xbd66309ebd8ad78fU, 0x39e83065be2c5980U, 0x3e39cc53bd099ca3U, 0x3bbaeff7bdcdb314U,
  0x3de78c7c3d5a1656U, 0xbdafcd07bdfe1f19U, 0x3b6a17d4bde463e5U, 0x3db9e697be34807bU,
  0x3dde534abdd4fa64U, 0xbcb32a53bdf2b132U, 0xbe1f80c4bd909d63U, 0x3db7a7953e056a29U,
  0x3cb7cd3a3d148eaaU, 0xbde5344b3e0a8215U, 0x3cf12257bdc1e9acU, 0xbddc7de7bd5d803eU,
  0xbe03d738bdb0f731U, 0xbd9a7e313c89266eU, 0xbdf56a863ccc19bcU, 0xbd0388c6bca2682bU,
  0xbd87e3ba3d8db3daU, 0xbc90d4a1be11af9aU, 0xbd818443bc3e5e29U, 0x3e12d76abd54c2b5U,
  0xbd8cbd1f3d02f52aU, 0x3ddde71bba31ec98U, 0x3b2c41343d9d2c21U, 0x3cbf0422bd71cb58U,
  0xbd609d6d3c85af71U, 0x3ccc5a1d3c6cc19bU, 0x3bf7b37f3e2ecf5fU, 0x3dd9d2fa3cd7a83dU,
  0xbc82fc43bcfbc117U, 0xbd9a86e7bcfc9cb7U, 0xbdfb59833dbb4a80U, 0x3d8e94f43d017e75U,
  0xbc5e2d1f3d92ff2dU, 0xbda00ed83c96b4a4U, 0xbd87a1833d2224b7U, 0x3d3f65b83d8407a9U,
  0x3e1264dc3d02b527U, 0x3defcb44bdf6bd36U, 0xbd28562b3dcc37bbU, 0xbb9eee183db6a824U,
  0xbe8d92c3be2a647cU, 0xbe2970d4bdcf33c7U, 0x3cee454abd35dbf8U, 0x3e3f5816bdf60714U,
  0xbe450ef93e22dfbbU, 0xbded6159bddc5fd9U, 0xbe41b0823da38699U, 0x3da2f2bebe28e1b0U,
  0xbe42bf7cbe05dd1aU, 0x3d4646f2be1cccddU, 0x3e2b2d593c817b8fU, 0x3da78792bdfdf405U,
  0xbde794543b45e039U, 0xbe9053ed3d1f503eU, 0xbd793488bc9a146dU, 0x3dfd6e9b3d85d004U,
  0x3d432bdebc9708c2U, 0xbdafb0573e5a8452U, 0x3df8c803bdd05d99U, 0x3df463713db5b715U,
  0xbdec6cd53e1a924fU, 0xbd89fa22be0cf786U, 0xbe32bd543e7d3ce3U, 0xbe1a52b0bc1c390bU,
  0xbe49900ebe8a92f3U, 0x3c6504a6bdb98fd6U, 0xbdbacd62be0fe8c0U, 0x3de307ccbd43671cU,
  0x3d9f17c73dd5e970U, 0xbda0503ebdb148d3U, 0xbdba70a6bea26f73U, 0xbe3cfdcb3e0fc918U,
  0x3d214402bd96a9c9U, 0x3d06cefdbe4aa50aU, 0xbce554de3d0c31c7U, 0xbe30ff55be65d026U,
  0x3dd83848bd8cee43U, 0x3e12f501be29a26fU, 0xbc207216be5e0fe8U, 0x3d151ed13dd9a921U,
  0x3c4e15433dbd6ad6U, 0x3e04b43c3e1e7c4eU, 0xbe4f70ed3c37875aU, 0xbdfdfb14bde8e00fU,
  0xbe1f1d063e6b9ba9U, 0xbe60e194be52c2b3U, 0x3e0adad73e5bc17dU, 0x3df17805be1242ceU,
  0x3e15d7073e5b9e71U, 0x3d9b5d0f3e2cc2c0U, 0x3e57eee5bdafbd74U, 0xbea65f08be6b4ecaU,
  0x3e38efd7be262ec8U, 0x3dd65215be02520eU, 0xbe0597c43d3f5fb3U, 0xbce1bbf53da6af0dU,
  0x3e049ef73dc9aeb4U, 0x3c5325d1be2a9eb8U, 0xbe777b85be30ca6eU, 0x3e0b6240be25b2f8U,
  0x3e09cf91be061af0U, 0x3da6328ebe2ccba3U, 0xbdd7708c3d15e4bbU, 0xbda79cc4beb07b5dU,
  0xbe2c799abda7482bU, 0xbe025f3ebe0afe5bU, 0xbc1856fdbd1f8775U, 0xbd43e7c6bb61cd99U,
  0xbe3a10b3bc422c6fU, 0xbe22cb01bda5a160U, 0xbdb34a37be1c7a7bU, 0xbdcfb153bc44fd1fU,
  0x3d4e7462bacbdb94U, 0xbe1d28d3bddeaa58U, 0xbdd436b4bc1d7644U, 0xbd458299be079a3dU,
  0xbceec420bd47fe58U, 0xbdb3f058be48ca5dU, 0xbdcf0d4fbdc55fbcU, 0xbd36c0febd4a1b16U,
  0xbdd407b1bdada70bU, 0xbd32873cbe05ba07U, 0xbe073ac2be2506deU, 0xbe658ae0bd3149faU,
  0x3c81dbf4bbac3f16U, 0xbda915ff3da07104U, 0x3c969cd4be0be674U, 0xbd29277cbc90a8c1U,
  0xbe13ddc3be24228dU, 0xbdf49c893b4dafaeU, 0xbcf3dec1bd9d273aU, 0xbd6e0f8e3d099ca4U,
  0xbe376d7dbcc25be4U, 0x3cfe3321bdf8d3fcU, 0xbe53385ebda0789eU, 0xbd169fcf3e0e4cb3U,
  0xbc83a30abe09e2eaU, 0xbb4c14623c74a2e6U, 0xbd0b07d9be9a6848U, 0xbe19c164bcff2a0fU,
  0xbdedc1a4bea07e7bU, 0xbe3ee119bd80701dU, 0x3dbdacc8be4af6f9U, 0xbdf056403d36c8f8U,
  0x3c96d8bd3d1a6358U, 0xbdf02d363c961484U, 0xbd875e4ebd2c2301U, 0xbe22167fbd3cba61U,
  0x3d322272bc6fc056U, 0xbe2ebb55bca9b2bcU, 0xbd82f24fbe3c250bU, 0xbdd73628bde18ef5U,
  0xbd82154fbdbb8238U, 0x3cbc5212bcbae05eU, 0xbbe1d348bd124deaU, 0xbe383cbdbcaef8b2U,
  0x3d174b19bd8a9bd9U, 0xbd8bccf6be2a1b4cU, 0xbda186f9be1ddbfaU, 0xbd65ae09bdaf0993U,
  0xbdacddbebe4e4b22U, 0xbb51b611bd97921eU, 0x3c1ad210bdde914dU, 0x3c818e8fbdb078a0U,
  0xbe46b966be303936U, 0x3c9db1883cecf687U, 0x3ca3eeeabdc78526U, 0xbd441286be1f9553U,
  0xbdfedbe3bdfa759fU, 0xbd781ac0bdd6bea4U, 0xbcfd34ecbce76a61U, 0x3deec5c8bd9a2429U,
  0xbd67f0d23e41c61dU, 0x3da3400d3dcf192dU, 0xbd342f27bc03193bU, 0xbec67cdb3d272009U,
  0x3dfbdbb3be4a66efU, 0x3d17578a3c69d57dU, 0xbd053a673dab5403U, 0xbd380513bd060867U,
  0xbdeff2cc3ddde296U, 0xbce7355e3c545077U, 0xbd4b9a853e8bf9fdU, 0x3ddf04ad3d63f437U,
  0xbeb4d92c3d615e84U, 0xbe7810733dd638deU, 0xbdde193fbd5a8ca2U, 0xbd122e563d40f499U,
  0x3d54017ebe12726aU, 0x3c4655963cce8ffeU, 0x3e159efcbd3d2585U, 0xbd9ecfa1bb72b359U,
  0x3db47af93df688bcU, 0xbd5ef7fdbd942d3fU, 0xbba4783d3dee28ceU, 0xbdb64cc23d87bae1U,
  0x3cfa8b293e1d6c4bU, 0xbe4e49f33dfd7579U, 0xbda61cd6be30024fU, 0xbe0135d2bd614f1dU,
  0xbcabcb593de2e2c3U, 0xbe60f7793d80b381U, 0x3bffc53a3d1d9bc1U, 0x3d354389bdb23ae6U,
  0xbd50e6883bb7d37cU, 0x3d907ea83b4d2832U, 0xbe8943e7bd82a776U, 0x3bc84d7abe252bedU,
  0xbbb51c48bbda97d0U, 0xbe3d4af5be30e93fU, 0x3be857f8be2d7c56U, 0x3da6cc2bbd8b5fa2U,
  0xbd89c1fdbc3c9a9dU, 0xbe2287823d3ecb78U, 0x3d7a83763d8b9676U, 0xbec52189be0e23a9U,
  0x3d663796bc75bb95U, 0x3db3d57abc161d29U, 0x3d9a6c3ebe335218U, 0x3cf71167be3d8e31U,
  0xbe04f0d7bc9fd503U, 0x3db69408bc80c0ebU, 0x3e898b0bbc78d34bU, 0x3c5d1c10bd1dc329U,
  0xbdce8ee23e317cbcU, 0xbd14a2f0bd0df07aU, 0x3db6b0e63dbd6470U, 0xbe543bc8bc252538U,
  0x3e05bff63e223d6cU, 0x3d53d56ebc248861U, 0xbb4ea185bde82d31U, 0xbe2edaed3e3e5ce6U,
  0x3c86b7a03e1ae88fU, 0xbe297f8c3d3d4a2dU, 0x3d0a012b3e3ddf30U, 0x3de70a0fbde546c2U,
  0xbdc110ed3d5a78fdU, 0xbe3f9fccbe4846ecU, 0xbcb55788be21b9eeU, 0xbd8806613d90627eU,
  0x3dee15693cad85dbU, 0xbd93cecfbdce6deeU, 0x3d32701c3d9f7a26U, 0xbdaf6a093e2495e3U,
  0xbc1b51ab3dbf2214U, 0x3c7552fc3dc900a1U, 0xbd04b014bcb4c917U, 0xbe81371dbc82a988U,
  0x3db4d9f13d927c5fU, 0xbdc20b51bdbc5536U, 0x3d1261c0bcd0076aU, 0x3da2e9d7bd696ffbU,
  0xbdaadaeabdc5d11fU, 0x3da1561abc5ad9b1U, 0x3db555c0bd504790U, 0x3cb7c8543bd8a6e9U,
  0x3b2298b73d9755d3U, 0xbcf8e387bc228d91U, 0x3d1195db3d135444U, 0xbd94983fbd9e7867U,
  0xbd803ab0bd7f978aU, 0x3bda0eff3cf01021U, 0xbe265379bb9a780eU, 0x3cf3cf583c10e6e1U,
  0xbcd65dec3cb4bf46U, 0xbdd02e89bce2816dU, 0xbe2c720c3d530d3dU, 0x3ddf2a8abd2f6f33U,
  0xbd9668093ca945faU, 0xbe2eeee03e01b0eaU, 0xbcefdca63d70c59cU, 0x3d063d973d2f93feU,
  0xbd9e536ebc75b575U, 0x3e17e36e3da0fa84U, 0x3e1501443cfda88dU, 0x3e16e292bd2152e2U,
  0x3ca2a2af3d7a70a0U, 0x3c5ef41cbd3e1803U, 0xbd383b3e3daa1bcbU, 0xbd3e440d3cf528f7U,
  0x3d95e9393bc159abU, 0xbdc243a1bbc857d1U, 0x3c98e84ebd4bd278U, 0x3cb109a53c6a59b4U,
  0x3d55436f3cc55f3cU, 0x3dbbb61c3cc8e657U, 0x3c2a26ffbe0d7fd3U, 0xbcfa0c553dad8636U,
  0x3dcb9770be96345dU, 0xbdbb9c5f3e14c86eU, 0xbcbaaa0b3d06987cU, 0x3d916b4f3d5764f5U,
  0x3d0276553d9dc189U, 0xbde9e6333e10883eU, 0x3d6d7eeabd2c7059U, 0xbddf7df9be5e312dU,
  0x3d4bc1813be3e207U, 0xbd1a74de3dd8c07aU, 0xbd9f88bb3d6ec206U, 0xbe38b019bda20002U,
  0x3cd7596ebe012090U, 0xbe456a77bc125a4bU, 0xbe9b1ad6bdf0221cU, 0xbe831a73be313e46U,
  0x3e2525fabcdf4318U, 0x3e0f75a03ca2b2ffU, 0x37b86c87bbe47ea8U, 0xbc16dce1bd6d2e3cU,
  0xbe1605983d41a6e9U, 0x3e805223bd89ee19U, 0xbe593f81bdd07f6bU, 0x3d899ae4bdfc2bfcU,
  0x3e015bc9bc9aa9a2U, 0x3e90288abdaede19U, 0xbe13419b3deb73eeU, 0xbe679a3dbc682487U,
  0xbe0898633dd21651U, 0x3e0c9a353dc9c5a1U, 0x3db3640cbdccad1aU, 0xbde9b1d23e1a34cfU,
  0x3e3989b6bda14d98U, 0x3e87f48a3e072ccdU, 0xbe1aaff73e480f1bU, 0xbc719806be0910ddU,
  0xbe9353723e06483eU, 0xbe30f90abc5f78a5U, 0xbe085b2fbe61a459U, 0x3d7220c8be48f433U,
  0xbdca8b91be6abc15U, 0x3e279c13bcd8fad1U, 0x3e2ea3673dce98f0U, 0xbd391382bce2718fU,
  0xbca1978bbe83b3a1U, 0xbe211e9a3e6b4cbfU, 0x3c31621abdc41443U, 0x3d25d818be995f02U,
  0xbcada53e3caf50e1U, 0xbe38c0bcbe747fdaU, 0x3e043b3dbd777c5aU, 0x3e8fd04bbcc3d034U,
  0xbdef23f4bdebb3eeU, 0xbc460cf53e072859U, 0xbcf73d293e0ac71aU, 0x3e68904e3e15710fU,
  0xbe3b0c2abd7c68b5U, 0xbe452d41be06da0bU, 0xbc29a9a73e2b2542U, 0xbe87c271be9828deU,
  0x3e1cf9203e57d0a7U, 0x3e5f0f54bd533edbU, 0x3e4274233e2c1085U, 0x3d6baf9d3e891ad7U,
  0x3e34610cbe0d6b6aU, 0xbebce808be331f1eU, 0x3e480fadbe3dc6ffU, 0x3e3638a6be10a743U,
  0xbcf421b33da803b5U, 0xbd145e22bd5112c5U, 0x3e2d2d433de552e9U, 0xbdec6386bdf7b496U,
  0xbe903114bd415ca6U, 0x3e9883a6be102b95U, 0x3e477c95bd807b90U, 0x3dbfa15bbe25c7c9U,
  0x3c73c607bd119166U, 0xbdda746fbe9d65ebU, 0xbd8d0d42bd8aeaa6U, 0xbe5b2a91be00fab7U,
  0x3e06976b3e0e3611U, 0x3dbcf231be5c3ac2U, 0xbe0b2dcd3f0afbf6U, 0x3ea391dcbb0035d8U,
  0xbedddd82bf59dc4cU, 0x3e5ed8ab3de6324cU, 0x3d678780bda58cd7U, 0xbe4220013d93d834U,
  0x3e8fd3edbdcae769U, 0x3ce2d881be7527fcU, 0x3e7439f5bd70c6e8U, 0xbccbb4b53c792c77U,
  0x3edcf9a53e0f4288U, 0x3dd77aa0bf209872U, 0xbe0c07cdbeae6de0U, 0x3db14814bd7dfeb0U,
  0xbddb4eccbe110e31U, 0x3e925aa33d9b2133U, 0x3e09b70c3da90de5U, 0xbd26343f3ccd84ebU,
  0xbbf7b2d0be0a00d0U, 0xbcab54473e7f6190U, 0x3ee9fd9bbeb17df4U, 0x3e8d0cd3be1ef139U,
  0x3ec2b4d8be8d25e2U, 0x3d9d300f3db2b360U, 0xbeadf8f7be81439cU, 0x3eb306e3bd370462U,
  0x3ec968233de4c9f7U, 0x3df1c3073c8231a5U, 0x3dbab1bcbe297acfU, 0xbbe009633de2df27U,
  0x3c28b6b83e6d728eU, 0x3df91f84bdcf67caU, 0xbe82196f3ecf72ddU, 0xbd3ab8f2bf33f5dbU,
  0xbafd730d3f10944dU, 0xbe94a773bd581872U, 0xbca419973d2330e0U, 0x3eafa66d3d58bef8U,
  0x3cd981e53eb890aeU, 0x3ed9fb1bbd52a5a1U, 0x3eb5b7eabe05e991U, 0x3eab2d8c3e5a36cfU,
  0x3e43ffcfbf17cb35U, 0x3e8a981ebbd258efU, 0xbdcddf5d3c8163d5U, 0xbdd450c1bd6a9bd4U,
  0x3ce41d663cbfe93cU, 0xbdf21b56bc4f9764U, 0xbdac6e513e857ccdU, 0xbe03090a3e445d5bU,
  0x3d5d800c3ea9b5cdU, 0xbb5ec564bccbe2f0U, 0x3ead26bb3e4919ffU, 0x3d38da253e726aaeU,
  0x3ec373dabd535835U, 0x3bf0a9bb3e090976U, 0xbe3be44c3dfec933U, 0xbd393dcf3d6e51a7U,
  0x3dd415e0bd02cdf7U, 0x3df6bb7d3f0cc180U, 0x3e2fe492beb1ec0eU, 0xbd3e8e0d3eac0cd9U,
  0xbea57f483e256537U, 0x3d61bf08be6d7b21U, 0xbe03df263e0f5087U, 0x3d2c19093e898770U,
  0xbd49daafbcfc4ddcU, 0xbe8f9458bdb846d2U, 0xbd046afbbe5ad1e2U, 0xbbd893d7bda6b192U,
  0xbcc436b53d8dc4bfU, 0xbd6e3199bddef894U, 0xbe06a938bca51f1eU, 0xbe0b421cbd9bca4bU,
  0xbca3225a3e128957U, 0xbd07f64ebd29b962U, 0xbe18975f3da5257eU, 0xbd72a91abd180038U,
  0xbe10e3d7bdeb92c1U, 0x3db46e4c3d0d2097U, 0xbd84dd383c1d69a8U, 0xbd13b1a7be0f7763U,
  0x3db12bf03d3b0470U, 0xbde958473cba8502U, 0xbbfd63b73e2ed722U, 0xbe3566d53d63254bU,
  0xbda4cb58bd22822fU, 0xbdf8fe41bdc54772U, 0x3dd578dfbdcd3adbU, 0xbe225a5d3e6aa651U,
  0xbda24bbcbdaa2dfaU, 0x3d34ff203d38254cU, 0xbd95e0e2bd03efc1U, 0xbe07b0f33db394d4U,
  0xbd7c8e3f3e2418f0U, 0xbe365e80be0214b2U, 0xbe1087413e3190b5U, 0xbe3c498abcc541fbU,
  0xbe3b721abdb599ffU, 0x3daca899bde0a521U, 0xbc24662bbd262426U, 0xbe6211a2bdbe60ecU,
  0xbc458b64bc384ad7U, 0xbd3ba8ebbd31394dU, 0x3c0e0d673c19941bU, 0xbd821920bdc2dc4cU,
  0xbd805e603c5f68fbU, 0xbdf717fa3c55ee62U, 0xbcc7b218be25abdaU, 0x3dfb7b82bd2fd98cU,
  0xbc825416bd872a50U, 0xbde35236bdce1639U, 0x3dd3ef083d295682U, 0x3ccbc1cdbd95ef5bU,
  0x3db2a28cbd144d57U, 0x3ddc3cb23a71e4aeU, 0xbd7324a03e0743feU, 0xbde6eb743cf8e7d5U,
  0x3d87e3283d2600c9U, 0x3c9b9baf3b832371U, 0x3e32d823bd7603e7U, 0x3e012875bd89be93U,
  0xbc63795fbde066e3U, 0xbd1393a73d760984U, 0x3dcfeac03e6d3e69U, 0xbe3da4b93e08d289U,
  0x3c739ce43db35c7eU, 0x3e1439dbbd9fd3deU, 0x3c2135f33d7d2d8cU, 0xbd9f6bbebd7e077cU,
  0xbdbe2434bda78905U, 0x3d6b0875be128263U, 0xbd9509fc3da4c440U, 0x3c9565aabd53d569U,
  0xbd55f383bd04b334U, 0xbd3a79acbda6d7c2U, 0x3d3695a9bdaef5eeU, 0xbda3fc0d3d2b6bd4U,
  0xbd9d6af33cfceee3U, 0xbe208f023aa94519U, 0x3d0c79a7bdc80964U, 0xbb95757fbdd15305U,
  0xbb4c2d3e3db54fcfU, 0xbb385f223dec14c1U, 0x3cdcdf5ebd05d36bU, 0x3db8a9bc3ca6e984U,
  0xbdadf2babba4c8bdU, 0x3d737d72bceeefc7U, 0x3c363739bd28dca5U, 0xbdd37f153e0245efU,
  0x3e012ffc3b832063U, 0xbd17ed933ce15850U, 0xbde04b0e3d4da259U, 0xbe0018233d8636d3U,
  0xbdc80ef8bdc32f2bU, 0xbbe7b78fbc0c7fdeU, 0xbde72f2c3cd5c573U, 0xbe62388e3ca669b9U,
  0xbdc37fd63ddae69fU, 0xbde6a1e2bcb46ddbU, 0x3dd043173c144c93U, 0xbde13106be61ef26U,
  0x3d6bb0df3d08de0aU, 0x3db3303bbe42d0c1U, 0x3c713aea3c89342eU, 0x3d7189a43cd3a49cU,
  0xbcce5de73db579f6U, 0x3d91ef8e3c99ab05U, 0x3da35e4a3be931e6U, 0xbd617440bca28e15U,
  0x3c4c54f5bce0d6edU, 0x3d10537ebc600341U, 0x3b86b474be23911fU, 0xbe299739bcc29285U,
  0x3d59ee42bd67b63fU, 0xbc999b96be0f3026U, 0x3dbb2585be00c022U, 0xbe2fc5b03d145bc3U,
  0x3dc7e178bcf1ea1fU, 0x3d182003bd266982U, 0xbc5be50bbd26835aU, 0xbe17c986bd8a7ab3U,
  0xbd881c54bd2263a6U, 0xbc976f97be84210dU, 0x3d455dbcbca16ae6U, 0xbbe356733b72b982U,
  0x3c35d9e83ca3cd46U, 0x3c8d24d33c29cc83U, 0x3d99b24f3c94f5c3U, 0xbdf059a7b9c32eceU,
  0xbdc49cd83d68e228U, 0xbd767391bd5fc553U, 0xbde9fa8bbd1713abU, 0xbced59d4bd9110cfU,
  0xbeb736a7bdc43fefU, 0x3db5b1eebe95c55eU, 0xbd66a845bdadcc14U, 0x3d44eb153d252dd6U,
  0xbdbaee66bdec3d2dU, 0xbcaa46e93e0aa106U, 0xbe16eb93bec27440U, 0xbd871dd9bde2822bU,
  0x3b4720cabe1df8edU, 0xbc0a7d323c753c1aU, 0xbe0d5b14bda0a833U, 0xbe143baabd887281U,
  0xbd6c2564bdb3e6d1U, 0xbe025e223afd58a6U, 0xbda0cd3ebd48d263U, 0xbb1a3db1be8b78baU,
  0xbe769313be03cbc6U, 0x3c3254f83cd786a3U, 0xbe142eebbd1f2524U, 0xbd874f5fbe81f4d9U,
  0xbc9b83ab3d296740U, 0xbde48f213c1a7a72U, 0x3d8be296bc3deb38U, 0x3cff2f30bde71c04U,
  0x3b64aedbbe0430f8U, 0xbe1c79cfbe0530a6U, 0x3c4880e2bdbeb8ceU, 0x3ccbe25e3d160a20U,
  0xbe07ec0cbe7d9e1aU, 0xbc79981dbcea5886U, 0xbde9537bbeada490U, 0x3c28727abd671fceU,
  0xbd8e25023d96264dU, 0xbbe4069fbe3998ceU, 0xbbfd16c0be0fd834U, 0xbe0f5bdabe18a754U,
  0xbdc82fea3cbc5232U, 0x3df1bf94bdee2ff3U, 0x3da289ebbe86e938U, 0xbe1c9a41be81e78aU,
  0xbdb25602bdd30342U, 0x3e0a5ac63c08a0ceU, 0xbe1055c6bb4228adU, 0x3de6e64a3d1f19c9U,
  0xbc5aa575bea40981U, 0xbce1eeeabd9f5c42U, 0xbbaf634dbb7f9041U, 0xbc3be21e3e44fd0dU,
  0xbe227fe5be5ffc78U, 0xbd9dc21f3d26a4cfU, 0xbda64c583ccc779eU, 0xbdaefc663c3b18c8U,
  0xbc053f04bac19324U, 0xbc0596973cce361cU, 0xbe4d246abeca2a5aU, 0xbe55db97bdc6a15dU,
  0xbd80b18ebed75668U, 0xbe446b06bd8be864U, 0xbdfd43bcbd9a73baU, 0xbe37f0903dd63eeeU,
  0x3d4cb78f3e225959U, 0x3dcf765abaa11e7bU, 0xbe9ac47e3d8572aeU, 0xbdf6d6cc3c108264U,
  0x3d0e62c63e60b8d5U, 0xbe4ded0bbe29f8c0U, 0xbdbc747dbe1a3974U, 0xbd4b7cc53cb976a0U,
  0xbc6d6620bcd0d30aU, 0x3e3b7347bba1c2adU, 0x3b6588e0bc496bc3U, 0x3e15569fbe39f5abU,
  0xbe8aa560be5e200fU, 0x3e03b8b8bce58ab3U, 0xbd1d48a23c6db9b0U, 0xbde098ff3d9c5c59U,
  0x3e0183db3c804fc4U, 0x3d78cdf1bae3b583U, 0xbdcfc91bbd978279U, 0xbdc4168d3df5b511U,
  0xbc040a3bbd9703cdU, 0x3d8718aebd8fafdaU, 0xbe73c6b73d5a5f98U, 0x3c0617f1bd95c699U,
  0xbe4a58f43cc9beefU, 0xbcf94ed1bd957fd2U, 0xbd921df23df4216dU, 0x3c961929bdf13764U,
  0x3d989c2c3dc45542U, 0xbcf71dd6bbe49a0fU, 0x3d2978b9bdaee203U, 0x3d8571eb3df0f0deU,
  0xbd998d72bdf407feU, 0xbd9eebcdbdacdfc9U, 0x3d2d114e3d2f174cU, 0x3c106881bd6b9ef6U,
  0x3c788ece3e2ce077U, 0x3de4f508bdb4fe49U, 0xbe08ae913c47a736U, 0x3c632cd9be4fb104U,
  0x3cf7d641bdb3629bU, 0x3d2a5da8bde258a7U, 0xbdf34d13bd8a156bU, 0xbdad0a793e118705U,
  0xbd90e6bb3e16a01bU, 0xbe0a89893df1bba6U, 0xbc7fb10cbda86f92U, 0x3d182bbc3de4e97dU,
  0x3d148f943c933e0fU, 0xbde632f4bc8b6c1cU, 0xbd164626bd88a5a4U, 0xbd697c5ebd568e6fU,
  0xbd9353f6bd3e7c7fU, 0x3d90867dbc061373U, 0xbce0e4393e020c0fU, 0xbea0841abd7adabcU,
  0x3ae0e799be163b1eU, 0x3cf9ea1e3c2bd515U, 0x3dc10f113d1cf998U, 0x3aca2ddcbd8fa901U,
  0xbd922e07bad5ae34U, 0x3d02416cbd32473fU, 0xbe138d5bbe0d7981U, 0xbe43778ebc5d4505U,
  0xbded2685be23eaebU, 0xbe353d84be8d6277U, 0xbd8c1912bdc09e6dU, 0x3d25080e3e03b6dbU,
  0x3dd881263ca48ed1U, 0xbee5b7e53e4675f5U, 0x3d2f3f4e3dc69cc8U, 0x3e5e42023e0b6449U,
  0xbe9034fe3d7d4f78U, 0xbe2282373daf8958U, 0xbe12ee673d5dc71eU, 0x3c623d333d273087U,
  0x3e1be361bd4f26d4U, 0x3bc1c7003df3dfe6U, 0x3e73eeccbe197837U, 0xbdb688a8bead9b78U,
  0x3b86a4573d8f5c01U, 0x3e10f1893d8e1395U, 0xbee23f973d8ae3e6U, 0x3e10e4713dbb9302U,
