/**
  ******************************************************************************
  * @file    network_data_params.c
  * @author  AST Embedded Analytics Research Platform
  * @date    Tue Jan 16 16:02:48 2024
  * @brief   AI Tool Automatic Code Generator for Embedded NN computing
  ******************************************************************************
  * Copyright (c) 2024 STMicroelectronics.
  * All rights reserved.
  *
  * This software is licensed under terms that can be found in the LICENSE file
  * in the root directory of this software component.
  * If no LICENSE file comes with this software, it is provided AS-IS.
  ******************************************************************************
  */

#include "network_data_params.h"


/**  Activations Section  ****************************************************/
ai_handle g_network_activations_table[1 + 2] = {
  AI_HANDLE_PTR(AI_MAGIC_MARKER),
  AI_HANDLE_PTR(NULL),
  AI_HANDLE_PTR(AI_MAGIC_MARKER),
};




/**  Weights Section  ********************************************************/
AI_ALIGNED(32)
const ai_u64 s_network_weights_array_u64[5605] = {
  0xc0202e8bU, 0x3f117e3b3ec19bebU, 0x3c9a901b3ec14b1fU, 0xbc8856913f3b0461U,
  0xbe94180b3e8414b0U, 0xbeeb643c3d6095bdU, 0x3f2e4bf23e7871c5U, 0x3ea6017abedadf73U,
  0x3e4f562d3e90781dU, 0x3ebf8245bcb225d8U, 0x3e3a7ebabdd261adU, 0xbe7c42593de9e913U,
  0xbf139e6e3e09e884U, 0xbcf60b073e4509ecU, 0xbeb25e2e3f2f2d00U, 0xbe9d74d33cfd8a5bU,
  0x3e09fa80be92c91fU, 0x3f2db3cebf444a02U, 0x3f96bed5be1f9e18U, 0xbd222a3b3eb01365U,
  0xbceec9553f58a236U, 0x3e469b7b3e8a318cU, 0x3d4c20dabe254a44U, 0x3b3f71c0beb3a3eaU,
  0x3f3fceeb3ee76468U, 0x3e3a1ad5be0a1f83U, 0x3d4ba7663dac2926U, 0xbf151402bea21908U,
  0xbe4142183e4940f8U, 0x3db0c2553f38d3f9U, 0x3eb9d7173e34b9dbU, 0x3e997d293e09292aU,
  0x3e3de249bf419491U, 0x3e97d4c4be167802U, 0x3cfd85f5be301d35U, 0x3eba1185be89c79eU,
  0xbf22841abeb11d43U, 0x3ec463adbeeb8eb5U, 0x3e848f063e98dcd3U, 0xbf3c4fa5bf2611e0U,
  0xbdd5a7393bf4a892U, 0x3e8aed223e3f3f11U, 0xbf1f9ced3e8ddae8U, 0x3e52aed7be9fec0dU,
  0x3ecdcbddbefe944aU, 0x3f54b9e6bd81fe39U, 0xbd6b9d4abe67a39aU, 0x3e8e031c3da1e8d8U,
  0x3f2bc172392b7b62U, 0xbead2e0a3d893fb1U, 0x3eb8f14cbe6f5f70U, 0xbeffdf15be91451cU,
  0xbcef2d12bedf71edU, 0x3db0fda23d54c95aU, 0x3e0f6d1dbe292f78U, 0xbde2a464beb5173aU,
  0xbe2fc800beee10d1U, 0x3ee48a71bdd2f978U, 0x3de4eb063e633bfaU, 0xbdf8c6bebf592819U,
  0xbd516ebcbcf92494U, 0x3d8bbcf3beb86d31U, 0x3d592b69bedb7765U, 0x3e0521ae3c82fc62U,
  0x3c960532beca6cf3U, 0x3e1ad55cbee5b333U, 0x3f0f9941be8a207bU, 0x3ee81010be248055U,
  0xbee97ff23ed6d59aU, 0xbead9cef3e5aeedbU, 0xbe0393c7be88929bU, 0x3e40cbcdbefadd14U,
  0x3ebf7550bcd63e1eU, 0x3ea0d7ebbec29538U, 0x3d16b57abf22b9f1U, 0x3e8298d13d4b8409U,
  0x3ea3d1a83f136b20U, 0x3e61458fbf7e676aU, 0x3ed0e962bad2076cU, 0x3ed95ce7be5e7cb9U,
  0x3cd0a252bf2e24b7U, 0x3dfcad1f3da380e7U, 0x3eb07f57beb05e39U, 0x3ea7bc813eae8372U,
  0x3f2264a5bdd022e7U, 0xbbf48eba3ea6b81fU, 0xbd6501803f68318aU, 0xbea370dcbe2522a2U,
  0x3d891fd4be2dd8d1U, 0xbea3e69cbeab23fcU, 0xbf2a4ecc3d16d41eU, 0x3e6bc8523e9a8e58U,
  0xbc2cb944bf68453dU, 0x3c57ec7c3e090752U, 0x3e83c80ebe3e906dU, 0x3bd097113f031c01U,
  0xbe303f9bbe05ed82U, 0x3e1f90f53cf63710U, 0x3e9f9fae3d920f2bU, 0xbea0a81b3e721477U,
  0xbc334190bc8f3f38U, 0x3e578af9bd66124aU, 0xbf579f4c3dc42ca3U, 0x3ee2b172be4eea6aU,
  0xbe07711d3ef3b462U, 0xbebbe57abd67ac91U, 0xbd1a0a41be2456abU, 0x3ecd38f1bbe618efU,
  0xbf69e7b33dd4d870U, 0x3da946153e0df325U, 0x3eb865e33f896d98U, 0x3f35fc08bd4c32a6U,
  0xbde67ef43e0c3fb6U, 0xbe5ceaff3f08e4ebU, 0xbf4286d63e81dccbU, 0x3ea463b03d21ec32U,
  0xbebad84a3f008e31U, 0xbf026145bdf37da4U, 0x3e82a4c13e6febf1U, 0xbca71db03f8cb702U,
  0xbe50910ebdfc7ea4U, 0xbe273a74bee84693U, 0x3d8de276bf0ca8d8U, 0x3dbc0ee73ca7981bU,
  0x3e3a3376be2860b5U, 0xbe93bc03bf40b618U, 0xbec242f83dede36dU, 0xbe81b3e03cfab7d1U,
  0xbd91a070bec9ce11U, 0xbde8174c3ccf5ae9U, 0x3e697fd1bef724bcU, 0x3e5115a1bf0d5d00U,
  0x3f5e98f43e8a3f2dU, 0x3e812927bea2e6bfU, 0x3e78aadfbeb99c0dU, 0xbeab8e343ed2e898U,
  0x3df4037abd73ade4U, 0x3f0fb3fabf067e8cU, 0x3f7562a7be1d71feU, 0x3eb609273eee16c9U,
  0xbe2b98acbf205b15U, 0x3e4923c23da2b094U, 0x3e591ffabf05cb4dU, 0xbd22f661bf1d60c3U,
  0xbd97ba3c3d7c1925U, 0xbeb58c0f3db5ca4bU, 0x3d3efcb83f0ab289U, 0xbe4ebfecbe727a32U,
  0xbe522196be88f65dU, 0xbd27a690bef40a94U, 0xbe977bebbe39a379U, 0x3cf1ba88bc2bafc5U,
  0x3b8f3060bb353a7aU, 0x3c02efe53c3f63c8U, 0xbdf6cc7b3e211541U, 0xbe2bbe983f459b89U,
  0xbe88da433c4cc020U, 0x3f0ca450bd92526fU, 0xbf4cf5623f378695U, 0x3f61f3413e31ec91U,
  0x3ef679a6bd034dd3U, 0xbe2e08803f811552U, 0xbef67ada3d712bccU, 0x3ea773e5be826770U,
  0xbe9680b53f00a878U, 0xbec85284bca5259dU, 0xbca09b82bed0de28U, 0x3ef18fdebe9d81ecU,
  0xbf4c4482bcbb8c07U, 0x3e2bad7bbeb6bc5eU, 0xbd53349dbf1b3b6bU, 0xbf00f1b93e13f791U,
  0x3d1631a6bd056440U, 0xbe937dc0be862349U, 0xbf13182bbe1ded86U, 0x3ecbf053be749f58U,
  0xbcd2381ebeca1f80U, 0xbd415131bd3b7fe3U, 0x3eeb27cf3dc2a622U, 0xbe70c45a3f2429e8U,
  0x3eebd5763e5b78e1U, 0xbe1c5d833e836409U, 0xbe8eab2b3f68dcd8U, 0xbedb0d81bc5e0628U,
  0x3d918bc73ca7faa8U, 0xbdac08063defd257U, 0xbeab44bfbe83cb8dU, 0x3ee2d915be2f7979U,
  0xbe2f56663f3730e3U, 0xbf4162733e827825U, 0x3df89f84bc93bac6U, 0x3f139eeb3e91d0faU,
  0x3f5afd7ebe387f27U, 0x3e61237cbefe59d7U, 0x3e48c5a43f37244fU, 0xbf4745153ec65ba8U,
  0xbe85ffd63ea40330U, 0x3d94ff93be4a651bU, 0x3d3d95ffbdcee45bU, 0xbea1527abe6629d3U,
  0x3bc43f663e458af2U, 0x3d925db7bdd7a8f2U, 0x3d7bb8853e860c1eU, 0xbe79eea23c695237U,
  0x3e232bc5be3e4249U, 0xbe75e4fe3da8c2bcU, 0xbcafa9d53e91e065U, 0xbe604a17bea04fdbU,
  0x3e0d2c9bbeabf1ddU, 0x3d5e32a63e0567a3U, 0xbe2aea90be869519U, 0x3d7253c0bdf805bdU,
  0xbea413babe33e5b6U, 0xbe865964be89ca08U, 0xbe8474703d9a0c94U, 0xbe598a4ebeac9f45U,
  0xbe6e0d21be888984U, 0x3df38c863dae3813U, 0x3d325c9ebe96b08bU, 0xbcffa6e43e302653U,
  0xbc2145e23d6b4763U, 0xbdc1dbf93e679eb8U, 0xbd3bbe69be4285daU, 0xbc9e3185be4065bcU,
  0x3df704323db8ed14U, 0x3e3f4f75bab67518U, 0x3e28417ebda35e82U, 0x3e258ee9be5378c7U,
  0x3deca43a3e0b3ba8U, 0x3da6a894bb294e61U, 0xbd0995e6bea646deU, 0x3a019da8be1b062fU,
  0xbcf44055be81ce21U, 0xbea236b8bd4f4398U, 0x3e2c9adabdcd6eceU, 0xbe0b151bbe92c2d3U,
  0x3e9023c73e05f3d9U, 0xbe6ebf9ebe4cf0afU, 0x3da4a1b13e9d5d10U, 0x3df1f92c3e705e3cU,
  0xbd484878bd83ec07U, 0xbc9ebc943d9d69feU, 0xbe67639dbe5db0d0U, 0xbd762eedbe4615ddU,
  0xbe43cbf8be4a9baaU, 0xbcd5760bbdb0ea7fU, 0x3d1b8436be8c1501U, 0xbe97a7e83d835889U,
  0x3d806fd6be032846U, 0xbe8be4ecbe59f9a2U, 0xba12dbb6bec242c8U, 0x3dbcdb8e3deee458U,
  0xbe0b702c3ddf2e5cU, 0x3d79c3cf3e582017U, 0xbe311ca33df79659U, 0xbe78a4a1be3cdb4eU,
  0xbe71484fbdaf4361U, 0x3b3ca4c2be7d8409U, 0xbe014f3fbe83ad05U, 0x3dd532e0be3c0bbbU,
  0xbccd5a28be6588b9U, 0xbb1b47f4be1ad0caU, 0x3c01112e3d1cf594U, 0xbc39678e3d4c5ab8U,
  0x3c47ba003d1bdb66U, 0x3db9c5edbdd0158bU, 0xbb653f99bd13c3f0U, 0xbd8edb213d188658U,
  0xbcd32466bd9f2daeU, 0x3d0df3b83dcb830dU, 0xbe71f6a8bd9d0e1aU, 0xbe838e83bd9000f6U,
  0xbcea074e3d19496fU, 0xbdd0877cbd1e41e7U, 0x3d968162bc8ac58bU, 0xbde29adabdedd093U,
  0x3cc078703ca884fdU, 0xbda14006bd8d678eU, 0xbc87c9c7bd189c39U, 0xbc805b133d455a72U,
  0xbb9d9482bdaf52deU, 0xbd2bfba73c15bdb2U, 0xbb92d5e13d4fcf6aU, 0xbcfe86863d35613eU,
  0xbd8728d3bdf7c459U, 0xbb6d28bbbd3b42e8U, 0xbdbeaf9dbdaa78afU, 0xbdf84466bdc86816U,
  0xbd752a46bdc243cfU, 0x3e07cc343ba3f93aU, 0xbe35ad81bd1ae1caU, 0xbccfb0923e4411c4U,
  0xbd016c71bc312231U, 0x3bb6e830bdbec035U, 0xbda625c33d8c47cdU, 0xbdbf8b92bd0031c2U,
  0x3d953639bcfd507cU, 0xbb172dd33d515492U, 0xbe342dbd3c0ef31bU, 0xbd4a6577bd88dc6aU,
  0xbda28b48bc5ec36cU, 0x3dc0f77cbe3d1311U, 0xbde0ac16bda2931eU, 0xbc77c47a3b99536eU,
  0xbd2cab413cf9e7a4U, 0xbdba952abd847ac9U, 0x3df8fd68bc5b0bfaU, 0xbdd064303d0b8906U,
  0xbdc91b39bdd31fddU, 0x3db5aca43dc8a83eU, 0x3bbbef22bcf18eb4U, 0xbe6304b0bda4c69eU,
  0xbd2ff8603d5c8061U, 0xbdbc92dabccd35e3U, 0xbe1de2dbbda0d5e3U, 0xbad6e98abdd28ab0U,
  0xbe075f2b3db4a129U, 0xbe2cadb73d17bf95U, 0x3cd390d7bd647142U, 0xbcecbbdd3d0e1f58U,
  0xbe0374a53d6a2f39U, 0x3bada013bd4f40aeU, 0xbb011e6c3d9074e1U, 0x3dd414dcbe4f0894U,
  0xbd304b733d8b5e14U, 0xbe87f666bd449bf0U, 0x3e576b5b3e033c05U, 0x3e2a6299be49b852U,
  0xbcafbf6ebe05fb7eU, 0xbe5a185c3dd80cedU, 0xbe469fc7be847085U, 0xbe0c595ebd1efa3eU,
  0xbcb8ba3d3deb3ef4U, 0xbe5c473abd928644U, 0xbd162b12bc9df399U, 0xbd977b9abd9e0e95U,
  0x3ec5925fbdece6fdU, 0x3d3b7a04be427ff9U, 0x3cda5b7c3c5a3cccU, 0x3aa26495be5bf4cfU,
  0xbdb2ed55bd91433dU, 0xbd3d39b1be366fa3U, 0x3d9002dbbc095e3cU, 0xbe2cf6b33a12889cU,
  0x3c3694343e456b3bU, 0xbd1b02d33e48a8b7U, 0x3d72bb9bbe1c74e5U, 0x3b53a5b33ccf120fU,
  0xbdbf2314bd4bfbe4U, 0x3c3cce9a3cabc5b9U, 0xbd66670dbdd14becU, 0x3e373da2bd4c3407U,
  0xbdd63cf2bde361e1U, 0xbd8f1ec1bdb1e026U, 0xbcbc5a81be53c833U, 0x3e29a311be22c050U,
  0x3dc153b6be2e2f72U, 0xbd53f37a3c804de4U, 0x3e67f061bdc0caffU, 0x3e681606be33814bU,
  0xbd58216b3d169c56U, 0xbdc41a32be914298U, 0x3c84400abe323a1eU, 0xbd86ede53d72c08aU,
  0xbd6db2b6be1122d4U, 0xbe002d053d883d0fU, 0xbe305af6be06fdd6U, 0xbc8d2b2c3baaa2f7U,
  0xbdd2470ebe33404bU, 0xbd6d3a8d3d64ea13U, 0xbd65a7efbe6aa2aeU, 0x3d3d0236bd3de737U,
  0xbdc401253e00bcb0U, 0xbd0aa785bd89d6e3U, 0x3d2cd52e3d2d9bdeU, 0xbd59dfbd3de4a347U,
  0x3d981126bd2a805bU, 0x3e02c2db3e1f2ca8U, 0x3e4d2a1cbde7e0beU, 0x3e248f5a3c9f9de4U,
  0xbdd77416bdc57320U, 0xbde2e8b6bd181c30U, 0xbdc7234b3cc7f60fU, 0xbcb281fdbcb0977dU,
  0xbe8521aa3d672acbU, 0xbd8d92853d3d56beU, 0x3e79b5c2bdbe0fb3U, 0x3e4b0a81bd3a2dcaU,
  0x3d1b4aa8be897b8dU, 0xbdc00090bdd2efc8U, 0x3d4ee2763e35009bU, 0x3a62dde2be2a3b1dU,
  0xbd55e790bda503d0U, 0x3dc584e1bcf69df7U, 0xbd1877103d8ad653U, 0xbd181568bd9f8396U,
  0x3b666d1a3bf78811U, 0x3c1dc810bb6266c1U, 0xbda6eeca3d24b80aU, 0x3d20e543bdd456b9U,
  0xbd31432a3e080f49U, 0xbe676d38be3863dfU, 0xbe7fcd4b3d1f1778U, 0x3dd1d77a3d90061fU,
  0xbddb593e3d7d09c0U, 0x3d83393cbd2ccf14U, 0xbd414865be05ded4U, 0xbd18716bbdd2498fU,
  0x3cc3f95dbd83bb47U, 0x3db4cc023e1503bfU, 0x3e333b153bd2baedU, 0xbd8ab3093caf37f5U,
  0xbd192a523dcb5d65U, 0xbda0d084bc9be70bU, 0x3c385386bc5d928fU, 0x3bcc66bd3e58de51U,
  0xbc69a54d3ccecb44U, 0xba817510bda0fe1dU, 0xbe6968ddbb65005dU, 0xbe00cdc6bc514f25U,
  0xbda7eab73e8c17efU, 0xbe3a57613c6dcd57U, 0x3d9d973c3e19e603U, 0x3d038fdabe1771bfU,
  0xbe060196bd5d70a8U, 0x3e0f8cd33af9d038U, 0xbc056680bd1eab4eU, 0x3e041b3d3da112dcU,
  0xbe3549e03daa7b4dU, 0xbe4295a43d45effcU, 0x3d990100bd90e3acU, 0xbc638a033df82a25U,
  0x3d8926babcd42aa5U, 0x3da2718dbe029a6eU, 0x3dda29e0bd6ba033U, 0xbabb98e53e0aeeebU,
  0xbd709c453e3c3fbdU, 0x3d739adfbd3f0577U, 0xbdb9678d3bfdf414U, 0xbddb07a0bdf2753bU,
  0xbd8d1c6e3c4171a6U, 0x3caf13a0bc127917U, 0xbc2bd6193d712102U, 0x3d1f55413e007f45U,
  0xbbb88be83da4bee7U, 0x3dab95bc3d2e673bU, 0x3d2aaf34bc634ee2U, 0xbe047a6c3bf4a2e6U,
  0x3dc4b7db3cac5ff8U, 0x3cca222e3d60f21aU, 0xbd8402ae3c1b702dU, 0xbe01a1e5bdcca9a6U,
  0x3e4f630d3d00757dU, 0x3d263aae3e4f1cc8U, 0x3e7c9faebd0d46daU, 0x3d9c8b1f3d876d10U,
  0xbe6c8e453d0f0c05U, 0x3cdf9b353ae91066U, 0x3e8985533c6ed144U, 0x3d2d467f3c752c45U,
  0xbd939366bc8c51c1U, 0xbe45ec30be4fc0eaU, 0xbe645ae2bb9ff8b6U, 0xbd2b16fd39fa1de7U,
  0xba8b4829bd403b6cU, 0xbbe9cfdabd3be82eU, 0xbe4e9d3a3e02f4feU, 0x3e6daf90bdb94474U,
  0x3c95fab3bdc85a50U, 0xbd9f1a8abd482626U, 0xbd5dc888be2d82f2U, 0xbd29aae7bc9c94e5U,
  0xbe28d3cebe147ab7U, 0xbd80ac6b3d930b39U, 0xbdbdf493bd6b7602U, 0xbd151dce3d93b885U,
  0xbda9d3083dee111fU, 0xbc769befbb21a964U, 0x3d6ba791bdd1c185U, 0x3c872440bcb7b5dfU,
  0xbda1e971bd07321cU, 0x3d79d3b8bd277003U, 0x3d8adfec3e535584U, 0xbe5474e6bdaa2990U,
  0xbde6e5b8be04673fU, 0x3d7e5378bd27ea5fU, 0x3d73afb5bd98e247U, 0x3e98be7abe885506U,
  0xbdf94c8a3d0a8498U, 0x3dfff28ebd8aee36U, 0x3c745f74be0f2ac7U, 0xbe2e100b3d84d5fbU,
  0x3d0e81a8bdcc5f47U, 0x3dc524563afd99e1U, 0xbe63815b3d53f559U, 0xbdca39e6be8148b1U,
  0xbd12f7453e44197bU, 0xbce3c312be14b5fbU, 0xbdce6f483e098892U, 0x3b98a39ebe2024f9U,
  0x3c9558e9bc5ab3f0U, 0x3beabb7bbe1724d5U, 0x3d044408bdf0b313U, 0xbdeb26b73dac1f4bU,
  0xbdba1f92bd0e68cfU, 0x3dcba1e8bd8bcb6cU, 0xbdba0493bdb0b099U, 0x3cea8b8ebdfa7a0fU,
  0xbe05efc1bdc3a14cU, 0x3e41f20fbc4f74f3U, 0xbd886afa3d5fedaeU, 0xbb758dc23b8836ecU,
  0xbe87e2403cc57f2bU, 0xbdbd908fbddec34aU, 0x3d10bf9dbe490b5dU, 0xbddc87bd3d83da65U,
  0x3e2fe270bd3801abU, 0x3e39627abd85d8afU, 0x3e2d5120bcf01446U, 0x3ab69e43be248700U,
  0x3de250463ddb3a56U, 0xbdc027f93df0ce0cU, 0xbcc53341be59b17eU, 0xbe1f3f683da8e161U,
  0x3d877eb33c1e4036U, 0x3da32e073db6499dU, 0xbd68fc473d9647bbU, 0x3d40fb48bc3bf74dU,
  0xbdd9309dbde00379U, 0xbd28ce10bd29fcf7U, 0xbe05b2903d5c73bbU, 0x3e11deb33d6b3773U,
  0xbe8d0349be83fafdU, 0xbdfbd9dc3d9ca991U, 0xbd0a822d3e3f51a7U, 0xbe3cad333dbfd753U,
  0x3e213fc73d880d2aU, 0xbe1b4cb8bd313861U, 0x3e211a773be1d20eU, 0xbcc2707c3c196855U,
  0x3d739d0c3cf81d8aU, 0x3e5047383df2b02bU, 0x3c870f193c96e1b8U, 0xbd3cae95bd620728U,
  0xbc958d98be2592cdU, 0x3d67a9c03e27f5eeU, 0xbd3129c23d842062U, 0x3d48169e3d5e0b93U,
  0xbce63ac33d7d0e50U, 0xbdddc65c3df26892U, 0xbd43974ebcac9686U, 0xbd8d98743e073933U,
  0xbe7f12963d95592aU, 0xbda669cd3eaee7bdU, 0xbd452befbce3c7d0U, 0xbcdaca673d34dbe5U,
  0xbcbc65383dba33c2U, 0xbd91811e3ddac1b5U, 0x3e130fb13c9d0f2dU, 0xbda09d323daf56c2U,
  0xbe90b9ecbdad8bf5U, 0x3e67db3abd12b4e9U, 0xbdb387443e29f710U, 0x3e2b99a5be3a562fU,
  0xbc8c82bebd0384aeU, 0x3d6ea717bd2dc261U, 0x3d07e6323e4cf7b7U, 0xbd1e74173cb4f923U,
  0x3e1e82683e6f4ba4U, 0xbd910e43bd5f8a02U, 0xbdc054abbe255858U, 0x3cc4bada3e6ba72dU,
  0x3d1dbfd13caec0cdU, 0x3db3c722bd8de086U, 0x3d0a4ec0bdbf606fU, 0xbd2bdaefbc8cffc1U,
  0xbd8b1d86bd986c23U, 0xbcfe2bcc3d994186U, 0xbdd593cd3dc1a941U, 0xbd9557b23ddaf65fU,
  0x3e2994fbbd888246U, 0xbd6bce913def709aU, 0xbdd016f03d8e46e4U, 0x3e89f8eb3d3555cfU,
  0xbcecdd393e7cd54bU, 0x3d4c95723e0796dcU, 0x3c1a22fc3cdfab3bU, 0xbd62b873bda728e5U,
  0xbe01c7eabe904a7eU, 0x3ca60a41bdad13f7U, 0xbcea49a73d3face4U, 0x3da1dcfe3d66040eU,
  0xbdaa1e59bdc01d03U, 0xbdd0d8c3bcf30e73U, 0xbd171390be3c89baU, 0xbd95c4253d3a2195U,
  0xbd7916a4bde75aa0U, 0xbd96e0ba3d543fb2U, 0xbcc49c653de0f5e1U, 0xbd8da69ebc42c1abU,
  0xbdaa979dbe3db296U, 0xbd01612dbe39554bU, 0x3d0a95afbdd047bdU, 0xbdd664d4bcb61adeU,
  0x3c09f77f3dbf3b9aU, 0xbdc728ebbe11353cU, 0x3defab1d3c9f1c4aU, 0x3df185763db15be9U,
  0xba26737abdfff909U, 0x3cba2b87b9006ddeU, 0x3d0021e63ce0edacU, 0xbe27ed5ebdf38822U,
  0xbdc215ccbd175ee7U, 0xbda10265bdb8b57fU, 0xbd23b639bd9cc2a5U, 0x3d8babc1bb073d7fU,
  0xbe17ba7c3e1b6deeU, 0xbdfa3c39bdbdc958U, 0x3d8bd76c3d70a7d5U, 0x3e0c1938bdb7f7b1U,
  0xbdc82a00be1f9534U, 0xbb20c5333dd9f0c7U, 0xbe4e78adbdff2b8bU, 0xbd4e68e2bd8ca7e5U,
  0xbc27e6723d7403d2U, 0xbe80e18d3d6abd36U, 0xb9613b07bd0bf8d6U, 0x3d76b6193cab6950U,
  0x3d574a7dbe1003eeU, 0xbdd0b19a3d553132U, 0xbd8274b3bd997b06U, 0x3d9ec9dcbd16e085U,
  0xbe138021bdf06762U, 0xbb898393bde8d544U, 0x3cc568debbf2b7f5U, 0x3c9aa6593dab323cU,
  0x3d3e62f73e04772aU, 0xbdb05010bd612ca7U, 0xbde026133c6ea290U, 0xbe82a624becf2093U,
  0xbd83965a3d81fb1cU, 0x3c985d8a3dc6cf89U, 0xbdcf7cedbdb62ac6U, 0x3d6b4f32bd3116c9U,
  0xbd9236003c7e6683U, 0xbcf352613d115eabU, 0xbd952694be836b17U, 0xbc95f82a3dcc4880U,
  0xbd4a99563e07ec92U, 0xbb19e78f3d554c36U, 0xbee0c77c3d09dc8eU, 0x3c11cee3be1c013cU,
  0xbe357fb3b98e5608U, 0x3d1ee5e1bc9e241eU, 0xbeab33fd3d793ed4U, 0x3e616ec5bc4f0e27U,
  0x3e5ef538bea1fafaU, 0xbf3390ef3e732af7U, 0xbdcf76e6bef5f5fcU, 0xbdc4c9693e210567U,
  0x3c5f82ddbd1dc672U, 0xbe6abb2ebd82e014U, 0xbdb7c37b3e04154bU, 0x3d226e4a3e0bedb1U,
  0xbd17bc533cd3c032U, 0x3dbd51d33d34f0a3U, 0xbf1d02363e3f32ddU, 0xbf074b1f3e4cdb41U,
  0x3db00c443cc1e9e6U, 0xbc083faa3e72495eU, 0x3e3353fd3e8d5c18U, 0x3e6d830c3e308b30U,
  0xbd5c6ae33e23553dU, 0x3d5469133e3b4d38U, 0x3da36d24bd62d1cbU, 0xbebafdb93d877cebU,
  0xbdb82b763e1b60deU, 0xbebfd4563de21f70U, 0xbdd466bb3d69f8b0U, 0xbe9a9ff03c88cf96U,
  0x3d029610befe6997U, 0x3e92de913e1cb7bcU, 0xbe212ec33e007558U, 0xbcdc7ee0bcd2a8beU,
  0xbc882ea9bd1dd357U, 0x3df8b4dfbda2b387U, 0x3e31f033be015bdaU, 0x3e2faa403e7c896bU,
  0xbf20c2f0be377c68U, 0x3e136d97bdf903a3U, 0x3e78cd44be5c40a5U, 0x3da8130fbeca5573U,
  0x3bc4a4023e87b71dU, 0x3e3fb0293dd23825U, 0x3e30cdbdbcfab636U, 0xbead0c8c3e15cc2cU,
  0xbd94aaad3dd452d5U, 0xbf0b57903c1c60edU, 0x3e0de8413caa26d4U, 0x3de0aa1d3e57ce1aU,
  0x3cb5b29d3de6e81dU, 0xbc61bcd53e3054acU, 0xbcea51ba3c7b655bU, 0x3e1cdc80be0e826aU,
  0x3d892356be0fad37U, 0x3e34c986be7771e6U, 0x3e0e10d6bcf8a162U, 0x3decf5383e6921f6U,
  0x3df5c4f93e523047U, 0x3e16fa2e3cb8334dU, 0x3d5689403cfb761dU, 0x3d2d1d09be5e9513U,
  0x3e1e67dbbe52f26cU, 0x3d6fcd01bd4508f2U, 0x3e2e9e1fbe344f00U, 0xbeb970aabd480d01U,
  0x3dba30cb3d2fe430U, 0xbd39cff7be5fb7f4U, 0xbcc1358bbe6676b3U, 0xbe17f655bd5f2f21U,
  0x3d9d7801be8451a7U, 0xbecfa0983e6a0ea4U, 0x3e42b9373dc35b11U, 0xbf0a0336bf12f14cU,
  0x3d06caabbd980413U, 0xbcd214c5bda35751U, 0xbecef5f23ec24698U, 0x3ea8fd46be301968U,
  0x3d9bee64be168441U, 0xbcce6abe3ea4cbb0U, 0x3e1e35073e773230U, 0x3e147c8b3e6e90fdU,
  0xbdde0fe9befb54f1U, 0x3e2c3d0ebecb750aU, 0xbe3678b93e3ba252U, 0x3e2664413de629ccU,
  0x3f07a96ebe21c23bU, 0x3da6b36f3e3bcf56U, 0x3da911f73dbf7e26U, 0xbdde32f8be6e7f42U,
  0x3e5db23e3c0a5788U, 0x3d97a8b1be85d84dU, 0x3e5fa5cdbdc5154fU, 0x3cbef5b2be37c35cU,
  0xbd8cc7b23d0c7d97U, 0xbed8577dbec784fdU, 0x3da1c4f83e7e8f1fU, 0x3ebc21443e65e721U,
  0xbe2ee7debe648a93U, 0x3c45ad35bd252061U, 0xbe98289ebd5621a3U, 0x3818be663ef0814cU,
  0x3df049de3e47ee61U, 0xbec17ab93eceeac3U, 0xbe088b8dbf0d6acfU, 0x3d7c2a713e0a696fU,
  0xbe1a9eb73e07d78dU, 0x3d8ec9e83d128ca5U, 0x3e8d021a3dc2889bU, 0x3eba505a3da86305U,
  0x3dd2c3333eb37545U, 0x3d8edcd8be10b23aU, 0x3f01d2a43da3f9f7U, 0x3e0ee33ebef31f38U,
  0xbbd3582cbddaac5eU, 0xbe8b8ee13e745feeU, 0x3e5589c83e85eba1U, 0x3e9b59db3e8687bfU,
  0xbe736482bcebe384U, 0xbba2df0e3d8ac2f3U, 0xbd36986abe953f0bU, 0xbda3ab273e97a4acU,
  0xbc0757363dfb4c8fU, 0x3e28ea9e3edbebc2U, 0x3daae75a3eb09be0U, 0x3d6be31f3e43af49U,
  0xbda73b51bdd84770U, 0xbf06bf79be3fdcd5U, 0x3d8691783e5253f8U, 0x3db96a2a3e9954edU,
  0xbd0cdd553e642c66U, 0xbe8efce9bf06797bU, 0x3dd6508d3e71b763U, 0xbef235563dab6f60U,
  0xbe977076be8c889cU, 0xbe7e3a6bbe14c6a5U, 0x3ea3d615bcb7938eU, 0x3e90d283be48c274U,
  0xbe8dc2643e92706dU, 0xbde6bd37bec84f6cU, 0xbeded88c3e4304d5U, 0x3cb95456bc2bb0bdU,
  0xbeb1f4b4bdb1d967U, 0xbd9fc0b53e235d57U, 0xbdc2e47f3e2bb83aU, 0xbd9e4243bdcdcd46U,
  0x3d8307c23e021537U, 0xbebe87d23e95715eU, 0xbe818b883e3448a9U, 0xbdc8f337bd3b69dfU,
  0x3d909c153d9867ceU, 0xbd8d75c73e71dc62U, 0x3e2dbda03e0e7084U, 0xbd8693b03ec3c169U,
  0xbbb2503d3e90f43aU, 0x3e218028be3cb375U, 0xbe934bfc3e9a1aefU, 0xbe4404d23e9762b8U,
  0xbeabb69cbca3b63fU, 0xbd72fcd23e29a19aU, 0xbe1cdb8dbe598553U, 0x3e2e5187bea5ad1aU,
  0x3e280c7c3e4ab77aU, 0xbdc0474a3d53c546U, 0xbc981f68be6192baU, 0xbcdceca1bcacb1f8U,
  0x3dd290f6be5ac01fU, 0x3e4eaec0be54c5e3U, 0xbd9380663e38c94bU, 0xbede3d90bedfd193U,
  0x3e5511cdbded370dU, 0x3ea949d7be802307U, 0xbdafac4bbee5fb3dU, 0xbdf67e4f3ea795c5U,
  0x3e46a6723e7751f8U, 0x3e91f847bc5632ebU, 0xbee3319c3e23a93fU, 0x3ce44afd3def4a91U,
  0xbe166ff63e3f0220U, 0x3a3bc066bd87b649U, 0x3e72d24d3e755698U, 0x3bcaa54ebd4a347bU,
  0x3daaf2353e5336f2U, 0x3c56416f3e4a96c6U, 0x3e1b7d09bdb6501dU, 0xbeb8fc75beb9456aU,
  0x3e8c811cbeeac1a9U, 0x3e828cb4be8df5cdU, 0xbe273c8c3e90bf10U, 0x3e87516a3e92e62cU,
  0x3e84d0333dee11bfU, 0x3d6f898e3db4ed87U, 0xbe2c14e4bec7c131U, 0x3eba3443be5fab91U,
  0x3e29cd64bc06abedU, 0x3e69a7d5bea62dd2U, 0xbe6a2c95bd873b33U, 0x3dbf5aa6be7d23cbU,
  0x3b43c5fbbe3a0ac5U, 0xbe4de4ffbe84e6ccU, 0x3da8ffcf3d2aabceU, 0x3dee8c22bdb5e6d7U,
  0xbe8f04ea3c65a983U, 0x3e05d5b63c6db422U, 0xbe7a0862bed07cc7U, 0x3e0077eb3dfc856cU,
  0x3d4e39183d79f7cdU, 0xbe88d33d3dfa172aU, 0x3e5e8d253dc6f780U, 0x3dc770e4be0bae25U,
  0x3e02885bbca115b6U, 0x3c901a603d461bfeU, 0x3cee59143dfddcccU, 0xbde3b0b8be2e6db5U,
  0xbd82dd31be958f5cU, 0xbc9c48b93d9d086dU, 0x3b921a6cbe039130U, 0x3e102de6bddf87a6U,
  0x3cab93683d990115U, 0xbb449d62bcbda48aU, 0x3da74bbbbe8d1604U, 0xbce03793bd549cecU,
  0x3d0755e9bdfb1e62U, 0x3e14788d3d41b8c5U, 0x3e38d850bdd4ed50U, 0x3de5d6b83dffc8f4U,
  0xbe852b68be3394c4U, 0x3e1bf489bb98f529U, 0x3e4f02263d67b791U, 0x3d9bc4d73dd9ffb3U,
  0x3e3798babdbecf48U, 0xbd8ef6db3cf4b68cU, 0x3b47cdd23e7e83a8U, 0xbdd9482ebd4cf4acU,
  0xbe7c52363e4462c2U, 0xbe32a27abea62b97U, 0x3e0956803db31b53U, 0x3beadd2d3d2e2425U,
  0xbd9c8224bdfa8379U, 0x3e1635d5bc996078U, 0x3db0b9563d308c91U, 0xbd10eb31bb8557ceU,
  0x3de98439bdb5b446U, 0x3d62b3cc3e0e9eb5U, 0x3e01c279bea91d2aU, 0xbd45efe4bd20f209U,
  0xbeb91a563e0384a1U, 0x3c24ed1abd1d2ddaU, 0xbc1121eebd481882U, 0xbe6ca7503e30c1ecU,
  0x3d43d4923a92f175U, 0x3dfbf449bc4db71fU, 0x3d8a36513dba0768U, 0x3c8c7c09bd6c0e7fU,
  0xba932a323e091875U, 0xbd88b78b3e125ea5U, 0x3e24cae73ba0e9a9U, 0x3d895d38bdc7d299U,
  0xbec85aa1bd6ce1efU, 0x3d9869ba3dc9fab3U, 0x3e0270c73de93200U, 0xbc6be746bad0122bU,
  0xbd59632abe6e4110U, 0x3d3493a03e9403b1U, 0xbe0dc7bc3e47a986U, 0x3b345e6bbe152026U,
  0xbe8f1c83bdb7f02cU, 0x3e3251e03c9b9e5eU, 0x3dd4c4b0be5acb12U, 0xbf0daf3f3dbab743U,
  0xbe090b79bf112cf1U, 0xbdceb9e53d8503d4U, 0x3c6d5440bda2df2bU, 0xbe00d55bbdb60358U,
  0xbd8eb7e83cbf2bd5U, 0x3d26fcc83d38e346U, 0x3dfb3108bd04c49cU, 0x3d3d2d8a3ca25cb1U,
  0xbefaae0bbc95962eU, 0xbe961de93de4e5a6U, 0xbd8637f33e153c53U, 0x3c2ea942bd8110ccU,
  0x39af8c113e4e11daU, 0x3e0834783c96f83eU, 0xbd969cfd3e45c5dfU, 0xbcae96453e474a83U,
  0x3d8bf908bdbbbd1eU, 0xbec35cfb3e6b6991U, 0xbc094a6e3dd1ae26U, 0xbedc73753c27c45cU,
  0xbd66e4533d04184cU, 0xbe8bd3fabc8e16a2U, 0x3c9e259dbed32ab3U, 0x3e065fe1bc847dd9U,
  0xbdb17fe63dc66533U, 0xbd8a01b6bdf8eccaU, 0xbc6454f23bc4efc4U, 0x3e0f3a54bebb1104U,
  0xbd025c4abd08d437U, 0x3a65f4393db12837U, 0xbf1877aabf0c158dU, 0x3e53543ebd9ba8d9U,
  0x3e29d650be6243d1U, 0xbde8ecc4bee11152U, 0x3caf8df23e1d2899U, 0xbd3c89b63dd16590U,
  0x3da832f73e000e4bU, 0xbeacf18f3d23e667U, 0x3c3c67bdbd4510cfU, 0xbee97ac7bbb4f4f7U,
  0x3c4e796dbcaf67bdU, 0x3e3d3fa33d14bd82U, 0x3d80f1c0bd5a30f0U, 0x3d910ae33dca4b15U,
  0xbd21c3bf3dc24225U, 0x3e1c87f7be022ea4U, 0x3dc9ba34be4784fdU, 0x3e03eac7be2f8de5U,
  0x3d9e2385bdbb5178U, 0xbdb3bc233e1a6bacU, 0x3e1df3283d4763fcU, 0x3e4b32ccbe42c4bcU,
  0x3da4c197bd146211U, 0xbd184225be7593ffU, 0x3e15002cbe87eea3U, 0x3d3160d23cfa919aU,
  0x3e2cfed1be5a6784U, 0xbeac144ebc60b2d9U, 0x3ce512f5bd09a3f6U, 0xbe08e794bdd8a1caU,
  0xbe6b91a5be868c21U, 0xbda34048bdeee368U, 0xbca40483bd91d27fU, 0x3dde62cfb9523490U,
  0xbe208f643e0b7d8cU, 0x3d069ebabce235d1U, 0xbeadfa4abe3e7180U, 0xbdb6a13cbe6fa1b7U,
  0x3cfb164c3d8eb5f2U, 0xbe10981bbe7b7d3cU, 0xbee78a583e894b77U, 0xbd834908bdfaeff4U,
  0x3eb378d23c9fd933U, 0xbcc2ee71be40c18aU, 0x3e1ae6c03c80d3a2U, 0x3df8a8943df0c44eU,
  0x3c992cddbe2f8eb1U, 0x3de7ada63ef05e50U, 0xbe26c3de3dddb3cdU, 0x3dba599a3e178da9U,
  0x3dc31e7a3e9ec4b7U, 0xbeaa74563e2aaee0U, 0x3df9ffa5be178df2U, 0xbcd5de47bd7c55dbU,
  0xbe71aac8bddc4e56U, 0xbd8d5d8fbcda8aa6U, 0xbe073e16bc26a13cU, 0x3deea2fc3c966bfbU,
  0xbddd78f83d6daea0U, 0xbe25bd83bd98e4daU, 0xbdac6c03becd2101U, 0x3e4af236be47713fU,
  0xbe5ed67dbe435e20U, 0xbe358602be7f132eU, 0x3e41c8aabd139caeU, 0xbd69524bbe4240dcU,
  0x3e250562bba22961U, 0xbdb0b2603de0d87bU, 0xbe0b3ba93e412e0dU, 0x3d9aae7bbe68dfcbU,
  0xbcd1b7cd3e09d3a3U, 0x3e03e157beb9a568U, 0xbe48c1c63e8e29d9U, 0xbe67cef2be4c82b1U,
  0x3df7b232be69dcffU, 0xbe3962033d66c6b4U, 0x3e2b257ebd0ca456U, 0x3da20fe73e74b253U,
  0x3e19a46d3de366d3U, 0x3e0eb7a93dccf187U, 0x3e118bb03da157a7U, 0xbebffb10bbcf1df6U,
  0xbe709ddbbe983a8eU, 0xbd99c5d1bd87a00bU, 0x3e459aa63df56becU, 0xbba6fcd5be6d3353U,
  0xbd6cce27be0aae6bU, 0xbe0ee1803dc25a45U, 0xbe9857afbd840923U, 0x3dab3861baa341aaU,
  0x3d441df63e26be37U, 0xbdd5d0be3e316bb5U, 0x3e36100e3e0ad0ecU, 0xbe41defe3e28fc71U,
  0x3da482bdbe2209e2U, 0x3bce1c3cbd1b4bd7U, 0x3e8622abbec6b56cU, 0xbdded5b43dece3f7U,
  0x3dd4b8bd3dbce506U, 0x3d23c7943e1f06dcU, 0xbe46d8b2bd768bb3U, 0xbb819793bd32ff57U,
  0x3e073708be94a5b5U, 0xbe03ea9dba52f91cU, 0xbda5f6c0bcf37bafU, 0x3da0c9103e5a15d0U,
  0xbe78bd3dbe8a1570U, 0xbe5964a73e78b6e9U, 0x3de9dba93e0a017dU, 0xbe08e73c3d2f22a3U,
  0x3dbde5f63e09891cU, 0xbe6e8413bde94f50U, 0x3e1033b33d4ed4abU, 0x3e05d756bd3d76ebU,
  0x3e3156913e30231fU, 0x3ea6906e3dbfc7a4U, 0x3d92ac15bd21639aU, 0x3da082343e10c51fU,
  0xbe1faa44bdc6ce44U, 0xbd45217f3dc26cf2U, 0xbdb0fd1c3e7823c8U, 0xbe0a9092bd3e2f3bU,
  0xbd8c032b3e0fd33fU, 0xbe12175ebd886ca8U, 0x3c8763df3db2371bU, 0xbdbef5e83e9dd1d8U,
  0xbe4ad0073d69ae8eU, 0x3d0b66b93e978b4cU, 0x3d543647be2c0e6eU, 0x3c604cf93db3e3e7U,
  0x3e690fba3e490f39U, 0xbe48ea573d98b2dcU, 0x3dde8d733cc16c19U, 0x3c4ec58f3d5e8e7fU,
  0xbe370388bcb8cf97U, 0x3d14d618bdba6c59U, 0xbdbb024c3d195e8fU, 0x3e20fe36bd903d53U,
  0xbdf29f3cbda13869U, 0x3e11d1cfbd83c3bbU, 0xbe2cbe283dbcc432U, 0xbd5227dd3e28dc35U,
  0x3e07947c3e42c89aU, 0xbe2ec9dfbd373679U, 0xbd8e01eebe693b23U, 0xbd640a783e125fb0U,
  0xbcec782a3dbdcc9bU, 0x3dbbd0fe3cba5c81U, 0x3b2c7dfc3dfae6f0U, 0x3c7aae2f3e7bafaaU,
  0x3d488fd6bd135252U, 0x3d8486da3cefd78dU, 0xbdbe410d3cb800e6U, 0x3cfcda89bd135799U,
  0x3d8abaa33c128816U, 0x3c1d59a03d3bd337U, 0xbdb232f5bd567299U, 0x3e18bf673e8e80bbU,
  0xbe31edba3ebcd779U, 0x3dfde6ac3e4bd039U, 0x3e7595a93d1b0483U, 0xbe4806a43c9f0c45U,
  0xbd330e73bd8ed3e6U, 0xbc71352dbd7b0847U, 0x3d2a3244bc6342f7U, 0xbda000293d91efd3U,
  0x3d9d6fa93d72b0ddU, 0xbe4ed0a8be39ba39U, 0xbdac0b8bbe6b6b3bU, 0x3d6eb835bd5766cfU,
  0x3cef9463be332489U, 0xbe93b8223e31b9e6U, 0xbdba4eabbe46e71fU, 0x3e3b1ec2bde6635aU,
  0xbd2015c8be270696U, 0x3cbf990cbe163fb5U, 0x3dbc6b8c3cc06b5eU, 0xbd6ab5cabe1b708dU,
  0xbbd300513e123a47U, 0xbe0253a9bd413050U, 0x3d9def233e0efbbdU, 0x3d45fade3e01abf3U,
  0xbe609469bc29b012U, 0x3df9ef57bdfb2e83U, 0xbcb94df7bd8e9618U, 0xbe27680fbda80ca5U,
  0x3d049963bd61f0baU, 0xbdc6fe0c3dd527acU, 0x3de5ca1b3db5eb7aU, 0xbc96e6233d3daa7cU,
  0xbe29f25fbddf6860U, 0xbd9962a7be34e8abU, 0x3deb8c61be72ccc6U, 0xbe634f57be1c4976U,
  0xbe11ad2dbe1d86dfU, 0x3e1ce511bd8096ecU, 0xbd8c0d37be26aa78U, 0x3e18254a3d6cd92fU,
  0xbe0b93ae3dab9e1aU, 0xbda4b204bc05a81eU, 0x3d2b3142bdee4228U, 0xbd6135773d8b592cU,
  0xbc17cdf8be896379U, 0xbe5083963dfd0d4dU, 0xbdd03b29be404fb1U, 0x3cbfde8ebe19e3e1U,
  0xbe058aa3bd492301U, 0x3dd0bd27baa60eefU, 0x3d7b62193df91a3dU, 0x3caaef133c0af478U,
  0x3d5173453bf27adbU, 0x3d582945bd30d467U, 0xbe65bf65be03c24cU, 0xbdab5ce1be6a4e7eU,
  0xbcd248013c856c61U, 0x3cc5472c3d805295U, 0xbe12461dbe28cecbU, 0xbd4349c9bdb2eba6U,
  0xbe0b41a0bc9128acU, 0xbd8a5673bd9ef965U, 0x3d4cd52abdd4deb3U, 0x3d83f8a03d7d9d0fU,
  0xbca9417e3d81fccfU, 0x3dd42dae3de10a7fU, 0xbde7f2cf3c878031U, 0x3ce64020bd1d2e7fU,
  0xbd83f876bd7170ccU, 0x3df65a27be223c23U, 0xbc5932dc3da75a9aU, 0xbdc23a103dd01f81U,
  0x3e5d8faa3e836395U, 0x3daf62c2be05a643U, 0xbe139b9e3e4acebfU, 0xbd72bb3ebeb72d65U,
  0x3d0ebbe5bd10a399U, 0xbd8c004e3e85250aU, 0x3e09ffa0bdc4fba2U, 0xbdf59f82be40d7baU,
  0xbe4ccc643dc0bd31U, 0xbe8639a23e87b9e5U, 0xbd061628bdc76ba6U, 0x3e3b36813e826aa1U,
  0xbe927002bc875eaaU, 0x3e2505043e36cd5bU, 0x3e80623d3d837f94U, 0x3e8b8773be5391caU,
  0x3e83a4dc3deaac08U, 0x3e0146f83dda770fU, 0xbdcff223bdc0cd88U, 0xbc86815c3c02f81aU,
  0x3e1e8453be0bf4a1U, 0x3c960bfabe1e21b6U, 0x3cba0dcabe3bb076U, 0x3d3874c1ba87aa4cU,
  0xbd9042223e77ab8cU, 0x3c987b07be19e56fU, 0xbe8746bbbe543fffU, 0xbe8ac3203d884620U,
  0xbe23c4e13e1bb203U, 0xbeb23832bdeaba4eU, 0xbe141a64bb6454e6U, 0xbe5b32733e9266aeU,
  0x3cc6c45d3e7f739dU, 0x3d1de0bb3e26ceedU, 0x3e302c54bc332c6bU, 0xbea5f0093dc64ec5U,
  0x3dd6f09d3d94037fU, 0xbe48cdf9bde62bacU, 0x3dadb88fbe03d5b9U, 0xbd929ad4bd9540b2U,
  0xbe6262cdbd67a8a5U, 0x3e1e48fb3d1f3f17U, 0x3dbc7136be85d4e5U, 0x3e3a27413e40cc10U,
  0xbd3ff2c83da16756U, 0x3cf040ae3c098c85U, 0x3bdec97b3e4059bfU, 0xbd2e15573e625ed0U,
  0x3e5c1d39bcd8a6f4U, 0xbe433ebb3d1daf5dU, 0x3e3cb9703d6c58d6U, 0xbe4d1c513e6f803aU,
  0xbdf1223cbe0f858fU, 0x3db7995ebe88ee3eU, 0xbd4c152cbd6eb068U, 0x3e814b03bdf7ce08U,
  0x3e2e7fa63e1c3483U, 0xbc4048273d166ffbU, 0xbd2ad17bbc3a185bU, 0x3d40309c3eb0a9ceU,
  0xbdfce3c23d6a7be4U, 0xbd880f93bd8f2d2cU, 0xbe5204053e30b565U, 0x3e7330de3e0d6de2U,
  0x3dd59c17bcabf828U, 0xbd41ab8dbe13d3b0U, 0xbdf0e87b3d9a8da8U, 0xbdd3a895be053d9cU,
  0xbe6e0f4e3e4045d4U, 0xbc5fd7053e423424U, 0xbd0e805ebd8f9f0fU, 0x3d90d65f3dc75573U,
  0xbe3c027a3c011c5aU, 0x3e6340babdcce873U, 0x3bd6cdb1be048520U, 0xbe1bdfb9ba542236U,
  0x3cf2670fbd4ca089U, 0xbe55a29ebcfe272fU, 0xbd211a163c83812fU, 0x3cea6c143dbd6b39U,
  0x3c79201fbd8b706aU, 0x3dd626fc3dee82d0U, 0x3d6f56103e7d72d1U, 0x3e624683be20b6ebU,
  0xbd50269a3d8882c0U, 0xbdac266f3d57fe78U, 0x3e4958683c6149a3U, 0xbdb6f9253da1c6ccU,
  0x3e4222103d9e1e42U, 0x3c6d87e6bdda20b3U, 0xbd61dcb6be16dd95U, 0x3dbff5a0be0bdd8aU,
  0x3e65e6ecbde60cf9U, 0x3e3c8350be879941U, 0xbe69de773e16d90eU, 0x3e43a997bba507baU,
  0xbc0f58e4be2ac5e4U, 0x3cddfeb83e139e62U, 0x3d95c759bdcecf8cU, 0x3e86b549be161036U,
  0x3de2e4d6bdb174dcU, 0xbad12085be99af7cU, 0xbe5d0a4c3e37e4f5U, 0x3ce41c24bdc76da0U,
  0xbe1d7d963da8de3aU, 0xbd95b3973dfb8f24U, 0xbd2199f03e27c539U, 0x3deeda84bdeb8431U,
  0xbd162d6f3d93b228U, 0xbda665663e38051eU, 0xbdb344dcbdebee4aU, 0x3d905dbfbe0f8140U,
  0xbcec4a023dad150cU, 0x3ec99e37bda12c51U, 0x3e7fd6e73dfe88ecU, 0x3e6f30d4bdcb45caU,
  0x3dd2f7d5bc95c322U, 0xbe0b0ed33d519ddbU, 0xbdf01dbebd1ab74bU, 0xbc274ce3bda94a0fU,
  0x3e85936bbda4bcedU, 0xbcf887313e1472c1U, 0x3d885789bd040924U, 0x3ede683ebddca756U,
  0x3e9c6985bd827c29U, 0x3e1fa566bd10ecb1U, 0x3cde6afc3c92f8faU, 0x3d8862353e803ccbU,
  0x3da4aa5ebe3750a4U, 0xbddf6c7fbd8137b1U, 0x3ddbdc3b3d8f4011U, 0x3cea72943e209f5dU,
  0x3d42ccd1bd80aa60U, 0xbd37b5053d39865fU, 0x3c47e292bd1fdbceU, 0x3cc8e9bb3d95c1b7U,
  0x3ca7607e3d593cd5U, 0x3d85e367baf2cc25U, 0xbcc11524bddbf6adU, 0xbd602efd3de06106U,
  0x3df3dc92bcdef247U, 0xbd011ee33c1ea5ffU, 0x3d89ee293da4cee6U, 0xbdb5bf49baff11e0U,
  0xbd70a57a3c9bb0d0U, 0xbce4f6d53cf393b6U, 0x3dce4f98bcd37d72U, 0x3d9430f83cf851e6U,
  0x3c77108e3d25714aU, 0xbd42844bbcbd0e0dU, 0x3c0e1e84bd4606a3U, 0xbd63744abd1ca21fU,
  0xbae2072b3d53d687U, 0x3b973916bbaffa88U, 0x3c8a348abc310ff8U, 0xbdafb71a3d10942aU,
  0x3d726c183db8b39fU, 0xbcbddb743d4b2a80U, 0xbe3a611d3dfeba6dU, 0xbd8487263db3d003U,
  0xbad6d699bc7b9a35U, 0x3da25014bc58bdeaU, 0x3df39233bd406231U, 0x3cf889d93daf9cb4U,
  0x3dd290da3d8250b0U, 0xbd214c293e0e01e9U, 0xbe2a95603d6ed847U, 0x3e06e4033d0b00d1U,
  0xbca05b593e38be11U, 0x3e0d5dff3d26d8beU, 0x3d8a680bbc2ed3bfU, 0x3c36492ebcffb5e1U,
  0x3dd3dfa93da437e6U, 0xbd8f5c323d5009d7U, 0x3c833f003dc7e41bU, 0xbcba12c2bd1ffb9bU,
  0x3d9e6815bc802821U, 0x3c441a7e3cecf6c9U, 0x3d1cd49ebcbbeaa0U, 0x3d1579543e2e5674U,
  0x3ddf55d63e3813f9U, 0x3d4c5cd23e2b7da0U, 0xbc3f83bf3cbcba9cU, 0x3dc5b2563d9f2b26U,
  0x3c53dd3dbc1ee05aU, 0xbe08b2abb92404e1U, 0x3ddfc44fbd6bbd98U, 0x3dbb97ce3d1dc8abU,
  0xbbfcfe833cb86a5bU, 0x3e3df7113e54d418U, 0x3e039dbf3d1e52fbU, 0x3e09d1393d8bec2fU,
  0x3e257314bc2528d2U, 0xbe87deabbdf2a564U, 0x3e0eb4473d970b4dU, 0x3e1dd288bde992a1U,
  0xbdcbaa833db8e989U, 0xbc881c453db418a4U, 0xbe438271be9ad4f4U, 0xbe0566f53d905543U,
  0x3d8650b9bdfa2707U, 0xbd9bfa72bdf1f65fU, 0x3de3ec1bbd9f4afbU, 0xbe8723a33e32b949U,
  0x3dd2aa5ebdb111a3U, 0x3bc1a904be634336U, 0xbdd043e23d27237eU, 0xbd90a115be95d09bU,
  0xbe26b338bd7b5cafU, 0xbde1c7e0be6515d8U, 0xbdd2ca5e3df0aa8eU, 0xbe33502cbcba5e58U,
  0x3ca57b7fbd171a41U, 0x3d2613013e251fb8U, 0x3c5aba55be01c23fU, 0xbe04f3f8bcdab430U,
  0xbd1fd81cbdfde844U, 0xbdc9c084bd6d29e0U, 0x3c24749fbe0a8af8U, 0x3e2592763e177d97U,
  0xbe023fbdbe21bc59U, 0xbc2117f8bdc9b17aU, 0x3d20da3dbdf8b9d9U, 0x3d913bd63cf337f9U,
  0x3e9f90fdbeb219b1U, 0xbe3e6fdcbd7f504dU, 0x3dd23551be320748U, 0x3ce57cdcbe23c5aeU,
  0xbedbe1a2be0ec2dfU, 0xbd4419f9be9cb163U, 0x3d8f792a3dc1e6b9U, 0xbea3ba68bde7cf2bU,
  0xbd6deb1fbe49b955U, 0xbca459cb3e2dce2bU, 0xbe0f5cf3bdd8a6feU, 0xbd9155253dfa0869U,
  0x3cf47d87be4923c1U, 0x3e1e9c663bb2be09U, 0xbd62bf52be87def7U, 0x3ce587aebc132f80U,
  0xbd9878ff3e1abe9aU, 0xbe2f13d2be0af796U, 0x3e6bd7bfbcc414a6U, 0xbc8545e5bac0fdbdU,
  0xbcb8bb77bd3385d1U, 0xbdcf90c9bdb355bfU, 0x3e20ec753c2388caU, 0xbdc8f9583d4bd390U,
  0xbdac1195bde4f2d1U, 0xbe1e1019bc0f9a60U, 0x3d69aa8abd9b6d47U, 0xbe02756ebead31d1U,
  0xbe55977d3d519c53U, 0x3e6ce626bd98815eU, 0xba7e073cbd47b136U, 0x3e6f385a3e121586U,
  0x3c857749be18c9c6U, 0x3dd2f000ba8b757fU, 0xbd88e1383e901e7eU, 0x3c8f5cf33cb05822U,
  0xbbb4a2193d79ca12U, 0xbdd1341a3d221bf3U, 0xbd5fff66bdaa4093U, 0xbea4660dbddff417U,
  0xbd3f5293be712651U, 0x3da8d9343baeaf0cU, 0xba96d1ffbdb91780U, 0xbce95932bdd5b661U,
  0xbd8dfde7bdab7442U, 0x3ce8dba4bde8a84cU, 0x3ddf40333d8ca1e5U, 0x3d26a93a3d7c3768U,
  0xbe1f133cbdd69094U, 0xbe2b5e7dbbff9850U, 0x3ba1fb173d922c02U, 0xbd2b2529bdba0dfeU,
  0x3b8c4e103d9068b6U, 0xbcc4cc5a3dc95097U, 0x3db73f9cbbc7d9ceU, 0xbe26aeb8bd7272e9U,
  0xbe0e0da43dcb74c6U, 0xbd1d7cfa3e00719aU, 0x3d78e2cabdafcc75U, 0x3a975c713d8f528dU,
  0x3c610330bd96d58aU, 0xbe137a5a3c1bdbc8U, 0x3d9dc659bddad810U, 0xbdaffcfd3c9a1b34U,
  0xbde061233b02f4e2U, 0xbdba9bee3da9d667U, 0x3d4e287f3d9b730fU, 0xbcb73a56bdca1d67U,
  0xbd8f92f3ba1c0657U, 0xbc8ae6583d597062U, 0xbdc17445bd0dd457U, 0xbde5b941bd87ab97U,
  0x3dad9bcc3e077369U, 0x3cbd79dc3d8d028eU, 0x3dd37b2ebc0db257U, 0xbe18a11ebd916fc9U,
  0xb9a6ce3e3ddcf723U, 0xbc62543bbe136a07U, 0xbd606648bdd66ea8U, 0xbe27fef5bda638b1U,
  0xbda46e733d99f55dU, 0x3d2d65bdbe40a5eeU, 0xbca4de42be24f50fU, 0x3dd024863cfe2d60U,
  0xbd9024e3bb16fef4U, 0xbdf3015bbe138c97U, 0xbca80b763d7db297U, 0x3d604d6c3d5c690cU,
  0x3da8569e3dd30b25U, 0x3d9047ff3cd0bb5bU, 0xbe01e076bd190264U, 0x3d84836cbdf71becU,
  0xbc3f3001be0ed15cU, 0xbdfe5ca1bc8d1ee6U, 0x3d31ea2fbe2b3df7U, 0x3dd558193b8affecU,
  0xbe2d1fa23d077f3fU, 0xbe8857a23dbadde8U, 0x3c0b6ca9bbe6652cU, 0x3d949d3e3dbebedaU,
  0xbe4972a3be0ad38fU, 0xbdc6f689be76d1f1U, 0xbd065d17be199ad7U, 0xbe85d2433e2a5df9U,
  0x3e3849253e9784c4U, 0xbe94fc09be61a0e2U, 0x3dd66166be5ad380U, 0x3d35826cbe865752U,
  0xbe348be23c9a63fbU, 0x3d302960be9da981U, 0x3d40060abd4208b2U, 0xbd80de77bdf928c1U,
  0x3d2e5590bd57ca48U, 0x3e7fa00ebe35f487U, 0x3e25cf2fbe9987ddU, 0x3dd3795ebe887aa4U,
  0x3dc5f1b6be1dd3d9U, 0x3e350d123e011d7dU, 0xbe014740bd361e8fU, 0x3e669e5e3e4174beU,
  0x3e2857593e040877U, 0xbde4387ebc8cdf36U, 0x3e3412c23e24a7cfU, 0x3e6e2937bea70dfdU,
  0xbe4d59cfbccb9728U, 0x3e4f2115be7ac284U, 0xbdac680d3cab314dU, 0xbebba816be62e40cU,
  0x3e2b5dee3dc66788U, 0xbe4301c33e7102b2U, 0xbe55baa9bdc3b523U, 0x3e29f51dbdb8d670U,
  0xbe14b1e0be8a02fcU, 0xbe768cb7bd865df8U, 0x3e1fd16c3e235ae7U, 0xbed0dd17be684a00U,
  0xbdb5a14bbeda519cU, 0xbe67b3d33e74dba6U, 0xbecadcb13e28efe9U, 0x3e4b4969bdbacc0dU,
  0x3db2a1d9bd87a9e4U, 0x3d278d503df876ecU, 0x3e2639493e8e96f0U, 0x3e3d1fb4beacabe2U,
  0x3d55f50cbe11cae0U, 0xbe187d3cbe33fd0eU, 0x3e58c4423c415ed7U, 0xbde16bc13e6043baU,
  0x3e38ebfe3c8d3386U, 0x3dcd85523db4fbc0U, 0xbde46efbbd5100f6U, 0xbeb2e26d3e58f871U,
  0xbeef663fbe125c70U, 0xbe58e17d3de7a012U, 0x3e51decf3e69cd3fU, 0x3e1040cabe4fc5a9U,
  0xbdd4c4103d682e2cU, 0x3ddd3bd93e6ff424U, 0xbe9631dbbdc7c248U, 0xbe4e04d7bdb9913aU,
  0xbc1dc1f13e532e42U, 0xbea938223dc7f4b7U, 0xbb746e803e317a64U, 0xbe5166bbbdd5c5abU,
  0xbdf642873d1d0d97U, 0xbe4452d3be013aa6U, 0xbceb1b03bdb35460U, 0x3cd1984bbdb1ff9dU,
  0xbde64a593d109820U, 0x3c19acecba75ade2U, 0x3d367d5ebe2e533bU, 0xbda5dd5b3d0c0ba2U,
  0xbe186b88be992810U, 0x3c555e80be046e75U, 0xbe1d84083d35e2e3U, 0x3dc058ebbd9a1f3bU,
  0xbdd565b7be1e58f6U, 0x3d17770b3c6d95afU, 0xbe4a844e3db217eaU, 0xbd8f3b77bd2af80eU,
  0xba3e03003dbd9bf8U, 0xbe0a5cf33e222bf3U, 0x3e90171fbc528024U, 0x3d4afafe3cbd7a54U,
  0x3e1d9626be225f9cU, 0x3dd00fe93c8a31f2U, 0x3d78c9e33d4e7b11U, 0xbd903b5dbe5b0781U,
  0xbda3e2b73d62a20cU, 0x3d4d02e3be2e5964U, 0x3d3d11efbe7a8522U, 0x3d98005cbdb0d4a6U,
  0xbc6c5fb9bd89d266U, 0xbd96f219bbd4cc54U, 0xbdfb9b47bc6c26dbU, 0xbe161750bdf409f2U,
  0xbc9290c3bca42147U, 0xbd6872693ca62ec1U, 0xbe959930be531830U, 0xbbc67c39bdbd7daeU,
  0xbe8cd8823e0b6b5cU, 0x3dc1bba23d1d4b4fU, 0x3ca980a63e0dc1faU, 0x3dfb5afebde77a51U,
  0xbe182a7b3d7da2dcU, 0x3ddfd1013cb792b2U, 0xbe214e37bc9ba980U, 0x3d947f603db3de72U,
  0xbd9b0c21be42da01U, 0xbe004cc6bdc8e531U, 0x3b3c9cb5bdb6c876U, 0xbe12b00ebe5eb81eU,
  0x3d9f7f0b3e0f2dffU, 0x3d364ee63d7ae4b2U, 0x3d2d38ae3c642bdfU, 0xbcd7f45a3e02da60U,
  0x3b4dbaad3dcc3495U, 0xbe5effeebe0e0052U, 0xbe326f5bbe2f39fbU, 0x3d6be089bd402d66U,
  0xbe01d31c3dbe4056U, 0xbe2ab6f6bd565888U, 0x3d9ccb1ebe3eeef0U, 0xbc0f0476bdbf24f5U,
  0xbdaa35dcbe12d7f1U, 0x3c3047fe3d26f723U, 0x3da11b283e1a2298U, 0xbd862b13bdf02c6dU,
  0x3d540bb53df43a0cU, 0xbdc5d35dbe04464fU, 0xbdd77b52bd4f7e6fU, 0xbe11e70e3d18ec3fU,
  0x3e3f7ca43e5c5312U, 0x3d8882753dbc5d1bU, 0xbd2fc94abd54d3b0U, 0xbe748935bcf3b10fU,
  0xbe0b4ceebe5d5aa9U, 0xbe5872213e2a8a84U, 0xbb8402373e9cb833U, 0xbd7269acbd01d02eU,
  0x3c1ed9ab3e26c364U, 0xbe1e0c993d341766U, 0x3eba64883d92d414U, 0x3b98e9123cb88946U,
  0xbc9168783d5b57a7U, 0xbcb416663b6ddbe0U, 0xbe3647a13d643561U, 0xbd79b6883d7fb0f3U,
  0xbde97affbd85da65U, 0x3db11588bdc2bbecU, 0xbd1ca3cebcfcb24aU, 0xbdb5c52b3e2ec8daU,
  0x3e991511bdc9e104U, 0xbb3840f83d47f4a9U, 0xbbdbaa00bd84ba73U, 0x3dc6d3a33d908203U,
  0xbcfc3e8abcd6bfddU, 0x3e63eefd3e140a6dU, 0x3beb0cfcbdd46efeU, 0xbe1857efbe0bc5f3U,
  0x3d932a43be50b8b7U, 0x3e091bbbbd4bf665U, 0x3e941eeebea06f2fU, 0xbdeb7faf3cac6d8cU,
  0x3e90bc81bc357d86U, 0xbcca8d82be452016U, 0x3cf655fd3e360a38U, 0xbd67dd4abdf9a58cU,
  0x3e85a7e8bd864556U, 0x3e436e15bd2188e0U, 0xbe046836bea6afc7U, 0xbe39a9743e2984cdU,
  0xbcee8cbabe29b1eaU, 0x3ca3018e3c1ad704U, 0x3c0cf9853e1e55f4U, 0xbdcd8a1c3de31e7eU,
  0x3de816a6bd73b7ceU, 0x3cb35400bc79f263U, 0xbdfdc9e93d3178dcU, 0xbd8e64debddbaf8fU,
  0x3d22acc9bc8c5c24U, 0xbd0639813dc1771eU, 0x3ed01c99be10e0b7U, 0x3ebd0fdb3e783ad1U,
  0x3e68de21bddec619U, 0x3c22bc68bdb2b179U, 0xbe0182fe3e3b177dU, 0xbdccfef53d748f47U,
  0x3d0ad5c6be1ff820U, 0x3e78254abe12325bU, 0xbe2450043e2da6f3U, 0x3e04cbf9bdad38c3U,
  0x3ed30fe9bd5dec11U, 0x3e925feebe313936U, 0x3e403453bdf16ed3U, 0x3d80c2473d55fbf5U,
  0xbc87ca053e957eceU, 0x3d9ae0903d60eab0U, 0xbdc50d703d8fd246U, 0x3d454cf9bd8f387aU,
  0x3c2bf68dbe6f36edU, 0xbe827b413db74c4aU, 0xbcc71267be90f341U, 0xbd41cf76bc808f81U,
  0x3db54ea33d0ae747U, 0xbd925119be5bb2f8U, 0xbd06c0053ad00915U, 0x3e1ad739bce486faU,
  0x3e93fcb23b31ab13U, 0x3cdcc4a53d1a1a06U, 0xbdc5d1a33b5504dcU, 0xbe298b92bdcbedfeU,
  0x3e7158d93decd75eU, 0x3cd3ed69be167589U, 0x3be9fe4cbd7b5729U, 0x3d5eaa3c3dcea051U,
  0x3d7f0259bdf8e927U, 0xbe16ab0bbd9c8d4fU, 0xbcc4b3663d2a52c8U, 0xbe3d4936ba87e838U,
  0xbc366714bca234bbU, 0xbd6c0c403dfd3947U, 0xbd4e4a0bbc8ab4e2U, 0xbdbba112bd7277d7U,
  0x3dd1e968be94eaa8U, 0xbd1362983acd9f93U, 0xbd8b18803d59b3a1U, 0x3d8ed8893c4b24a8U,
  0xbd4169cf3d5a98a3U, 0x3e0ab0dcbdfc18ffU, 0x3e0fbabc3da3a23bU, 0x3d1d4d14be01e03aU,
  0xbe693dffbe547d40U, 0x3d1d6b2fbd93d0a5U, 0xbd1502923d0e6c95U, 0x3e03dab5bda178d5U,
  0xbd71d0aa3d70409eU, 0xbda00ea1bbd734cfU, 0x3dc0738e3e396b4fU, 0xbab6cedfbcc52bd1U,
  0x3d0ee890bd995b57U, 0xbe3721723d6f4aa8U, 0xbd9241653bf132b5U, 0xbc800be2be0f585cU,
  0x3e9532a8bdf6183fU, 0x3e1a42da3d5fbb36U, 0x3cbfff48bcd7865eU, 0xbcac236bbe28f7dbU,
  0xbd52b0663d520a9aU, 0x3d30d8d63ce2a2eaU, 0xbd6ce14f3db4f283U, 0x3e411f32bd0c435fU,
  0x3dc6f520bd261e0dU, 0x3bb556443d0616eeU, 0x3c417a39bc956d98U, 0xbc94d9903d9514cdU,
  0xbd1def82be919681U, 0x3ddd5a76bdc9c91cU, 0xbdb5fd3a3ceddc6bU, 0xbe8681de3cebf3d6U,
  0xbd9f8674bd8935deU, 0x3d3b3b1e3c3598feU, 0xbe449d50be1d5c66U, 0xbdc23835be24b976U,
  0x3e0f87cfbda20f93U, 0x3c346e893e0294adU, 0xbd7c3b643bcf21ddU, 0x3c323112be11cb78U,
  0xbdc83f8fbc9c9d5cU, 0x3de4d5d3bcead34eU, 0xbe2423c4bd818f54U, 0x3d7a7136bd905c79U,
  0xbe24e5b9bd996b01U, 0x3c941a97be3b3228U, 0xbd41b0a9be702531U, 0xbd82d3a8bd5564c9U,
  0xbe073f9dbdb2c315U, 0xbe0e623cbcb07abfU, 0xbd817233be87fa74U, 0xbbf7984b3d93e84eU,
  0xbe3768fdbd80787fU, 0xbd212cdcbd37943eU, 0x3c9c70e13e3fff87U, 0xbd71323abd86cec5U,
  0x3caf01adbd9ca063U, 0xbd224821be0e78c3U, 0xbe3459e83c3a3fecU, 0x3db995d8bce1b7ecU,
  0x3b90726f3dda08e3U, 0xbcb9778dbe16b01aU, 0xbd31865dbcb03d39U, 0xbddd51cfbcd5d05dU,
  0x3cb67658bcc389ddU, 0x3e706e51bdd4216aU, 0xbdf4dfa9bd67ab92U, 0xbc752ad3bdbddc61U,
  0xbd8431d7bd921d01U, 0xbe5ee1bbbdb4f916U, 0xbc496485be15d86fU, 0x3e19171c3da94fd4U,
  0xbd4109ddbddd384fU, 0xbce32a48be31a18cU, 0x3d9098733e120d9dU, 0xbe01c438bdc851f0U,
  0xbddbc1d13c65e804U, 0xbcd4ac7fbb9c940aU, 0x3da56ee53e1c99baU, 0xbd416df4bda48b30U,
  0xbd084053bd38ea21U, 0xbe111fdc3defdb53U, 0xbd0bf225bdb0be8aU, 0x3d4a82d2bcbc00dcU,
  0xbe3ff108bb46de8bU, 0x3d15ad483d041d2aU, 0xbc335f12beaeb637U, 0x3dca7a90bce4900aU,
  0x3cd69faebd851d3aU, 0x3d24135dbe242464U, 0x3d6343e13df2979eU, 0xbc22e890bd851a06U,
  0x3c9cbb32be003028U, 0xbe2ad9d2bc12c33cU, 0x3dce84983ce470ccU, 0x3dac6911bcfcc848U,
  0x3e1f0e7f3e08df33U, 0xbdb798f8bdb1ad70U, 0x3d5957393d29de1bU, 0x3cd027523da9d301U,
  0x3e9d13d7bd346917U, 0x3cda632e3e08df1fU, 0xbe350ac93daf724aU, 0xbd8c728c3dec5bacU,
  0x3d526842be425657U, 0x3d5ccc843dd938dfU, 0x3e96d126be205c3eU, 0xbc70d7913d2d601fU,
  0x3e1575563d2f9497U, 0x3c25bb97bd67cd05U, 0x3bb076b5bdd86173U, 0x3d3e78c23e43d72eU,
  0x3d16fdda3d23b579U, 0x3e1ac9fcbd55af41U, 0x3db259af3d86e11eU, 0x3da58109be37e323U,
  0xbdc973b93c48042cU, 0x3d924b7ebe54031fU, 0xbdec94233df78bb2U, 0xbcaa9360be00bba1U,
  0xbcce36d4be30837eU, 0x3dc6af593e894c1cU, 0x3d98ee43be4b91daU, 0x3e4fadcbbde570b7U,
  0xbc1d55e73d90a4d6U, 0x3e512650bdb3a319U, 0xbbb2705c3e7fb672U, 0xbde6ce203daba720U,
  0xbe3d43bbbd734919U, 0x3d70ec833d868b8dU, 0xbdfff34b3e89cdc4U, 0x3e153d2bbc958d1aU,
  0x3c985ff1bdccf35eU, 0xbe45a77f3e99d2b5U, 0x3d2688813d0b4a70U, 0x3dd9b1a63e55a53dU,
  0xbe8284d536650b1eU, 0xbe3c22613e4d0579U, 0xbd39eac23e6b8f3fU, 0x3d80352cbe176ab3U,
  0xbd907c5ebe3f642bU, 0xbcc2d502bd9c8d5eU, 0x3e449df6bdcc76c5U, 0xbb94912d3ca2b54cU,
  0x3c8e7b12bdb4611cU, 0x3e1d729b3e123a0dU, 0xbdc34b44be29263aU, 0xbda35044bcbc57ebU,
  0xbe18fa3ebe0e2943U, 0xbd739fdebdaef85aU, 0xbde8609a3e00be32U, 0x3e9d13793e251da2U,
  0xbced19c93ebd784bU, 0xbd5b9c3f3e80ae73U, 0x3e70d54bbe155c6bU, 0xbe03efcabe085924U,
  0xbe4e5ff7be192b34U, 0xbdf5da473d5c2910U, 0x3e6f23463e85deb2U, 0xbd3b70b13dcce683U,
  0xbe0e554b3dc20612U, 0xbe09db2b3eb34357U, 0x3d83cc9e3e11b041U, 0xbd0f04163e61b79fU,
  0x3d6618453d526ad7U, 0xbda774273da0ffc0U, 0x3d939be53dff3766U, 0xbc58beefba1bd570U,
  0x3e2c1cbebd0459b3U, 0x3c80238dbd634377U, 0x3da822623cf278e1U, 0xbe16290dbc3eab4fU,
  0x3d7f69c03ccc58aaU, 0xbd81b6ea3a5ab29fU, 0x3e5c2a98bd6aebbaU, 0xbe00a5c93ddeeef4U,
  0x3d2f7b893da6576eU, 0xbb1ea89a3bc21971U, 0x3d3defa03e069488U, 0xbd5455abba197908U,
  0xbd4c29cc3dd577b1U, 0xbd9af5d43c0d33cbU, 0xbdeee8d63d8a9186U, 0x3d88e8d03dad8f40U,
  0x3ddbea483d87b9f3U, 0x3d792a5e3e0fd06bU, 0x3dfa7c4f3d41689aU, 0x3d41e62abc177fdeU,
  0x3ab2dbc5bd550ab8U, 0x3e1ad1613e23a682U, 0x3be8157abcb03882U, 0x3ddcc6df3dd82c39U,
  0x3d8011a2bc626ecbU, 0xbd3fc55bbd39b18bU, 0x3df198b3bda5618cU, 0x3e086405bd810f0bU,
  0x3e4ada1abda3b6c4U, 0xbeba03e23da2cd7aU, 0x3d625a743de8d3e6U, 0x3d480956be3007dcU,
  0x3d68e4583e178615U, 0x3da5f0bebb64cc31U, 0x3e09bfe13e047e04U, 0x3df341b9bcb220a3U,
  0xbdf0a8c5bdb091dcU, 0xbd7c373c3d518822U, 0x3d7a6c19be3447b1U, 0xbdd8fff63e0dbd1dU,
  0x3afc85fd3d53ea66U, 0x3de504d93e202d78U, 0x3e2bc045bdb8461fU, 0x3d6348abbdd2ac5dU,
  0x3d3cdd783e31346bU, 0xbde814853d3fdfdaU, 0x3e107e913dba56a6U, 0x3cd1cbc8be6b22caU,
  0x3df79b1cbd9c0c10U, 0x3e4a4e723deb944fU, 0x3ce27d783b1f2ecbU, 0xbdade705bd3c7090U,
  0x3d2c48343d5527d4U, 0xbe28d9c9bc1fdee0U, 0xbc017497be27b8e6U, 0x3d1b7d4d37fa514dU,
  0x3d39f597bcaa190bU, 0x3dfb0b8a3dacffb8U, 0x3e1c28d73d4f7dc7U, 0x3e9079d73d1f24c3U,
  0x3e1874b5bcdb7e64U, 0x3c2d5bed3d96bb22U, 0xbcb23a673e0e51c7U, 0x3d2ac58bbdea86baU,
  0x3d2a7d20bd5b4785U, 0x3c76c80ebd958433U, 0x3d77827e3e5eaa16U, 0x3e15d9f03d596d66U,
  0xbdce53a13e9303a3U, 0x3c0ade7fbd71d453U, 0x3e46ba17bd270e97U, 0xbd0beb613deb4a4bU,
  0x3df9ced03da527b7U, 0x3e281167bde9570cU, 0x3e416c08bdd6b9a3U, 0x3d87364d3e1c5ffeU,
  0xbc91067c3da4f5aaU, 0x3e9062fd3cd250deU, 0xbd1d9b8b3d92e114U, 0x3e6b357fbd4bee97U,
  0x3d89ec6b3dbc8aa3U, 0x3dd12ae83dd40f17U, 0x3e89517a3d9b122dU, 0x3dff040d3cbd3838U,
  0xbdaff0aabde169e4U, 0x3dc2ffc23e2a7c7bU, 0xbda79da13db57be7U, 0x3e1a9a063da4dd37U,
  0xbbfc0b6f3df2da0bU, 0x3d863bb4bdc78f15U, 0x3daf77c03e96e66aU, 0x3de36e1f3c01a9b8U,
  0xbc04f6813e4cd05eU, 0xbd5827f3bd329536U, 0xbdae86c93e77b1dfU, 0x3e01da493bf74b5cU,
  0xbbda0408be0acc0fU, 0x3d8489dd3cd94097U, 0x3e4740283e7f4518U, 0x3e68f7623e183194U,
  0x3d9adcd4bc945d47U, 0xbe30f4ef3cc3feeeU, 0x3e883b6cbac6bba6U, 0xbe0f33163e2bc47bU,
  0x3d365fad3e33b59dU, 0x3d732739bd248054U, 0x3cef7c5ebc421713U, 0x3e1023583deb158eU,
  0xbde59fcf3d56d345U, 0x3e438f423e0370e7U, 0x3d818a803dda6c90U, 0x3e32ee64bc9f5f0dU,
  0x3dd9ceff3dcdd2bdU, 0xbdd00f033e73ca96U, 0xbe0665ecbcbbf65fU, 0x3d9c6e723d957866U,
  0x3d44f762bc584804U, 0x3d06c58f3da7962fU, 0x3df619253d0d47f2U, 0x3cd17e1b3c555786U,
  0xbd18efe23d73029dU, 0x3e09e9dfbd021803U, 0x3e08f39e3e2f0293U, 0x3d8b455d3d8910abU,
  0x3e8407013d9d2bc7U, 0x3e2abe393e514390U, 0x3d9e28c13c3b6669U, 0x3d2181a53dacbe3aU,
  0xbe3db86cbd9f68acU, 0x3dc139043e2d9cf6U, 0x3d8771b03ad017fcU, 0xbd8d37d6bdf2215dU,
  0xbd0de13f3d191ad8U, 0xbe1d5ad8be534817U, 0xbd33f1c23c02c6b1U, 0x3d338dbabd5c117dU,
  0xbc91e5b83c313332U, 0xbc3a94e13a836d78U, 0xbe186f0a3d914e8fU, 0x3e83d69e3d013106U,
  0x3dbf76243c8fa06aU, 0xbdc57880bdb28de9U, 0x3da35a77be05d0ffU, 0x3d4eab4abe3f6973U,
  0x3d8659dd3c175dd2U, 0xbcc99566bce8ce46U, 0xbcf098a7bd0e57f7U, 0xbd9eebcb3d349a2aU,
  0xbd113b083e1527afU, 0x3c0ec8f0bbee0abeU, 0xbd4b8e60bc58100bU, 0x3cb6b4f9bce1cbc5U,
  0x3a3b62d83ded0bd1U, 0xbe047c6cbd36efbaU, 0x3e0910e73de31b9dU, 0xbe682a10be4d76cbU,
  0xbcba7ae2bdce8886U, 0xbc20b879be0a390aU, 0x3d857e563c88d31cU, 0x3db25681bd9232a9U,
  0xbe5e5cc43d630647U, 0x3ddfbab03d98f6d0U, 0x3e0a971abdcc79f0U, 0xbe4b085d3d54a9d7U,
  0xbcf306e6be2f5dceU, 0x3d55507ebe2d71f0U, 0xbdd8bf4abc96b70dU, 0xbd231394be0e5fa0U,
  0xbe01fcbc3cd85e4cU, 0x3c9d6adc3ba3addcU, 0xbdda67bd3cf58998U, 0xbd321907bd771661U,
  0xbc569b09bd677ed3U, 0x3dc5f639be974257U, 0xbd6f99223c4da6a9U, 0xbbdfddc93d54df0cU,
  0xbd7131123e1cc995U, 0x3e1ff350bb1b761dU, 0xbdedfb56bda9ad9eU, 0x3d67b8b5bd50d29aU,
  0xbc6f3af43e0c993cU, 0x3e4c87adbd99229eU, 0x3db101793d9265f4U, 0xbbd003b23d53437eU,
  0xbe22445fbddba329U, 0xbb1281c83d78eb5bU, 0x3d98a813bdb4a3faU, 0xbe02f95cbcfcef59U,
  0xbc51683fbc84f9a5U, 0x3df9fd25bc5d1531U, 0x3e161861bdd32a8cU, 0x3dd9f87bbe16c226U,
  0x3c3b60d13d8eb872U, 0xbb5e49aa3e2ba353U, 0x3d60b38abdfa04c2U, 0x3d9eb3bb3dc19525U,
  0x3c0c48b8be114348U, 0x3d68b4d7bc75e8d4U, 0xbcf8d9393d5cf83cU, 0xbd3b01273c1a6cdeU,
  0x3c9f10eb3bcb0680U, 0x3de65fd3bd87bdfdU, 0xbd5c1397bd61e88bU, 0x3d2c58b13dac834aU,
  0x3dd96326be21840cU, 0x3dd3c9d53dd22644U, 0x3c4dc0983d83a54aU, 0xbde9ee65bd2f098cU,
  0x3bdf744dbd9e01c7U, 0x3e3448703e1ac6a2U, 0x3e01a34fbc1ffcbaU, 0x3d47d723bda8757cU,
  0xbd99b1dd3e43f848U, 0x3dc39311bdc059edU, 0xbd37e24fbcd8cb05U, 0x3ccd75f3bd30afd5U,
  0xbcde399cbb769fc4U, 0x3d469422be05bea8U, 0xbacaca2f3de9c9d0U, 0xbdce181cbd456b6fU,
  0xbd57d5573d9e0ad2U, 0x3dab0948bd2b3049U, 0xbc456688bd33bee8U, 0xbda3a0213df7fd52U,
  0xbbd761a93db2d3d7U, 0x3dfc50943bcc3941U, 0x3e5af7c6be2c6076U, 0x3dc7d12b3c1d804aU,
  0x3e456aa23ca5983aU, 0xbdadd41b3cae2df7U, 0x3cc333d4bce20511U, 0xbd02e2f93d966eb6U,
  0x3d0b5e293dddf7beU, 0xbd2178afbd9fdb37U, 0xbdbeda8f3cbf094dU, 0xbd815f633e44b83cU,
  0xbcf32ac3bd4b4483U, 0x3db664e8bca8d97aU, 0xbdd2448d3dbbc2dbU, 0xbd911ccd3bc469efU,
  0x3dd6c1e6bdd554d2U, 0x3e259874bd0d5af4U, 0x3dca6d3a3d2ebcf6U, 0xbc7be6f5bd312779U,
  0x3dae901cbc9cd957U, 0x3e23b8bf3d61a066U, 0x3d80afd13e1ccfe8U, 0xbd86a9193df3c2c0U,
  0x3e4f72063ca0d62aU, 0x3cb719f0bd573eb7U, 0xbd1d804bbe353917U, 0x3e1221c8bc897bceU,
  0x3d5bbf84ba5833b1U, 0xbbf2bb55bb729025U, 0x3c324f04be00d4e8U, 0xbcefcd533e2d9298U,
  0x3b6e3b043d34683eU, 0x3d4f83fa3d0094e8U, 0x3c4673bd3d8ed600U, 0xbe13a79e3bec204cU,
  0xbdb08e13be874286U, 0x3db1b11f3cf77b57U, 0xbe00d3c6bd6a6d55U, 0x3d20fae3bd464557U,
  0xbe56ee68bcfae91eU, 0xbcc0f2973da46565U, 0x3d508d75be20b771U, 0xbdd74a42bd89376eU,
  0xbd6169edbdf14a93U, 0xbcac72083d71888fU, 0xbe04b4bdbe636e3aU, 0xbd2ea17ebe6591d0U,
  0x3d420093bd02e5caU, 0xbc9267913b2f0073U, 0xbbedf4f2be16a8a0U, 0xbe2b79d4bdcbed77U,
  0xbe036a783d8ee145U, 0xbe7a6eb0bd824a1cU, 0xbd622313bbf97633U, 0xbd8512b93d3c0e54U,
  0x3b824faebe25141bU, 0xbde225443c9e6e94U, 0xbd44bcb4be08d2dcU, 0xbe784e85bda8907aU,
  0x3d3fea44bcf1c973U, 0x3cf9de30bd197ff4U, 0xbe5d0262bd5cb82bU, 0xbd7094eebd962be0U,
  0xbe8bb142bdab31b4U, 0xbe19f20b3c2706b5U, 0x3db4662abd055df1U, 0xbd5a76acbdce0418U,
  0xbcdba584be8bc1ebU, 0xbd983787bd29e13cU, 0xbe42ce7ebe81f85eU, 0xbdd07f0abe307c37U,
  0xbd5f36b0bcfeb295U, 0xbe500b76bcb33111U, 0xbc9c399dbe093493U, 0xbd605b78bd40eeedU,
  0xbd72ee543c0345e2U, 0xbd7199593d960731U, 0xbda90d00bdf1c1ffU, 0xbdf5b5d9bbda41caU,
  0xbe10f697bcfa378bU, 0xbba9664fbd006da7U, 0xbdf022ed3d94ee2bU, 0xbe1c2d92bb778b5fU,
  0x3d59d117bdc4b338U, 0xbdd1c5c13dcacdfbU, 0xbd4d1da7bda6794aU, 0xbe94979bbec491d2U,
  0xbe32ff8dbd3a2211U, 0xbe0efba1be0ccb72U, 0x3b4dd8e9be62f468U, 0x3cd79ce1bba4379dU,
  0xbcd80c47be0da647U, 0xbe25cc2bbdfc9433U, 0xbe4a9ca8bcfb058bU, 0xbd7329fabdad1dd2U,
  0xbe1a7b37bd135fb7U, 0x3d52d8acbd5786a7U, 0xbe8bbad03c719c2fU, 0xbccd15b03cb35213U,
  0x3cae5f573c95bac4U, 0xbef3a926bccacb39U, 0xbe2b4006be21e312U, 0xbdb56c04bdf971acU,
  0xbd5abb14be82213cU, 0xbe3ec08ebe026946U, 0xbe313274beb01844U, 0xbeaa01bc3d98b5cdU,
  0x3dbb4cc7bd7b402eU, 0xbe8a047dbe6d9d1bU, 0xbd93ad88be18ba79U, 0x3d14867dbcb19260U,
  0x3e38d87ebe2677c0U, 0xbdcb77e6bd96d19aU, 0xbe181e71bdee0777U, 0xbe80c539be58b479U,
  0x3d0400313dc7e052U, 0xbc06fcedbe8397cbU, 0xbe93f66c3d10a5a1U, 0x3cbf5b28be72e1a7U,
  0xbd2b2a203dc56980U, 0xbdb218093ccf854cU, 0xbe244dc5be8b434bU, 0xbe27d9373dda8463U,
  0xbebb3d2cbd976461U, 0xbd929c0dbe96017bU, 0xbe248649be0e33bfU, 0xbddfaea2be93b114U,
  0x3daa9831be7208a3U, 0x3d8c598d3c940d81U, 0xbd9e7445be89d6a3U, 0xbc0c8bcbbed1a833U,
  0xbe2b34f53b45d235U, 0xbe29fce9bb39f8f1U, 0x3db0a0aebe85bf6cU, 0xbe930b31bd24ba9dU,
  0xbe68ce72bf115fbbU, 0xbe0654e9be821ea1U, 0xbd026fc9bdeaa4f5U, 0x3beb4ee3beee8765U,
  0x3ca0265bbc778dc5U, 0xbd71866dbdc7ecdeU, 0x3d10b4f03e2eb6dcU, 0xbeb9df2abd8d8a06U,
  0xbdfae8acbc496afdU, 0xbd1dfa153d60af92U, 0xbe673a87be1e3d9fU, 0xb98b5ca3bd87258aU,
  0x3e1c5340bd9c1ac0U, 0x3e1c16b43de175f4U, 0x3d7ef39a3cb9049aU, 0x3dd69e93be89fce9U,
  0xbf4355a6bea94302U, 0x3d5d08ebbf05d5eaU, 0x3c385186bec6b683U, 0xbda33fa23d14ec45U,
  0xbd2ddc5abc5f2ebeU, 0x39bc83e4baeac804U, 0xbd994fc2be1090d0U, 0xbeb592acbe586e42U,
  0x3e01d796bea43805U, 0x3e2ba668be0862adU, 0xbc79c603beb76d31U, 0xbc83e22dbe79ff9bU,
  0xbe1bc5e5bf21f530U, 0xbd1aba273d0a5084U, 0xbebd493cbe6e1d57U, 0x3e5f5ae43e713f4bU,
  0x3dbcb7cdbe1fd133U, 0x3e0a206dbbbccdc0U, 0xbc8a9bf23d897ed0U, 0xbdd67cb5bea8a111U,
  0xbe6e86913d3351a8U, 0x3e0d104f3e296ef5U, 0xbd2bc6af3c8203d0U, 0x3d8908b2bd382a17U,
  0xbe8a07e3bc2c8270U, 0x3ee941e3b9b3d502U, 0x3e0aa87dbda6ac84U, 0xbd63db3b3d35461bU,
  0x3ddef426bdba5aabU, 0xbe1fca693d51e7aeU, 0x3d7236f3be1488b5U, 0xbb8cd50d3ce6722bU,
  0x3d4d4b553d30c392U, 0x3e2448bd3e47c908U, 0xbc6a032a3e82578bU, 0x3e278db4bd44e103U,
  0x3d0cfdd73a7df608U, 0x3cd76401be00dd11U, 0x3e26e21a3b1a5cb2U, 0x3c89a110bd38833aU,
  0x3e54575fbc8482eeU, 0x3b8965abbe1ad8dbU, 0xbd1928a3bd1705c1U, 0x3da63d0abe025e14U,
  0x3e7c0439bb86bf39U, 0x3e82dd9ebe371334U, 0xbe1fd6233dc404d3U, 0x3e87ae623df7627fU,
  0x3e26474cbe0a3f0eU, 0xbcf893a53e5b1930U, 0x3e14454bbd8a1426U, 0x3dd8fff43db5bfdeU,
  0xbd862ed6bd7947f5U, 0xbd84c791be8e4f2fU, 0x3c5935923e4a72b2U, 0xbd9e66a7be044f80U,
  0x3c2b265f3e28d0d1U, 0xbd763344bcb2fb94U, 0x3d85ea6e3d56596cU, 0x3e20d42fbe9f4eb2U,
  0x3d5050053da7f8ebU, 0xbd6ad6b03e02a041U, 0xbd0f56643a9430cfU, 0x3e11ff62bbf2c2b1U,
  0x3e0c56873e28b0d3U, 0x3e1ab19d3cd6b3a8U, 0x3e1337a53e962f9aU, 0x3e80abccbc6e0e36U,
  0x3d851bf8ba3f56f5U, 0x3c2508623d9191c3U, 0xbe473fb73d6ac1dfU, 0xbd806d8abd8e5cb6U,
  0x3e051c70bc91724bU, 0x3ce2f9503e23a974U, 0x3d9930e83ba5627cU, 0x3eb96045bdb4b184U,
  0x3eabd7053c9713b1U, 0x3e81a260be3ce689U, 0x3ceec60f3e078cbeU, 0x3d8a5a233e901e19U,
  0x3e2d5838bcf8f980U, 0x3dd09c073e1b9847U, 0xbdfa32623e2de51bU, 0xbda2c8d33d28739eU,
  0xbd200c7abe22753eU, 0x3dff4ebc3c9c03acU, 0x3eaaef44bd9218deU, 0xbdfe06d93e05e594U,
  0x3dc4b67dbda59e33U, 0xbd82ec1d3df8f8deU, 0xbbf6675bbdf6ec30U, 0xbe1b89d23e4a9dacU,
  0x3dbc20a93ddfaeedU, 0xbda532963d2c2662U, 0x3d8d3bbfbc164f95U, 0xbc5167c8be3129b0U,
  0x3d7b3c1bbd8d247eU, 0x3b71c57dbda11510U, 0xbc241b053cd7e9b7U, 0x3d973f4abd99c4b6U,
  0xbdf67ff7bd004389U, 0x3d3f7fa03ea615a5U, 0xbca3553c3cd0a71eU, 0x3e20c1a8bc93cb04U,
  0xbd43a6f53db9c4a4U, 0x3dfa74933cf12154U, 0xbd3034ea3e3224d5U, 0xbe03a7cbbd7bc955U,
  0xbde75503bd7e8f26U, 0xbcd7a70a3db9c58eU, 0xbe7a9a093e1633d9U, 0x3cdf8abf3e28308eU,
  0xbc26bcdcbe81feefU, 0xbd75b4e93e953f77U, 0x3e26905fbd1f7c39U, 0xbda290de3ce0f0fdU,
  0xbcf64fb33beb8df6U, 0x3c108d923eabd884U, 0xbe9c67cf3e094693U, 0x3db6dddcbd8622f9U,
  0x3b12db12be0689e9U, 0x3ce0fadebdbaff3bU, 0x3e1416cdbd7ace0cU, 0x3def63ae3da10163U,
  0xbde24791bd611e26U, 0xbc8783733d509823U, 0xbb518db93bb5cbe0U, 0xbd8ca1c7bd8a0740U,
  0xbbd7f65fbd2f80afU, 0x3cdeadae3da84b6bU, 0xbd4c3e9f3d3bc7d9U, 0x3e0b3c583ec6ac30U,
  0xbd8a10ec3eced4b8U, 0x3cd4d9363e6c4552U, 0x3e553b983c89f100U, 0xbd479f8bbd987dc9U,
  0xbe0c18b0bd9430adU, 0x3c45c6f93d5b5a4bU, 0x3d9cc96d3e84f441U, 0xbddca51cbd3aa1deU,
  0xbdb97c4a3dc37330U, 0xbd38267b3ea3de9cU, 0xbdd6b0d03e983909U, 0x3e16a2683e29def3U,
  0x3eafea71bc63ed0fU, 0xbe53c7173d83b624U, 0x3e278ed43d93b20aU, 0x3e025883bdf0b73fU,
  0x3dd4d4553d07cf20U, 0x3d8b93533dcc4ff4U, 0xbe06a3fcbda244f7U, 0xbca43469bd9d34d6U,
  0x3cdcf8863d719309U, 0x3dcfb3233dcbaffeU, 0x3e296f873c4b25ceU, 0xbd9991cd3cc256d4U,
  0x3dc356a13bff4c30U, 0x3dfa48623ca7233aU, 0x3e07ffd13e1f93fcU, 0x3e13e786be11f2beU,
  0xbda7e308ba5f9318U, 0x3d4bc910b9411effU, 0x3da658353df16ab3U, 0x3da76bbb3dfe0d16U,
  0x3df10c123c59845dU, 0x3d8af59b3e4c2ef8U, 0x3d096c9c3d1f4460U, 0x3da357ef3caaec26U,
  0x3d1a0590be0cc2f7U, 0x3e49f465bba3c084U, 0x3e2fe4dc3d29f36bU, 0x3d8e0df63d8f4c8aU,
  0x3b0ebea5bc1f7d14U, 0x3d9749c0bd53b3ecU, 0x3e8e561c3b7d333cU, 0x3dca153fbbc81d2dU,
  0x3e1bcb60bd9210d5U, 0xbd8399b8bc4ff25aU, 0x3dbce1063e271093U, 0x3e32c4e1bd6de1a8U,
  0xbc0805ab3e2fc45aU, 0x3df399f2be3c2179U, 0x3c24641c3e8edc84U, 0xbdc87ddf3d417a92U,
  0xbc701505be5b061aU, 0x3e2615eb3cbf8402U, 0x3d7f6ed4bcd6d0e4U, 0x3d4219cd3c266ee7U,
  0x3dbc4c293c247d34U, 0x3e4b5d293d7c7787U, 0x3e453447bb7577f5U, 0x3e1de3afbd51d85aU,
  0xbcfd2ed83cc300d9U, 0xbceae1b53d87c567U, 0x3e226acfbc3b3db8U, 0x3bd0b3043e32cb34U,
  0xbd5021b9bd811048U, 0x3d97fe123e95fd6cU, 0x3e4a437e3e27febcU, 0x3e0924353d435652U,
  0x3dc65afb3e0a434aU, 0x3c096d0c3d945f9dU, 0x3dad43c93d5ed2d2U, 0xbdde6e56bd9b95daU,
  0x3df832583e192542U, 0x3d6d5e0f3df7770aU, 0x3e0273cdbc8c703bU, 0x3e28589a3e2a467fU,
  0x3e331d3a3c75a94fU, 0xbdb268e73e2398b0U, 0xbe57351a3e5cb05dU, 0xbe0f1954bdd96cd3U,
  0xbb686b143b53fc5eU, 0xbdea4b82bd8b2c37U, 0x3e0c125a3e1c694dU, 0xbd282206bdcd79d7U,
  0xbe6aafd93de6f8e6U, 0xbe8cc4c7be0ae08cU, 0xbd91829cbe1fa067U, 0xbd1662673df56a91U,
  0x3e3c530ebe44877eU, 0xbe3b0d54be651ff6U, 0xbc8c9241bce342f2U, 0xbe001cd43e45dab3U,
  0xbd64d72dba27a665U, 0x3d82c9293de2ac59U, 0xbd819fef3db36d8cU, 0x3e804b28bce35939U,
  0x3d8a58eb3d6a4aafU, 0x3e18bffdbe38a1d5U, 0x3d92f3913e36bb0bU, 0x3e19e1ecbc049432U,
  0xbdae5a93be694cd6U, 0xbc86af7b3dfe72c9U, 0xbb6ca5ccbc5c2b33U, 0x3d007aa6be2da309U,
  0x3d2703fbbdad919fU, 0xbcdeb185bca96533U, 0x3daddb883d78b13fU, 0x3b43b1ea3c412941U,
  0xbe2e6890bd9cedf2U, 0xbdff9ca7bdd5711dU, 0xbd6721fb3e0d8058U, 0xbe8836f6be2c8a58U,
  0xbd9fdaffbdc10325U, 0xbe69e4fe3e16c426U, 0x3b833343bd75e76bU, 0xbc1442d33e173e1cU,
  0x3dc27d39bd35710cU, 0xbd129af13c88b90fU, 0x3e0083e13de1a586U, 0xbe4d524abd8fffb4U,
  0x3e4757f63d27c0a9U, 0xbe1fb802be327f87U, 0xbe37a9e1be46512aU, 0x3cfe79613ca3dfdbU,
  0xbde99c5ebe12a309U, 0x3d2205163d90b99eU, 0x3c3cbb943e19ca83U, 0x3dd0fce83d907dccU,
  0x3dd9492b3d3d8639U, 0xbcbc10a73d5583eaU, 0xbdf45ea8be9eba51U, 0xbd810db9be144bb3U,
  0x3e17869cbd9bf448U, 0xbe18990a3e1ba241U, 0xbd9724aebdb33a15U, 0xbcf488a9be00da26U,
  0xbc6703e6bdea5d87U, 0xbe14f417be5925d7U, 0x3ddf14f93dbdcf6dU, 0x3dffc14bbd87454cU,
  0x3d6c8fc2be332ceeU, 0x3d26f6db3e03e0e7U, 0xbe3c2ea3bcb74721U, 0xbcba736ebc01632aU,
  0xbe841f093ce0add8U, 0x3e0806633e662e17U, 0x3e81b5e73d3cb10cU, 0x3e4748c53d1e0ef1U,
  0xbcc306293d888007U, 0x3dc360153bb1bb6dU, 0xbdb3b2293e2d51c2U, 0x3dbd85c83e7e9181U,
  0x3e044def38a65329U, 0x3d3110963e04fa18U, 0xbe5733ea3de9cf6eU, 0x3e0bf0e6be2eabf4U,
  0x3e0c85a0bde1ef73U, 0x3c8dfc8b3d6a7100U, 0x3b0043653daa7b21U, 0xbddb88283e42415fU,
  0x3b92c355be3bc8e3U, 0x3d6aa2dbbc8be4d5U, 0x3e08fb1b3e12314dU, 0x3e0cb2533e058165U,
  0x3d9e86373e9c669aU, 0x3e71a20fbcaa1f15U, 0xbcf013d53cad0bcfU, 0x3dc28b16bc125ff0U,
  0x3e954d523df4178eU, 0x3dcf20563da8cbe2U, 0x3e3ebfee3e7de24cU, 0x3e0e25db3d9f057cU,
  0xbc7be0d5bd7a2d98U, 0x3e76caa5bd97148dU, 0x3e439d00bcc69599U, 0x3e9c0fdcbec8b23cU,
  0xbd8f6ee73af22519U, 0x3dd683a73e217a55U, 0x3e111c2abe14abd8U, 0x3e84ee6e3e154807U,
  0x3dccefdf3de5c385U, 0x3eb18dd7bcf26063U, 0x3e92e01c3d15cf9fU, 0x3cdc8006bea29359U,
  0xbc4c793d3da728d5U, 0x3d6dcb08bd86a0e7U, 0xbd40786d3d866ec2U, 0xbd72f8873def002eU,
  0x3dcd6bed3e1bfeb6U, 0x3e15d4dd3d7b65cbU, 0x3d9e9efe3d8947c2U, 0xbd89e0823e3d9cbeU,
  0x3b8782c0bd953e90U, 0x3dced4413d37f705U, 0x3da5168ebc853958U, 0x3ea814d8bb044696U,
  0x3ed344223e3e2cf7U, 0x3e763a10bd92fd42U, 0xbd5fc6e1bc29f956U, 0x3d4f49bc3dbce229U,
  0xbc699e76bb9acb8dU, 0x3d976fbcbe13991cU, 0x3e91e72ebe1413e2U, 0x3d07a88f3e2b6307U,
  0x3ea9a5643c6b11a3U, 0x3efaacf7bc955dc7U, 0x3e85985dbcf20a50U, 0x3e396c953dc79227U,
  0x3dcd91253d9d0223U, 0xbdbd12973e50dbe7U, 0xbeabd45bbd83cf31U, 0xbda55e3bbe11619fU,
  0x3e1e4dd53d145ed4U, 0xbd10ba06bda178b9U, 0x3c6fdd5d3dadfe6dU, 0xbcf8b3e0be84bfe3U,
  0xbe9625943d48378eU, 0xbd5fff5bbd8c162cU, 0xbd51831ebcd14490U, 0x3d94f6f63c6c9df5U,
  0xbdb9aa253d8ec7e1U, 0xbdeea84abdbfcc82U, 0xbd8ceb0b3d89d5d1U, 0xbe2afdc83db86b6bU,
  0xbdd84e53be04ac4cU, 0xbe3eaa23be1cb1b6U, 0xbcead079bdd95047U, 0xbd48b5333c0189f1U,
  0xbceaac7ebe649486U, 0x3d6dba61bc95d12fU, 0xbd8903423d952908U, 0x3de0d3d2be123e20U,
  0xbdcda7adbd4f772dU, 0x3ca27a6f3c9914eeU, 0xbd9501c2be285810U, 0x3db0cebd3e179123U,
  0xbd89d7d4bd8648a4U, 0x3c986939be523723U, 0x3cec87143d988418U, 0xbd6f2e1fbdc3cdd8U,
  0xbc85c42dbe033281U, 0xbdbe49af3d450284U, 0xbdd2f60bbd123b2fU, 0xbdbaae53bd93d77fU,
  0xbe8281e7bd3957eaU, 0xbe2c2035bea86bb5U, 0x3ddc84b0bd88e606U, 0xbcb8ec38bd0f361cU,
  0xbd919678be5d9bd5U, 0x3d21bd293d1ab234U, 0x3d69113f3c86edcdU, 0x3cf6a418be0bd3daU,
  0xbe895f283d16276fU, 0xbc7f7c89bca6fdabU, 0x3d3e6032baf4e9f5U, 0xbdd40748be1e726eU,
  0xbbc393da3e0ca4f2U, 0xbdefc1033d04e594U, 0xbd5f62debdddb2a5U, 0x3c13c098bc7a1cf2U,
  0x3d506effbe22cbdaU, 0xbea607cabe6e1d07U, 0xbc367e77bedc5c8dU, 0x3d832389be0bd77dU,
  0xbe9bee3ebbbf4a58U, 0xbcb5224d3d723f6dU, 0x3c2e7efd3c674dfbU, 0xbd1ef07b3e0a4b05U,
  0xbdc3484abe3af3e7U, 0x3d02c322bd816831U, 0xbdcd6ec0bcfabf43U, 0x3e16cc62be4e8cdfU,
  0xbc6ce87fbc6d1db0U, 0xbdbce136bea54b0dU, 0xba0d8063bdb5c8e1U, 0x3d6f68a5be0a0300U,
  0x3c010551be268e27U, 0xbda81e5c3d13f1afU, 0xbe784145be7c5651U, 0xbd9c6f9bbe133b8dU,
  0xbe370033be92148dU, 0xbc03a4523db1efb8U, 0xbddf9e41bd48ff5aU, 0xbe5e76363dd9b08bU,
  0xbc1a6a28bccf272cU, 0xbe123aa43d1a88deU, 0x3caaaf2c3d841b4dU, 0xbccfd1d73e2ca692U,
  0xbe59a09bbc85dc0cU, 0xbd74c67bbdc8c764U, 0x3df76908be0dda0cU, 0xbe3d51473d492c1cU,
  0xbe1001ebbcbdcad2U, 0x3d07ecc3be4c2fd4U, 0xbe4989b5bdc60cafU, 0xbdc2933c3dad90b3U,
  0xbc294b8abe4a08d5U, 0xbd514e11bea1e4eaU, 0xbea79df9bd9512caU, 0xbd4188f8bd019015U,
  0xbe28cfc1be12d733U, 0x3d9b5990bbd1d5e8U, 0xbe83de3bbe1cc199U, 0xbe07a6a7bcd753b0U,
  0xbbff689cbdf0afb9U, 0xbd1c32bebd4b7f43U, 0x3d723b04bd261625U, 0xbe4c7ff5bd8dbd94U,
  0x3b96504cbdae1458U, 0xbd8b2ad63c3bd624U, 0xbe820e6c3c62d3dcU, 0xbe5b4274be5ca3f3U,
  0x3db5df99be9b32d6U, 0xbe566ab33c844a75U, 0xbe2688b5bd8173f8U, 0xbe242f6a3cb0a328U,
  0x3e537f69be7b6e6dU, 0xbe9d4ad33cb2c8a5U, 0xbe242d2bbe252953U, 0xbdb6f8b53d2af868U,
  0xbc8a7ee6be94a998U, 0xbeaaccafbde0c899U, 0xbe79e3e43df0104aU, 0x3d8d88923e26cb5bU,
  0x3d1c988e3d3947feU, 0xbe96f3f6bc6f81efU, 0x3e05989d3aa7cfd1U, 0xbd81e1bbbe992cf0U,
  0xbce89ab9bd0858f9U, 0xbe821c51be0ed9d5U, 0xbe397e993ddbd1ebU, 0xbd7c8f51bd763d8bU,
  0xbe259e84be00aa24U, 0x3b432c21bcea866aU, 0xbe80e126bdaec1aeU, 0xbbc927e0bdb2de82U,
  0xbcf8b9d13e0ed326U, 0xbddbeb73be5ad997U, 0xbe4b0ab4be64dcf7U, 0x3d2ccdd4bc04ff35U,
  0xbddc0c873cd0a7cfU, 0xbe1ea61abdd460c0U, 0xbd56985abe0e66b7U, 0x3d8e8cdf3d87520cU,
  0x3d7e17033d3149efU, 0xbd0e39113daad4bbU, 0xbd494faf3d30d7d8U, 0xbdb303abbe3e5d5cU,
  0x3e28f4dcbdaabcb5U, 0xbe092a1f3d0a7ecfU, 0x3dcd6771bcdf43faU, 0x3dc60fb3be0e7db7U,
  0x3a1e71a4bd48700bU, 0xbce2801e3e2b4dd4U, 0xbd9c3fe7bc9c040bU, 0x37a11ba2bcdcbc6bU,
  0xbc6e0a8d3d25924dU, 0x3e3695d2bc67779eU, 0xbbb68c393d204e70U, 0x3d84ba49bdd2e7f2U,
  0x3e80071a3dcc269bU, 0x3dfe5b493e138d83U, 0xbe28c307bcfd33baU, 0x3d3378c03e39fcabU,
  0x3b8deb6fbd6a34efU, 0x3bc50aaabd706972U, 0x3cc815e43ce834ecU, 0x3d83cb8fbd0032dcU,
  0x3dc26fac3e30993aU, 0x3d8446bebe0b9a6dU, 0xbe3776bfbdc5d78dU, 0xbdda7681bdbfea75U,
  0xbe581fb83e1c9bf5U, 0xbdabaeacbe31a84aU, 0x3cbff53bbc883256U, 0xbb9fa7243dc1ae46U,
  0xbd88b370bccf0b0fU, 0x3d32f6a73e154825U, 0x3da24cd53db67e70U, 0xbd88bc9fbd6e8070U,
  0x3e6ea65e3db2c568U, 0xbe171e783df4f692U, 0x3e385a2f3e278263U, 0xbd60e8e4bdd37accU,
  0xbe08dcaebe16ccc8U, 0xbd567ea33e3a5e98U, 0xbdf2ec74bdc30242U, 0x3e2aacbe3d4e0f8eU,
  0x3db0c2743c6c14ebU, 0x3e37d2e73d21200aU, 0xbd39cec83dcbcd43U, 0xbdd9877f3e0da4e2U,
  0xbec944d4bda01abeU, 0x3b151e12bd0afb7bU, 0x3e2984edbdb2d039U, 0xbd9787733cc235f0U,
  0xbcfc6a7b3cfa7613U, 0x3dc034b2baf8d964U, 0xbd9cafcebd9826a0U, 0xbdf3506e3c6726d1U,
  0x3e3d47563d7f9e52U, 0x3da9959e3cc91fc6U, 0x3d5a0dcd3c8422c5U, 0x3dc821613e62421bU,
  0xbda53fdabe8f45f7U, 0x3de227913cb7edcdU, 0xbdff1044be1e70ceU, 0xbd73290ebe1ff0e1U,
  0xbb7438a4bd148e5bU, 0x3db6673b3ceb4d4dU, 0x3ded30973ddecb76U, 0xbb4ea528bd368545U,
  0xbd8b02a63dd4b21eU, 0xbd8abdf63de454cdU, 0xbd563bc83df01880U, 0x3dc00273bd74f5a1U,
  0xbdcf94e0bd6f9deeU, 0x3c20a8543dded8f8U, 0x3c7b304c3dffa0abU, 0xbdb297ce3d922ee0U,
  0x3ca2455dbda0d94cU, 0x3c6e7de93e1afd91U, 0xbcaa87143d7892ffU, 0x3ca7a1893d98bb27U,
  0xbc1a74babd25442fU, 0x3db6b80ebcdfbb8fU, 0x3caa40c43d81ea4dU, 0x3dcde09d3ce25b37U,
  0x3dfd2961bdad11ceU, 0xbccaacb3bc900a12U, 0x3ca503d3bd70782cU, 0x3cb9c9ff3db1f735U,
  0xba49cbe4bd389794U, 0x3d0e7aa2bc717c39U, 0xbce7798e3d7d055dU, 0x3b06b9103d0c36bcU,
  0xbdbbc6c8bd20ef87U, 0x3e458c333c53ec2fU, 0x3e022f103d254b92U, 0xb9f8f95b3d765ff8U,
  0x3d3ed2d73c06e7b6U, 0x3da06a94bc97ac09U, 0x3c499c513db05629U, 0x3defbaa53e76607aU,
  0xbd9ad6893c9d667aU, 0x3d0d3590bc267cc2U, 0x3d903fdd3e2b16d2U, 0x3cb87243bc8f420aU,
  0xbdf849623d9c543aU, 0xbc884e4cbddb11bfU, 0x3e3ee8923e20b4a6U, 0x3de20263ba191dc3U,
  0x3d6bfcf2bda2371fU, 0x3c2e89b23e1615cfU, 0x3dfb2aeb3d129a19U, 0x3d8b650a3e2a290bU,
  0x3c4d53583d89ca87U, 0x3e155202bd110d4dU, 0x3e0f8ee2be4f58e9U, 0xbc6e5cd3bc8e6188U,
  0xbd1d71ab3d13ad06U, 0xbd434b6d3d7bdcf5U, 0x3db353123ddb166aU, 0xbb0333843dd3b028U,
  0x3dd3897fbdc2e762U, 0x3b4dd46e3cd0dc16U, 0xbcce13e73db3c178U, 0x3ce97f703daa87eeU,
  0x3e214bff3e21fd93U, 0xbd16123b3d6bf15dU, 0x3cd6d6fb3defa5f1U, 0xbe3916423d815fbeU,
  0xbd5ecd4e3b521aeeU, 0xbaaa811abccb0e64U, 0xbd89a9d83ce72f8cU, 0xbd3d3e02be81c5f6U,
  0xbe9af979bdc7ed1dU, 0xbd2e390ebe0bc1c1U, 0x3d75df8ebd74f7ceU, 0x3e2604483a9e565cU,
  0x3ca12174be51bf5bU, 0xbb4a36e0ba828741U, 0x3e03cd89bd557d57U, 0x3e6a8d363d3b6107U,
  0xbdc8998fbddba9bfU, 0xbdbf77c0be6b51ebU, 0xbe3f182fbe132966U, 0x3e0066383d78017fU,
  0x3d3d394dbe63d2acU, 0xbdf76dc2be070069U, 0xbdeead5b3caf181eU, 0xbcd78980bde36baeU,
  0xbd85af87be17b3beU, 0xbe0a4e273c8a6b5dU, 0xbcf1fa11bcfdd658U, 0x3d3b18d7bdc3c32dU,
  0xbe1199bcbd4c4dd4U, 0x3d209417be54fc6aU, 0xbd9161d63d3da564U, 0x3e09a86fbe2c7f13U,
  0xbe1135acbdd63dcdU, 0x3d0e5414bd4dcc8dU, 0x3dd67b7cbda01e65U, 0x3cad7f0e3d1a8dc0U,
  0x3dd1be223bac86bbU, 0xbb0657c63e00f6f6U, 0x3d8c759abdf89961U, 0xbe22cbcdbdb99cf9U,
  0xbe3c891dbe21fb52U, 0x3bec8284bcd785a3U, 0x3df1ef0dbe3a5026U, 0xbd514426bd2c9205U,
  0xbe096800be22b34dU, 0x3d0853593d4c99c5U, 0xbdc38b28be2d3b5fU, 0xbd4d575dbe19424eU,
  0xbe811322bd498fa5U, 0xbd9c5709bd1cbea7U, 0x3dd55615be968555U, 0x3e40bc3ebe19405aU,
  0x3daaedc03dbd4536U, 0xbd2f6e2d3e041d1bU, 0xbdc7386cbe390971U, 0xbd09815b3bdf26beU,
  0xbd8a599c3d9c4d8aU, 0xbdca337abcb1fc9cU, 0x3c93d9dcbdf7ffcbU, 0xbdb94083be5739b0U,
  0x3b73207e3cc1fb01U, 0x3d0b2dd4be0e269aU, 0xbca101623d717c66U, 0xbd6e729fbe45004dU,
  0x3e07e1723d5d25e9U, 0xbde470683dd00a42U, 0xbdb21aa4bd82b062U, 0x3d652dd6bd2bbc12U,
  0x3d499f1f3e1c08a2U, 0x3dfa77133af44f10U, 0xbd63245ebd0e4e51U, 0xbd5560033cd6168eU,
  0xbdbb18c73d4d6e52U, 0xbd6e5562bdda706fU, 0xbe0f2563bdda2711U, 0x3dadbe843c959eddU,
  0x3d3d9768bdb262a8U, 0xbc2f0d8fbdc9cff3U, 0x3cca8679bddb55f3U, 0xbc2ea06abd309c4aU,
  0xbc2320a5bde942b8U, 0x3d39de42be2c27b6U, 0xbbe50380be015feaU, 0x3c29417ebc451eb0U,
  0xbd8dbc1cbe28a879U, 0x3bdf1796bd4bbe9bU, 0x3b82e08ebcbc6a1cU, 0xbde8a109bc7d1722U,
  0xbd2b08e9bc9a1505U, 0xbde71e51bda7efe4U, 0xbe05360c3ca04fd3U, 0xbdcf1b61bd0c345bU,
  0xbd91ab86bd3c45f8U, 0xbbafa5f33cef13d4U, 0x3cbb9b12bdff5860U, 0xbde31e683db46d28U,
  0xbe41f63c3d3a96ebU, 0x3d45f651bd22d38cU, 0xbdf5ed0abd743210U, 0xbe0810aabd8ac395U,
  0xbd18b444bdd5aa1cU, 0xbe0cdf9fbd9ec038U, 0xbd3049b7be0e3927U, 0x3d46a37d3c275f23U,
  0xbe984960be238194U, 0xbd18a5ccbdcd5f14U, 0xbe4becc5bced744eU, 0xbe7553d1bc8936daU,
  0xbdc56397bb89f3ebU, 0xbe25a966bd471db7U, 0xbc646b053d10351bU, 0x3bf6e0f2bc8323cfU,
  0xbd8057dcbe21162eU, 0xbe287c4a3d6e5284U, 0x3d1d182abd9a07efU, 0xbd959b323d0cb229U,
  0x3e0df3c7bdab8e46U, 0xbc2b4a5cbabc5073U, 0xbc5415f33c1f8e14U, 0xbd334f9e3e0f99efU,
  0xbe0428e1bccd9fd2U, 0xbe54bc453b827034U, 0xbdc9fe99bd69d13fU, 0xbddef1edbdf7ab9eU,
  0xbd86113ebe53901bU, 0xbe483349bdcc1fabU, 0xbd29b91abe246893U, 0xbda823ccbd9d88e9U,
  0xbdde745cbdef0885U, 0x3de76a8ebe370d34U, 0xbe2de8bebd7b54dbU, 0xbd93fbf2bd77117bU,
  0x3de21d0fbc960de4U, 0xbd76fce33c8f056fU, 0xbbdacd96bddad92fU, 0xbe417f7cbc531af4U,
  0xbc0e3015bd2f84cdU, 0x3da7b863bd3bd2e2U, 0x3d0bd8c6be0fce91U, 0xbc9fa2ecbd7f16b3U,
  0xbd775c5abdcff192U, 0xbdad92f13cdcce22U, 0xbe222d73bbf51030U, 0x39c784b13c507fbaU,
  0xbd4e92febe090db5U, 0xbe8571513cb640baU, 0xbea7690fbe6814a6U, 0xbc0e75aebd95e377U,
  0xbac534413c171e7aU, 0xbdf5e905bd5770f0U, 0xbe59d720bddaef1fU, 0xbc211bc8bbb4c972U,
  0xbd92197d3d0e969bU, 0xbd92570ebe1bcbb5U, 0xbc874fbb3db6cfa3U, 0x3cb93e683d63a835U,
  0x3da2e231bd05b7f9U, 0xbe08c4203d854a25U, 0xbbf74c3abd238179U, 0xbd23f2a6bdc1683bU,
  0xba8582fa3d62c0ffU, 0x3c9b24fbbe0e1ee3U, 0xbd4eccbbbbc4d802U, 0x3d86b710bbe9fbf9U,
  0x3d361e17bd8794bbU, 0xbcb292aabe03b48bU, 0x3da2de39bd826f34U, 0xbe055f2fbe24c97fU,
  0xbded0e76be1d28a1U, 0xbe7bd3b0bc684ac6U, 0xbc0aed21be42c348U, 0xbcb27b1ebd4b0b19U,
  0xbd6a9e06bdaee0cdU, 0x3cbe924bbdb2cf9eU, 0x3a631794bd8c0263U, 0x3d0dd1433d56b3d5U,
  0x3c880e15be688b68U, 0xbc36c728bc777012U, 0x3d704c5e3c921006U, 0x3d07b16abd46179bU,
  0xbdd37d4ebc2e256aU, 0x3dc82a9a3cb062cbU, 0xbd2f751e3cfcace8U, 0xbd1e98cbbc5fd45dU,
  0x3d31dfd0bdb7c113U, 0x3dcbe98f3c906a45U, 0xbe6f812ebe09341dU, 0x3d98d54abe527412U,
  0xbc9e5f68be3e2276U, 0xbe5d9245bcd8f51bU, 0xbd8f65c33d4ffc7fU, 0xbc633656bd2a5bc4U,
  0xbd524dffbbfd3e3cU, 0xbe6d8905bdc16074U, 0xbd691beebc5392cdU, 0xbdff6dc13d03057fU,
  0x3d6779a4be40c50bU, 0xbd4c401fbd9d6983U, 0xbdede76bbe12f06cU, 0xbd189b0ebc8749b5U,
  0xbeb7bbe23d391845U, 0xbdc48051bdaadee2U, 0xbd030e5bbdeb9337U, 0x3cde30aa3dbc6788U,
  0x3c91387f3e049fdaU, 0x3e084bfd3ce7d768U, 0xbdc53d3f3ded8618U, 0xbe1b34f03d9a384dU,
  0x3d0fdc783de2b858U, 0x3e6a9ea63c017c4fU, 0xbe34982fbd7b2e75U, 0xbe1303b33d6373a3U,
  0x3d5ab11a3d41e9ebU, 0x3b1a77b43e84d0a6U, 0xbcef7966bd88c07eU, 0xbcb2e3333e0d795fU,
  0xbde900153b8ef37bU, 0xbd5976d3bca37aa4U, 0x3df153e83a69c02cU, 0x3e42ec2c3e0eab6cU,
  0x3ba317053e1a6f26U, 0xbce3a1a3be02a0a7U, 0xbc777e70bd6eef56U, 0xbe139c91bd84d765U,
  0x3e5a0b3dbdb1e17dU, 0x3db5b3f53c9eaffaU, 0xbd6daec03df9906bU, 0x3df03a003daeca82U,
  0xbdfb3c88bc2865e6U, 0x3e6628d53d204837U, 0xbdb2bd8f3c21a622U, 0x3ebce2f1be4c8e7bU,
  0xbc1bb3773dc7ce0cU, 0xbcbdca873dc89410U, 0x3e0c68eebd5438e7U, 0x3c4d60f73e7d6a86U,
  0xbcd54e08bd997050U, 0x3e6598d93e67c316U, 0x3d7fe5ac3c8518e6U, 0xbc8fee84be6b4c05U,
  0x3d9c29be3e2410b6U, 0x3d940159bddbb0faU, 0xbe4aa4283e46da0dU, 0xbd84cdbabd4b4fa0U,
  0x3e9471783e91524cU, 0x3ea6d6d0bd6844a9U, 0x3d76da57be50edc1U, 0xbe4f72d83e6650a8U,
  0xbd835fcbbe306ebfU, 0x3e28a2993de57b25U, 0x3cfb8d323e7b222cU, 0x3dbd31f9be0cbae6U,
  0x3dcf3d7bbdc09b1fU, 0x3ceba150bcdff79cU, 0x3cba5d8c3c10850aU, 0xbd5f28f33db9b8d0U,
  0x3d978b343db3556bU, 0x3cffbfc8bd57cbdeU, 0x3e12956bbe1dbe62U, 0xbcb305393d5a1e28U,
  0x3d57a1d33d9b3b55U, 0x3e1fd87f3d907ff1U, 0x3e03f8473e6480abU, 0xbd7ebf073ddc2b40U,
  0x3e0cb6bf3eaa927dU, 0xbe452db13ea2d32dU, 0x3d830cd9be38fbbeU, 0x3c0919243d285a6cU,
  0x3d1a24ff3df44d94U, 0x3e09f7653e021cf6U, 0x3bca9f29bdd86609U, 0x3c82b2153c2b3f03U,
  0x3d5615c6be0d1d23U, 0xbd0368b9bdd276d3U, 0xb776597c3df50d06U, 0xbbf383283dcbdef3U,
  0xbdc113afbe2f2753U, 0xbdd71f683e1a6d49U, 0x3e00f5b43d8cd5c9U, 0xbc71778abd1d61edU,
  0x3d3c0cf43e2d120eU, 0xbd9f0bfdbb6983e5U, 0x3d82b16f3e052090U, 0x3db955a33d3c2afaU,
  0x3d599dc93d6c5f82U, 0x3e3f9405bc1a4d98U, 0x3d63c6613df208b8U, 0xbb03c1193d002e85U,
  0xbdbec42bbcd3a440U, 0x3d3960e0bdb6107eU, 0xbdb2818d3e44cc12U, 0x3e121fb6bd9a302dU,
  0xbd897b953c362456U, 0xbc4a39b83dac7792U, 0xbda1a99a3d8442a9U, 0x3d0a046a3e3169cdU,
  0xbe2d82f13e1e1650U, 0x3d9483db3e59212fU, 0x3deeecf1be55853eU, 0xbe4046143da79e96U,
  0x3dd052d23dade954U, 0xbd3ee95e3d2bbd6cU, 0xbdedf3a53d196915U, 0x3d1993a63da1190aU,
  0xbe383b923dacb742U, 0x3d853db03b1d9091U, 0xbe05676bbe0c3db7U, 0x3cb227f9bd627fc8U,
  0x3c93ea2bbdf0dc17U, 0x3e38e03b3c4f8237U, 0xbb9390b43cf49d5fU, 0xbd6f545b3e3eb3a5U,
  0x3dc8b524bc05fbdeU, 0x3ccb6480bd6e2edaU, 0xbdb68573bd0f212dU, 0xbd125e633dc735c1U,
  0x3d3909933e21f8cfU, 0x3e7a74e93da701adU, 0x3d73cb973e0f1ea7U, 0x3d449a3a3dda54b0U,
  0x3e2babd23dff412aU, 0xbc62e3c03bbbac49U, 0x3c73565dbdfa1054U, 0xbd4d3feebd2ae7f3U,
  0x3d0e485b3dae8710U, 0x3cd4281f3c7dc31bU, 0xbccc23003e194627U, 0x3b9926453e26e9feU,
  0x3aff5f233e3a1d18U, 0x3e34a5313e063719U, 0x3df5b3493c0aa0c4U, 0x3e0c03763cb55900U,
  0xbd34cc1abe57213aU, 0xbd0e5335bc416ab2U, 0xbe502b04bd1ade03U, 0x3d45a7e4be44a9c4U,
  0xbe58d207bd7d1771U, 0x3e002b683dbcd6b9U, 0x3a7dbf863d789726U, 0xbe349ffa3e80ee55U,
  0x3e9059863d77327eU, 0x3c78d6e4bdd73db3U, 0xbdf3cf613eba6c80U, 0xbe3835ce3e8e50c2U,
  0x3e02ebbe3ec98296U, 0xbe80b8d3bdc15bccU, 0x3e027fcdbe5aa45cU, 0xbe9e18983ec2361fU,
  0xbe103fedbd9a62c0U, 0x3ef040bbbeae946eU, 0xbe2dbe9abe870305U, 0xbe5314a7bd048944U,
  0x3d965f3cbe2bc871U, 0xbc0845ffbdb136c4U, 0x3e063dd0bce86f94U, 0x3ee2effebe1de953U,
  0x3e208511bd1b5292U, 0xbd88d1653c72246bU, 0xbdccddb1bd7fe1aaU, 0x3debe0533dec337dU,
  0x3e9f9776bcbcbab7U, 0xbcf79bff3d863bf6U, 0xbd4115dc3e41193bU, 0x3d3bc2083e95a694U,
  0x3cffde543ec00558U, 0xbe59f5013cfcde0dU, 0xbe22bf933ec3a887U, 0xbe005169bc48454cU,
  0x3de0a6bbbd4fdda9U, 0x3bb01d77bd497750U, 0xbd722c093e105d95U, 0x3e26fb7d3e05d1f6U,
  0x3e198d9fbbd9947cU, 0x3d1d1d74bca8e945U, 0x3dd383e83e0663efU, 0x3e193dfd3e441101U,
  0x3e7d6851bdac54fdU, 0xbe174d9abe11c6ebU, 0xbe8fe428bdaf335bU, 0xbdf281e93e8407fbU,
  0xbda471703e347ee4U, 0xbe340f053d6bf60bU, 0x3d3b3e103d907297U, 0x3e160127be92693aU,
  0xbdfaf40e3dadbc14U, 0xbe648962bd5be4b5U, 0x3b7e24423ef3b4fdU, 0x3e91b9103e807800U,
  0x3d0e1a21bce431d7U, 0x3e101a30bd0b843dU, 0xbe1e8ab7be63a4a7U, 0x3ce6ea72bd95d832U,
  0xbc8ae1583d00f248U, 0xbe28ebab3d01d5fbU, 0xbe29b224bd78e002U, 0x3e567d323e912a58U,
  0xbe3645253e3e08b8U, 0x3e7775d8be21ec9eU, 0xbde24c3e3e3a27dfU, 0xbd5411733d9a1245U,
  0x3d21910d38b3b4e4U, 0xbe83e163bdd82435U, 0x3dc20a51bd61834dU, 0x3d8da3a2bdc39b8aU,
  0x39369f1a3da12910U, 0x3c9376ecbdea09a2U, 0xbd9331b2bd40202aU, 0x3da428ed3c8bf881U,
  0x3d7a346e3e82bde8U, 0x3de8937a3d7e35c0U, 0xbe0afbc73deb292dU, 0xbdb8ff713dc43d04U,
  0xbd6b2e1e3d02f34aU, 0x3c9f01c53e05c8cfU, 0x3e024b563e242d6dU, 0x3d9cce303e0e3244U,
  0xbc4abc4f3d225db6U, 0xbce5182d3e11dbabU, 0x3e32df123e4fc76aU, 0xbd3f338d3d7a569cU,
  0x3d69c8d4bd155256U, 0xbe2758593d202adfU, 0x3d0bf6e2bad7f7d0U, 0xbd3791a33e45e967U,
  0xbda339f4bde53f4fU, 0x3cd7e5003ce18715U, 0x3cf0fc903d204eb3U, 0xbdde7be23de7e3d0U,
  0xbd28be133d353282U, 0x3c81b5e9bc88089aU, 0xbce86e7b3e239258U, 0x3e2a8bd63e5f8ebcU,
  0xbe1f01a83c855ec8U, 0xbd01466d3cd25e7cU, 0x3dd224553e14f8d7U, 0xbd096d8f3da3aefeU,
  0xbd824e753dc0cf79U, 0xbce975aebd4a6bf6U, 0x3d96d51a3d6454c4U, 0xbd3630cb3e08814aU,
  0x3d781ddcbc7eea20U, 0xbe5c1c373d447eb3U, 0x3e0b8c173dbc13b2U, 0x3d4d40e93d96194bU,
  0x3dc57724bbf68249U, 0x3d7ef7fa3ce18412U, 0x3cbe0c0d3dec8030U, 0xbbd87cdebd263f40U,
  0x3e5d56b73e5c706cU, 0x3c2b22573dca57ecU, 0x3cd855193e4d4397U, 0x3df8164a3dce3c66U,
  0x3c99467f3d7afccbU, 0x3d630917bdb29ab0U, 0x3df832d8bd705517U, 0x3e34980a3dcbd9daU,
  0x3dfe0c22be0c58ecU, 0xbd4600b4bc8e692eU, 0xbd660c2e3eb8718cU, 0xbe0f2f663e2e97abU,
  0x3dda08b63e86eff4U, 0x3e7b273bbe133f30U, 0xbdc1b08bbcc5e995U, 0xbe53d0b4bea13908U,
  0x3d16070dbdecaf1eU, 0xbe253bad3e0a6d67U, 0x3d7b6769bd46c523U, 0xbea41356bef2b8e4U,
  0x3cf2a6a73b02b2e4U, 0xbe65b1b2bddb8cbfU, 0xbeaa4bb53e9d7d3eU, 0x3e73628bbe32c1deU,
  0xbe12d4dc3c347a1bU, 0xbd0f598c3e8f587cU, 0xbb5d68053e986f3eU, 0x3d47bce83e2f3a67U,
  0xbe5f9af8be8f3d8eU, 0x3e7749a3be0f1e2aU, 0xbe968a4b3e3162c2U, 0x3d94f3203df118b5U,
  0x3ea4c08dbe4704d9U, 0x3d955c723d832b78U, 0xbcb5a75b3e4c9902U, 0x3ce0611bbe9e6570U,
  0x3df1a6e0bdcdf062U, 0x3d983d8dbe48178eU, 0x3e9d9f8fbe26be83U, 0x3dc37d26bda810edU,
  0xbe2949a53d9b2250U, 0xbe4a6344be782e07U, 0x3c5d8c843d926b8cU, 0x3f013108bcd8f737U,
  0xbe87888cbdc53ba0U, 0x3e9ec765bd1b2799U, 0x3c1d20263d45f6c9U, 0xbd09016d3eb97632U,
  0x3cc96038bce883f5U, 0xbe6f70fe3ee1b979U, 0xbdd65aabbe75b02cU, 0x3d238dd63e0559c0U,
  0xbda57cca3ddbe9dbU, 0xbd0b4154bd8deb79U, 0x3e31e6143de2282aU, 0x3e7bfdb5bd72c7d4U,
  0xbd5882d73e36ef5aU, 0x3cfc486ebe599ec8U, 0x3ed61e1f3d6ef5f6U, 0x3e0bda17bec0b415U,
  0x3d1dbae5be93fc37U, 0xbe83a03c3e886e95U, 0x3e022b393e832a20U, 0x3dd010363e76dbfbU,
  0xbe6773393c4efcacU, 0x3cb6dd07be15a4a8U, 0x3d0eacaabee79a53U, 0xbd6084713e2d44f5U,
  0xbc457caa3dd5a2cfU, 0x3d849a6d3ec384e7U, 0x3d84d0aa3e47b40cU, 0xbc1841073dc037ecU,
  0x3ca3a093be42d714U, 0xbee73f05be12f3c7U, 0xbd92d95a3e2363b6U, 0xbcd1480b3e2f9a9dU,
  0x3d9b18f83e3ade6eU, 0xbeabff09bebeac5eU, 0x3e219e413e9551d7U, 0xbee72e1d3d96f83eU,
  0x3d52af7cbe943181U, 0xbe985ea1bd105cddU, 0x3dcee27e3d39fc0fU, 0x3eb918b3bd67d04aU,
  0xbe72a7e5bb84ba89U, 0xbe72deadbe18e19aU, 0xbe4587cdbddb9a94U, 0xbe89c26abd58cb70U,
  0xbebf56b33d7743b2U, 0x3d21912dbd2c66b0U, 0xbe9a3552be1266f1U, 0xbed39161bd1e15b2U,
  0xbd8798d53e411e0cU, 0xbe2db63b3db3f830U, 0xbe19724e3e2e3486U, 0xbeb064f8be15f2dcU,
  0x3e23faec3e31d3f0U, 0x3dc4d0fe3e5ae35fU, 0x3ebcf627be1794d0U, 0x3e6b94b03eab140fU,
  0xbc67272e3eb25f9cU, 0x3e00b463be402dceU, 0xbe5bc1843e5c0758U, 0xbce8968d3d969b8eU,
  0xbea5d94ebe059e99U, 0xbd743ed7bd808f45U, 0xbe1701b2bd722853U, 0xbdf23f00bb46e5e5U,
  0x3da344c13d98f23dU, 0xbe9578c0bcc50eb9U, 0xbe4209bebd19af8dU, 0xbe3798b33e3588f8U,
  0xbe5a0b72bec77890U, 0x3d437880bdcc4975U, 0xbdfbcfa13e55e4d9U, 0xbe1b296ebce8bde3U,
  0x3d8d63f73d056937U, 0x3ea09cdbbea3bf20U, 0xbe60c02ebec35cb9U, 0x3c593e1d3e5235c8U,
  0xbd596660bce15b06U, 0x3ed26f92be9333d7U, 0xbea7eb263acaa0c7U, 0xbe0009b9bbfeda30U,
  0xbdee5e3abc186bacU, 0xbca3aaefbe32f32bU, 0x3e9f5a873e534523U, 0xbe3c3b9dbd4310cdU,
  0xbdf86d463e382429U, 0x3ce9d5363e9f5a7aU, 0x3e0bd7813da13983U, 0x3d077963bea2330eU,
  0xbd776801be800f87U, 0x3eba7c443c9ce8e6U, 0xbe9bf8e93ea55079U, 0x3d4fc3ab3dca8bbcU,
  0x3dd11ba43cc43cf3U, 0xbde60997bda82688U, 0x3d14703bbeab3cbfU, 0x3e8711f7bdd84210U,
  0x3cac843cbdb5b7d8U, 0x3d88e46dbe273f34U, 0xbdfa2cb83e204aa9U, 0xbcd7b679bca482cbU,
  0xbd1b020cbdcf35e4U, 0xbe51a00cbca297b4U, 0x3e4b84ad3ea2876aU, 0x3db70e80bcb3eeecU,
  0x3df2beb9bcf2cc64U, 0xbdb7423d3d990652U, 0xbe02083bbe6745caU, 0xbe33853f3df381e2U,
  0x3d714fa13dc74661U, 0x3cdb117d3d4ea9dbU, 0x3e3ab4f4baae1b3eU, 0xbe3601bbbd8706fcU,
  0x3e8944833d724c72U, 0x3e3f5f13bd2a415bU, 0xbd4518993e0c1060U, 0x3e0eca10bda4d3d5U,
  0x3a79a677bb7447d0U, 0x3df5c8c5bad84064U, 0xbd1034baba994516U, 0x3e38fefb3e075017U,
  0x3e0838a63de324c3U, 0x3c2d00503dc52df9U, 0x3deb49e43db56ae4U, 0xbccd525bbca253e6U,
  0x3a230401be0af4dfU, 0x3e3bee06bc188cfbU, 0xbcbcc070bc2cb419U, 0x3e107c61bd719256U,
  0x3c9b1036bd33e31eU, 0xbdbac2f3bcdbb8daU, 0x3e82f0a5bdcc7f30U, 0x3e5265543bba181aU,
  0x3e163cddbdaf8e87U, 0xbdc5892cbc6b9d99U, 0x3e3a0b633e390c3bU, 0x3e1657bdbd7c14d7U,
  0xba9d7ddc3e105dcdU, 0x3dcb102dbe01e436U, 0x3e2955febd1424cdU, 0x3c0478a73dae0df1U,
  0xbd9066c7be8541e9U, 0xbe0d756a3d89e73bU, 0x3e05fb163c540defU, 0x3d6a24803e1eac22U,
  0x3d8a6c333da3055eU, 0xbc29cd0f3e240914U, 0x3e234139be39d0f6U, 0xbcd3fb9a3cc803e6U,
  0xbd4dd02a3dfffdd0U, 0xbde2d726bd5fb7d7U, 0x3e4d69efbcb769afU, 0x3daf44b1ba08dc2dU,
  0x3e2340efbdb9d7fcU, 0x3e94789e3e888dd9U, 0x3e9dad6bbdcfb975U, 0xbb81ae3d3d36dbcfU,
  0x3ba6e6243e0c07a6U, 0xbc86ef8cbd17e7efU, 0x3d8f434abdefc3a9U, 0x3e10c460bd969abdU,
  0xbd99c72d3e28e381U, 0x3ca178aabc04f8faU, 0x3ece652abc57fffcU, 0x3e7e02eebd49fdffU,
  0x3e228881be5a4649U, 0xbd4a0ed93e30fa48U, 0xbd0113793e241762U, 0x3e90526abe8aca8dU,
  0xbdb3cbee3e859b49U, 0xbcc9e2693e46c7c5U, 0x3e2d8ba4bdb38e2eU, 0xbe751ae93ccd8e28U,
  0x3d7df72bbe455677U, 0x3d2d81b0bce24d5bU, 0xbc0157de3e26817cU, 0xbd6d3936bdb716fcU,
  0xbde35b603d9e3141U, 0xbde0dab73d76786bU, 0xbe13ebbf3ed7e7a0U, 0x3c430ad23dbb07fdU,
  0xbe62289e3d41a60fU, 0xbe7a59073d9b5233U, 0xbe52f5d6be15b632U, 0xbd491dc73e389455U,
  0x3df331873c536386U, 0x3dad57d33d9c635eU, 0x3d75b8013de926ccU, 0xbdb8156d3e387ff5U,
  0x3e6a45833e6c9707U, 0xbda79aee3df9907bU, 0xbd2b49c13db8e33eU, 0xbd25588d3cb0cd17U,
  0xbcd019c9bd8ae2ddU, 0xbe329f1a3e6e8a22U, 0xbdaee78bbdb7c268U, 0x3c299d71bc7d9034U,
  0xbcb7c98cbd7c1136U, 0xbe385cea3e17b413U, 0xbd78ecd13c0f5645U, 0x3c7ad2f1bd62b521U,
  0xbdd5c8013e95ed2aU, 0x3d6067ee3db48ef9U, 0xbe0d6acdbc205e69U, 0x3d03ca10be118e0eU,
  0x3d96f5433ba8a72bU, 0xbe23d3d7bb80228bU, 0xbda0aef93d93632cU, 0x3c687516be0e7bdbU,
  0x3e0605523b79470aU, 0xbd7c3f813dfbb976U, 0x3d918849bbd36c9dU, 0xbeab0cb43d1881e7U,
  0x3e44683cbbc7a778U, 0x3c9fdef63e393548U, 0xbdaaf9b7bde004cbU, 0xbd2789e83de94494U,
  0xbcaab0113de91ee7U, 0x3c4a363fbbbcbd47U, 0x3e52fecd3e5136e3U, 0xbd8127783e3a25c3U,
  0x3d86c41e3ebb4d10U, 0xbdafa0973e12e90cU, 0xbd570ade3d885a2fU, 0xbaaf4277be17510fU,
  0xbb852a533db3395bU, 0x3e850bc73cff8671U, 0x3d71d2bdbdf4b7a7U, 0xbd0f6d0d3da6bcffU,
  0xbd83f8763e9b199aU, 0xbed45ac83e36a3d0U, 0x3d83745c3e2d6404U, 0x3e0d3d40be4472bfU,
  0xbe6ad639bd0c3f50U, 0xbdae2ef4be0629caU, 0xbd12d35bbe4f8fbbU, 0xbececeec3ef055efU,
  0x3ec41b2c3e0358c3U, 0xbefa0f83bf0c6265U, 0x3ebc6d4c3d306ad0U, 0x3d04afb8be420ee4U,
  0xbea9e4b5bd86719bU, 0x3eb05f89be1c4c31U, 0x3e18e07dbe36f3f6U, 0xbde1d3e6bc09c70eU,
  0xbe41fc78be37b5edU, 0x3e90707b3e6d9f31U, 0xbc813e17bf16c4e7U, 0xbe04fd29bec9a4c8U,
  0xbd9dd5c6bdaab8f5U, 0x3d62ef62bdb49ef5U, 0x3ec0a97cbe3d77c2U, 0x3e2e08d4badaf728U,
  0x3e651140bc911dc0U, 0xbd61bb41be93c9b0U, 0xbc85c6993db272c4U, 0x3e96a4c0be93cc69U,
  0x3ece0726bd693e19U, 0x3ea8fc7cbe4720d3U, 0xbc4ad7893d5228f3U, 0xbef76d4dbeb91ea4U,
  0x3e765715bd2ae60aU, 0x3f062e353ec043a9U, 0xbdda8f9a3d7f4899U, 0xbc301b3f3ce27dc2U,
  0xbda7c2df3e2d07e6U, 0xbd60b8153ead6465U, 0xbd89ba293c24cf5eU, 0xbe921c073ecab756U,
  0xbeab9259bf0c8bc6U, 0xbda47c683ee297aeU, 0xbeaec5be3db967fcU, 0x3d9036973d4a68caU,
  0x3ee4def53ce62fc9U, 0xbd59225c3e1a6c25U, 0x3eb1fa22bbfcc5bbU, 0x3e6932ccbeb8d2deU,
  0x3ed21e7d3e0f7e3aU, 0x3e820812bef73776U, 0x3eda600ebd214112U, 0xbe8838a53d15795fU,
  0x3d732ebfbd7bbf62U, 0xbd7778273c95a111U, 0xbe72d2633d39843dU, 0xbdeb8bf93d916900U,
  0xbe814c54be4826baU, 0xbd809c6a3ebe92a0U, 0x3e0c0e9e3d3cc3cdU, 0x3ebf66883e6a3857U,
  0x3e68a9153ed6bdbaU, 0x3e3a6f113d45bc38U, 0xbe6270aabdd96e33U, 0xbec4169abdb8956dU,
  0x3de1619c3d4c5f2aU, 0xbe871efbbd350e22U, 0xbe1a5be73f0908faU, 0xbe57c9c1bef1519eU,
  0x3c63a0dc3ece97a6U, 0xbec62e363dee79c5U, 0xbe3410f63ba48c34U, 0xbd9ddc8bbe4aae7fU,
  0xbd3e24b7bdd7307eU, 0xbd570a333c2e6bfdU, 0x3c7981f9bc454043U, 0xbe67a8d73e12b120U,
  0xbe7806e1be647b6bU, 0x3e8ccb4ebe8db5c9U, 0xbe0990c53d2ce2f1U, 0x3e34ccbcbca893e3U,
  0x3e60f13bbe76ddd1U, 0x3ea92fcebe2e2945U, 0xbe213a183d9c43b7U, 0xbd59233cbe772fbbU,
  0x3c8df8be3d559c38U, 0x3db6af5c3e86c7faU, 0x3e5266c6bc23de8fU, 0x3d46a7ae3d38a9e6U,
  0x3dea4ce83c46cffbU, 0x3d7edaf23dcc12f7U, 0x3de929f93c4cf1e1U, 0xbe191a1abec8f987U,
  0x3dc62ccc3e02280dU, 0xbdc56618be37813aU, 0x3e04cbd9bd9effbbU, 0xbcdec9f8be35f9f8U,
  0x3dc4082dbdf21827U, 0x3e1170f33d2c9ef3U, 0xbc1bed7ebdf4484cU, 0xbe887355bda8c2dcU,
  0x3d62e875be7e92baU, 0xbdf6ef553d8cf51cU, 0xbdbdf0ecbd3a9842U, 0x3de5079ebeb15a0eU,
  0x3d3d56f43d911876U, 0x3e01145abd290179U, 0x3ca6abf33e270c8bU, 0x3dab1c71be95382eU,
  0x3cced5a1be21312eU, 0xbcfe8a4c3d8f788cU, 0xbe57565f3c554379U, 0x3d9412e53e89b674U,
  0xbe3a64c6be3c0ad4U, 0xbe919672be41242dU, 0xbc27471c3d8ae947U, 0xbce5882fbd86a07fU,
  0x3d892f2d3c60c3fdU, 0x3e66bc7e3e22f72eU, 0x3e7e8bb03c3fc51bU, 0x3cc244a13dc5a7b6U,
  0xbda78bf13db58db6U, 0xbd024996becd2f09U, 0xbe1107e3bec1187bU, 0xbbaa0deebe2ef524U,
  0xbbde86cbbd1ad83fU, 0xbd692d68be072a94U, 0x3e08ac633ccc39deU, 0x3d664069be11a19cU,
  0xbd246ef9be716835U, 0x3d7785b23c108478U, 0x3e1d38e5bd8b26a1U, 0x3d2fe29abe235be4U,
  0x3e12dfab3da7c945U, 0xbdc31c3cbe31fd65U, 0xbe740a213c9cad62U, 0xbea91c143d1eb6b1U,
  0x3bd2ab1ebd120833U, 0x3d56d553beafb553U, 0xbe2eead03f0aa13bU, 0x3ef632a63e40d02bU,
  0xbea616aebec5cfd3U, 0x3e97b0f93ccc8429U, 0x3c7e66c0be848378U, 0xbe34188c3e35aeddU,
  0x3ef5b2a9bdd28738U, 0x3e9fecfcbd9676fcU, 0xbb4c7cd43ca810faU, 0xbde3efbbbd0c712dU,
  0x3ecc2b553eaee6a6U, 0xbdc8e9c6bf15803eU, 0xbc49be57be4d59cdU, 0x3c904d49bd80c459U,
  0x3e661a33be24cb78U, 0x3e8e58a83b2bb766U, 0x3e51ed70bcab4bb7U, 0x3e80a622bd996fc6U,
  0xbe0fe863be254547U, 0x3e4c02ce3ebe3040U, 0x3eae39cabe5bf185U, 0x3eecba97bdfd6cb9U,
  0x3eb51764be2e8444U, 0x3b9ccadbbd3066a6U, 0xbe8caf06be6a8551U, 0x3e89b1873e015335U,
  0x3ea8bcd03ef07ca0U, 0xbe051ded3e353291U, 0xbbc34f423d14d8f9U, 0x3eb055be3e76f01aU,
  0xbe3e314c3e952ff4U, 0x3cc439833e1a8ed5U, 0xbe6d47c23ebc40fcU, 0xbd657207bec69574U,
  0xbd92d3973f01ee3cU, 0xbee388b53e5d1114U, 0x3e0f80c83d67ad4cU, 0x3f11cf70bda12a77U,
  0x3e1e21dc3ed40b00U, 0x3e9088f13d07ee9eU, 0x3e750f48beb43505U, 0x3ef1dbbc3eb94704U,
  0x3ebdbc26be989d8eU, 0x3f08364e3d0b7ecdU, 0xbe5c3188bd99d148U, 0x3da3a02dbdf968b2U,
  0xbd622cdd3e1ba631U, 0xbcbea9edbc844359U, 0xbe56b4d23e4b7a42U, 0xbea2531abd71179fU,
  0xbd3ad19e3eb39eedU, 0x3df482863de8b6e0U, 0x3ea7e05e3e0a9a8bU, 0x3ebf5ea73eba6309U,
  0x3ea59cbe3e498f9cU, 0xbdfac2bdbcfdca80U, 0xbe5035163d4eeb64U, 0xbd9236543e8761a2U,
  0xbdd2c2123d90492fU, 0xbe00f1743f20240fU, 0xbde3c056bead257eU, 0xbe845e7d3eda490aU,
  0xbef8209d3e051d07U, 0xbe4c3a8e3e20bf8dU, 0xbd8bfa14be675f76U, 0xbd2635eebe0ff08cU,
  0xbdee3bf6be3ad51cU, 0xbd9c3cfcbd84c33dU, 0xbcaafde5be1226a5U, 0xbe855b163e0e5533U,
  0xbcbf35bdbdabaeaaU, 0xbc252338bde621acU, 0xbdc7cfd0be38002aU, 0xbd9f5cdb3dd05558U,
  0xbd3a30e2be85a1b8U, 0xbc882202bdd0cf13U, 0x3b8062ba3d2b5933U, 0xbe476418bd416687U,
  0xbd9734763e04e1a4U, 0xbdc81473bdc96108U, 0xbd1000a33d5cb917U, 0xbe078a9abe46fa9aU,
  0xbe069b3bbe1c3949U, 0xbb9d70bcbdba39c0U, 0x3c8d8609be33e7c7U, 0xbcceef763d484296U,
  0xbe06b439bc96fd77U, 0xbe09fb64be2e15c8U, 0xbd85a499bdb4e2fcU, 0xbbf58237be49cb0bU,
  0x3cc25901be2efd29U, 0xbd7c7d9bbd133d39U, 0x3c82f652be207857U, 0x3e36a7adbd9db0c3U,
  0xbd7d8b89be2a6e43U, 0xbe1f86f53df93debU, 0x3c697379be02a5b1U, 0xbe3f1bd0bced66e9U,
  0xbd9b8e67be1a4e76U, 0x3c7f9880bdc4ceabU, 0x3d1e1a02be221176U, 0x3df8d975be8ee56cU,
  0xbe13d470bdad2f95U, 0x3d71596cbb317bacU, 0xbcd638c4bd973d6dU, 0xbe3049a4bda615d7U,
  0xbe25173f3c50de2dU, 0xbdfe9876bd86c436U, 0xbdc9adf1bd87f3e3U, 0xbdd38106be3416b6U,
  0x3d7e49263d12d6beU, 0xbc9d42b63dbb51d2U, 0xbc4a72cdbcb71eafU, 0xbce2c54dbe145164U,
  0xbe49d274be69bff3U, 0x3d582bd1bed03e5fU, 0x3d50b86ebe4786a0U, 0xbe2e0c58bdb162bdU,
  0x3d0d43f4bd8f8771U, 0x3d9bfbf23ce4866dU, 0x3daa583dbde9ea40U, 0xbe458bb8be7f6a86U,
  0xbd66a8fdbe2d5fd1U, 0x3d5c5d6cbd849ab5U, 0xbbb3691abe618b8eU, 0x3b34bd4cbe895e0fU,
  0xbe38673ebe46ca91U, 0xbe274e39bcce9c6cU, 0xbe72b0263d4a9637U, 0x3e39f6a33e9c3f9eU,
  0x3dfe32d5bdb830fdU, 0x3da5c5cfbd0922a8U, 0xbe45ae933d2ea2e5U, 0x3d64409cbda3b036U,
  0xbe17a8a5bcdc3972U, 0xbd9050113d8c70acU, 0x3d312cf03cb0f01dU, 0x3e2ba700bd2e2672U,
  0xbe94f5cc3d977ccbU, 0x3e77a940bc1e8fe3U, 0x3c4140d6bdc653b7U, 0x3beae71d3de607edU,
  0x3e1d7174bdecd057U, 0xbe1134483c8fe331U, 0xbbd20d81bd977738U, 0xbdbdfabd3da5c573U,
  0x3df1f70e3e1be03bU, 0x3cc182533dbc82deU, 0x3d4b2af43dd71a71U, 0x3d667e863de10e80U,
  0xbd9a5cbebd83a416U, 0xbd4f83debdee0460U, 0x3ea1a0dcbc49785dU, 0xbdd1e337bafc081fU,
  0x3e2b82ce3e01e876U, 0x3d8a8d10bdbc0474U, 0xbd3355a2be5b1b73U, 0x3e0c1bd6be4cd336U,
  0x3e2546dcbd321d5cU, 0x3e345fb5be627689U, 0xbea1989abc9c769bU, 0x3e14db943e204b1cU,
  0x3d814a27bcc2ac75U, 0xbc7ef9123e70c682U, 0x3d9cbc96bd34644cU, 0x3dc4192dbcd12feaU,
  0x3d7d41dabdb4ff98U, 0xbdb2bd84be11cb70U, 0xbe0013433e0fd39fU, 0xbd3655b3be1952f7U,
  0xbe06af333de924a9U, 0xbda208023c04a86fU, 0xbc1dc5873c3f831cU, 0x3e7474ccbc1d24dfU,
  0x3da5eda8bba3cb09U, 0x3d99132f3d964714U, 0xbd60ac8d3d2e0a22U, 0x3d910f81bdadc60eU,
  0xbbfa02693ca368f0U, 0x3e2bb5afbd0fa9b8U, 0x3e66061c3e7ee76bU, 0x3e533a2dbbff2a68U,
  0x3beb9396bcdc5ac3U, 0xbdca8e263da1cd2cU, 0xbe6261e03d6cc197U, 0xbcda6895bc8391f0U,
  0x3e21e2923d075c45U, 0xbbc3135b3d661305U, 0x3cbbaceb3d974cffU, 0x3e7341363cc4b34aU,
  0x3ea7070e3ce7b668U, 0x3e2bfd96bc9a74f9U, 0x3ca4fed93dabc07aU, 0x3d5952aa3e721c50U,
  0xbec8922cbcf9b613U, 0xbd354a0bbddd15b3U, 0x3d41aaa6bdc73bcbU, 0x3e2fd269be8d88a7U,
  0xbe0b86f53e5a8914U, 0xbe414e92be52a257U, 0xbeea1f753e5ae12fU, 0xbc33c624be05e875U,
  0xbe3d23ecbdd39695U, 0x3cef34b4be5eccdfU, 0x3e34a9543e2949c0U, 0x3d56df94be2a09daU,
  0xbe4f4248be516460U, 0xbe5448d63e0ea9cfU, 0xbe35c77bbddd2b3aU, 0x3e270bca3d575185U,
  0xbd96117e3ceeae95U, 0xbdcf80dc3e5327ffU, 0xbdba636bbe828045U, 0xbdce5fdc3d9511baU,
  0xbdbbde013e2e39cfU, 0x3da4a1cfbe591132U, 0xbd89e8423e4ce020U, 0xbdfd9f213df8eb62U,
  0xbe5c0e7ebee49a86U, 0xbdf981913d190e8cU, 0xbd3088bcbe2c1109U, 0x3e1bc54fbe427e5fU,
  0x3e0ec0a33de7cfe4U, 0x3c7635a0be85c435U, 0x3da591dcbecc93dfU, 0xbe75c40bbde0ab47U,
  0xbdbd7a4d3aa0ab31U, 0x3dd284e2be86424fU, 0xbe661cc5bde77505U, 0xbe1aa451bec094a7U,
  0x3cd39916be0bf6e1U, 0x3e03f02fbebb517cU, 0x3e010390bef56992U, 0xbd8ec7b33e060dfaU,
  0x3e2a454c3d7acdd0U, 0xbddec21d3da5f402U, 0xbebd60c63e38860aU, 0xbe33b6893d58156cU,
  0xbdabd64f3d632796U, 0xbe0c1174be9f47baU, 0xbd1fb4073e8a208aU, 0x3dbcce38bdc4f47eU,
  0x3d7f72c53e5a5a72U, 0x3d1f8cb4bd8d7d40U, 0x3e3b8bddbe204223U, 0xbec15441bedff782U,
  0x3e1ed038bf0e43bbU, 0x3d8cb6eebe8e34aaU, 0xbe6d7dcb3d8b0f1aU, 0xbd837f403e2afebaU,
  0x3e1278f03df97924U, 0x3dacb8afbcab8559U, 0xbe9652ccbec47e94U, 0x3d656880be4ef3ceU,
  0x3daf18e3be706191U, 0x3c6f6c02bee6458cU, 0xbd662fe3be33adb6U, 0xbdf43ee7bec8d830U,
  0xbe6e684abe2995bfU, 0xbb8fb977bdca74caU, 0xbd902473bdb1bf1fU, 0xbdcf29d1bb09c174U,
  0xbeaec0d53d4e43bbU, 0xbd585221bdd0d6e4U, 0xbe4b67f7bdedfc72U, 0x3dc74f31be03d49aU,
  0x3d83f7a5be220092U, 0xbe27df97bdff0b68U, 0xbe0a6860bd878a9bU, 0x3e2a8a01be24273bU,
  0xbe1a6eb6bd3dff97U, 0xbe196c84be3da887U, 0xbd4e3724be28e758U, 0xbbd1ae0fbd0dbeecU,
  0xbc9cd231be85020aU, 0x3d5fe188bdcbf49bU, 0xbda8dbefbe351b45U, 0xbe4afe50bceff30bU,
  0xbd05da38bd2f3d19U, 0xbdabab09be1ba790U, 0xbdd42613bdc4d0ecU, 0xbc6b8d7d3c2acc6bU,
  0xbda2806bbe4b193dU, 0xbe48f996bd468e90U, 0x3d21a1cabe37bd7bU, 0xbe08d520bdd9f238U,
  0xbead19f7bd4c98f6U, 0x3dfe5b973b856defU, 0xbe81a1b83d5ba534U, 0xbdd528203e086fa3U,
  0xbe6906133d65938bU, 0x3db19104bdaf0051U, 0xbe17fe64be79cea6U, 0xbe2aa32d3dfa6f9fU,
  0xbe8ac7cdbeb354ecU, 0xbe893884bde4c419U, 0xbdbb8d42be19eff9U, 0xbea3ed9b3d974315U,
  0x3da47b403e49d4f1U, 0xbd45f292bda8c630U, 0xbd60aa823db30830U, 0xbd7350dabdb98a87U,
  0x3db73159be12b73aU, 0xbe43af86bdfe0097U, 0xbe28946ebe226de1U, 0xbdfd702bbce452bbU,
  0x3cbe2fadbe4e2958U, 0x3ded9ab13d19ac34U, 0xbd6eea63bb349c0bU, 0xbe88622e3d4327ccU,
  0xbe1536523d5c9bc0U, 0xbe8d1323be0ff076U, 0xbe5d933bbd62a131U, 0xbd42e10bbda003dcU,
  0xbc6f0533be897845U, 0x3de50823bd31d587U, 0x3d38dc6cbc1123c3U, 0xbe175ab6bdaddde6U,
  0xbe6c7338be5e9c59U, 0xbdbe5b293ca764a7U, 0xbe637003bce67a40U, 0xbe8e236ebe0a6757U,
  0xbdffa6b9bde75da0U, 0xbe3b4890be11c2c0U, 0xbcb8c9a9be598cc7U, 0xbd05d1523d83aee1U,
  0xbcadd0693cc62166U, 0x3dab52b2bdcc24d0U, 0xbc88cc29be055486U, 0xbebab8193de9b8d0U,
  0x3ca39e9abe9da720U, 0xbd5ace233da225b4U, 0x3cab441bbd85e7ecU, 0xbdc62173bcf47847U,
  0xbd601b3b3dab2cbdU, 0x3d70e1793d7c79a2U, 0x3d0485113dc3c8c4U, 0x3dac4fde3d669343U,
  0xbeb838503d028767U, 0xbead3eda3d934aa9U, 0xbd02e4893d5c898fU, 0x3bd730693c3d5e43U,
  0x3c823a81bd835eb7U, 0xbcd43180bba8ff6eU, 0x3d9a6cbdbc94c66fU, 0xbcb6774d3d8dae89U,
  0x3d124d65bb7b9ac0U, 0xbdbc16043cc9fdf3U, 0xbcb572693dc960bfU, 0xbd97aff33ce50bd5U,
  0x3d6846453df9ddd7U, 0xbe4e33b4bd127293U, 0x3da13da8be957bc5U, 0xbd430ecabd3a56b2U,
  0xbd296b283ceb9891U, 0xbdb19e0abda41386U, 0xbcba20cfbc2e3e3bU, 0x3cdeba1abd8a69c4U,
  0xbd2c064bbdec41b3U, 0x3d6fe6b5bd212ef8U, 0xbeb227bcbe67a946U, 0x3ca5e0eabe1446a1U,
  0x3d92ee2bbe04e021U, 0xbdc80b2cbe87342dU, 0x3c90abb4bd833763U, 0x3da363a0bc6cd495U,
  0xbcca66c03d5ec309U, 0xbe67a7d93d4f5031U, 0x3c119fc43d090cf6U, 0xbeaf6d1abddcae43U,
  0xbda656edbd0735c9U, 0x3d7fe1933c418368U, 0x3de44c93bdba336bU, 0x3db4d4c0bd63a156U,
  0xbcf27a8a3c3a0bcbU, 0x3d10a9b4bd5c3ebdU, 0x3df034afbde146b3U, 0x3d4cb587be1bc1fdU,
  0xbc618fde3a5b6455U, 0x3a57c1b2bc246226U, 0x3dc506793dd2b16bU, 0xbdbf5eef3c9f90afU,
  0xbd589d073dd9718bU, 0xbda07a14bdb23b37U, 0x3d606a57be312d9aU, 0xbd71c9853e4cd869U,
  0x3c032290bd33e53fU, 0xbdf0f71cbda33d53U, 0x3a530fdb3d1be1f8U, 0xbc9d8a59bdcc9b36U,
  0x3c7bba56bda16a54U, 0xbcad1980be056f68U, 0xbb90476abe11c2f5U, 0xbe38686b3e0f447eU,
  0x3e4aee443d95029cU, 0xbe6d1db0be275817U, 0x3d8507bcbc52a616U, 0xbd551a35bd7f3499U,
  0xbd7348d53d9d50bbU, 0x3cd3a776bca678b1U, 0xbd0f8e723d4a5694U, 0xbd90dd463bc16851U,
  0x3dc989c33db79a06U, 0xbb68cba8be056f62U, 0x3cdd80cabd576c79U, 0x3dde816cbe2ba3a1U,
  0xbce370fabd7f5f3fU, 0x3dc2f8963d008d0dU, 0x3ce6da67bcf6d72aU, 0x3de82cb23cda9553U,
  0x3d804e613d10cef8U, 0x3b45f55fbd27da91U, 0x3d4d29053e06387dU, 0x3d5eb17bbc8a0bc2U,
  0xbe037a32bd8b197fU, 0x3dfb9b353d8d3c3aU, 0xbc1f2e04be0af505U, 0xbe130f233bf2367bU,
  0xbcd3b7953d35904eU, 0xbe1ab2703d4de570U, 0xbe0776b6bd9533acU, 0x3d210f263d87ccaeU,
  0xbdc3eb90bd0f3c51U, 0xbdb809fb3d99d6a0U, 0xbabd51043dbfeb22U, 0xbe44c2d7bd219855U,
  0xbdf12619bda15211U, 0xbd1a1bcb3e224cf4U, 0xbe3621cf3d1b4a1aU, 0x3e2e70aabc23a806U,
  0x3d949fdc3e0ddd92U, 0x3ccc69043c2a9d7dU, 0x3d831f5b3dcf778bU, 0x3d42dba2be7319fdU,
  0x3d392a86bd285c22U, 0xbe28b4b6bd13b073U, 0x3e1ba6063d1412a4U, 0xb8d65c523d4993b2U,
  0x3d8f48cb3d6c62abU, 0x3e194b1d3d2102a6U, 0xbd98fa70bcbd0314U, 0xbe2d20123d4a566cU,
  0xbe44b21abe2871c2U, 0xbd07d66e3e30fdf5U, 0x3cee858e3d6f0834U, 0x3e3468aa3a7d5777U,
  0x3b1995483dbbd690U, 0xbc4d977c3e331b41U, 0xbe43df79bc73bb91U, 0xbe5b9042bde8249eU,
  0xbd91a36e3d1b7d86U, 0xbddf69ae3ded942eU, 0xbdf94e273e0dac52U, 0xbd9f86f9bdacd067U,
  0xbbe38f4fbdd909e7U, 0xbe8c6dfbbcd9b8f8U, 0xbeaa288cbe0d749eU, 0xbe999173bdaaac16U,
  0x3e861aa03d66b839U, 0x3e6b2e48bdfbafb3U, 0xbdf013f83db30995U, 0x3d34c253be4f962eU,
  0xbe47c63f3dba77c5U, 0x3e2801ef3ccec46eU, 0xbe40cf2cbe8937a0U, 0xbd7310253d16e5e1U,
  0x3d13ee223cd9137aU, 0x3e25a7023c73e66aU, 0xbd2f9db23d3b463cU, 0xbe9492ca3e0e13feU,
  0xbe6feb813dcd1f60U, 0x3d8640c13c0f34d7U, 0xbd057f11bd318157U, 0xbde88b513e2a3e86U,
  0x3e51a96ebdb672d0U, 0x3df6c8cf3e6170f7U, 0xbea989663e870375U, 0x3ddb377fbd231796U,
  0xbea346bd3e19cef9U, 0xbe14d3ef3e269219U, 0xbe2bf4b1be5b1895U, 0x3c5b578a3cf94d88U,
  0xbe560160be0747d6U, 0x3e325c88be2a6654U, 0x3e6c2a093e31171aU, 0xbbd70643bae5bb2aU,
  0x3c7d9c68be636c85U, 0xbdafd7033dd7c235U, 0xbb2e857ebdbf8133U, 0x3dcdeb24be4c913aU,
  0xbdbe5d9a3da2d47eU, 0xbe82af89be97b5beU, 0x3e6a8e22be509c9cU, 0x3e967cb2bd05ffeeU,
  0xbdd1a8d1be3c7455U, 0xbcd3fbc03e1abb68U, 0x3d721e9e3e76ed60U, 0x3e8018b83da3286bU,
  0xbe654b673d77500eU, 0xbd06dd963d49353eU, 0xbdfdb1613e8118a5U, 0xbe2bd4d6be53e6e5U,
  0x3e410a403e9e2d85U, 0x3ddcfe6cbe615ac7U, 0x3e1d241a3e38f6e1U, 0xbd2e56583e59a2bfU,
  0x3e30a4e5be8c8dceU, 0xbed01d09be133abfU, 0x3e860b41be8f1447U, 0x3e646c5dbdfaee5bU,
  0xbdc151513e292ceeU, 0x3df005553d82076fU, 0x3e3b3a573e4fa92cU, 0xbe2313e03df91819U,
  0xbe493275bd83036aU, 0x3ea396aebea796d2U, 0x3e26220ebde7936bU, 0x3e50e59cbe3e30c5U,
  0xbdf94436bd99f315U, 0x3da36dc2bea6c24cU, 0x3d9b1f8ebdf70c77U, 0xbdbd1f3abe3836d7U,
  0x3db06add3d2a7cb9U, 0x3d8b49babe750ed9U, 0xbef703a23f02a78eU, 0x3efb74f6bd55f6c7U,
  0xbf27474cbf52b81bU, 0x3ebe780b3de48fdfU, 0x3d8bd035bddeed70U, 0xbeed54a23e8c7d98U,
  0x3ea45240bdcb1c2dU, 0x3e660733bea74b6aU, 0x3e1f94ec3e2da915U, 0xbe4b59073e9a65f0U,
  0x3ed9355e3e4ee394U, 0xbd54ba2bbf10b0ddU, 0x3caabf46bf149847U, 0x3c7e14f73df56c0bU,
  0xbd671254be7addc2U, 0x3ecd25f0bdef37afU, 0x3da79a16bd9b8094U, 0x3cc09095be2bc2feU,
  0xbd8a7772beb9e9b0U, 0x3dc00fca3e898034U, 0x3ed322cabec2aa41U, 0x3ea8fe36be1108f4U,
  0x3ead5b07beb6d0b8U, 0x3d0503eb3ca2980fU, 0xbf1e5d7cbeeaa424U, 0x3ec444a73e24565aU,
  0x3ed0027e3eca0fa4U, 0x3c1f9a273dd4d3f5U, 0xbcde71a4bc96562eU, 0x3dc05ccf3e1b08d8U,
  0xbd4ed6f53eb7cac0U, 0xbd81483d3d8e4aa1U, 0xbecdf9373efc42c8U, 0xbe9be6ebbf473b2aU,
  0xbdd938663ef7aacdU, 0xbeb1a0153cd03f98U, 0x3dbaa4463dd5d9b9U, 0x3edfa86abda95e6eU,
  0x3e65e2423ed1c5f2U, 0x3edd65cdbde5a7f3U, 0x3eaf12aebe1bf5aeU, 0x3ee5427e3e738aa7U,
  0x3e6c986dbf2a3d39U, 0x3e8a398ebce0e6a2U, 0xbe7f0a82bd889131U, 0x3d55ae143d7bec3cU,
  0xbd4378213e2360f0U, 0xbed2dfdebcdc4cf9U, 0xbdee31fc3e77b1c7U, 0xbe2b10433dcbd2f4U,
  0xbcfb5aa53eff3086U, 0xbd3de5463d0565f1U, 0x3eb333363eb715ecU, 0x3e81a9303e9fec0bU,
  0x3eb0adb63dd99939U, 0xbc86da3d3da0aa96U, 0xbf085e0e3d2581a6U, 0xbcfcbeb83dde9c82U,
  0xbb7964543df977a9U, 0xbe06c40b3edda7e6U, 0x3dbd7703bf0a91a1U, 0xbe288ba23eb5ba55U,
  0xbeec75c83d5c9d81U, 0xbd3e7c7fbde4d5cdU, 0xbd2bd4f6bd7808e4U, 0xbc0e058c3d9f1feaU,
  0xbda1b3f7bca4fdbcU, 0xbe7b0f89bd9fafe2U, 0xbd6542a0be26b3d6U, 0x3bcaec49bde2b80fU,
  0x3e13f198bdfa9de1U, 0xbd897489bdc62f87U, 0xbd64197e3d80ef04U, 0x3da8f33bbe0ee1e6U,
  0x3e2bd276bcf0ddadU, 0x3dc9bfa1bd7a6fc2U, 0xbdb256b33b9fdc9eU, 0x3aab4a89bdda3e22U,
  0x3d91d3d93ce4df72U, 0x3e20712abdeae49dU, 0xbdb386a23cea8b18U, 0xbd36513a3d8691f1U,
  0x3d92225f3c8d2cdaU, 0xbddd8d2b3c27c73eU, 0xbe22b7333daa5eceU, 0xbdcc6f963e048bf1U,
  0xbe0575abbdc78879U, 0xbca13a483e35aadeU, 0x3d28f736be0da760U, 0xbdeaf44a3d61718fU,
  0x3d9a096bbcb5a67bU, 0x3d6e7231bcd757c4U, 0xbde9ede43e1f2b92U, 0xbcab4b94bbbea1e5U,
  0x3d66b57f3e0056f2U, 0x3ca3654dbe498011U, 0xbd842f193daa0befU, 0x3dbe82f7bd6ac201U,
  0xbe064b0ebc8ff7b4U, 0x3d809e55bdead3e3U, 0x3cca75cd3ac83e72U, 0xbda38a963a91aa4eU,
  0x3d9689163c67e8a7U, 0xbe029e9bbd2ca83dU, 0x3d8bd0ef3e4d0192U, 0xbc394903be22891fU,
  0xbc61617abd888ae4U, 0xbdad09943d9e9143U, 0xbe66a0693b72ae1cU, 0x3e0fc3a7be1f5de3U,
  0x3ddae866bd8296a2U, 0x3d2e1b13bc6cb74eU, 0x3d8535673d8f9943U, 0xbd88bfc6bd79c790U,
  0xbacda944bcbc6745U, 0x3e0a74413da4943bU, 0xbd092137bc8ada33U, 0x3e4903febcb0e119U,
  0x3db935f2bbebd354U, 0x3d833c2a3b7e1ef4U, 0x3c9fc637bde012aeU, 0x3b1c6971bd42b852U,
  0x3b4fe978bda7fb6eU, 0x3dcfd06abc80478bU, 0x3d7714743e3db8aaU, 0xbe2dbb393d3913c2U,
  0x3dbf3461bcf3d9c9U, 0x3e10e8a53dd0c896U, 0xbebdc363bd924b27U, 0xbe036660beb65b32U,
  0x3d695c76be8940e8U, 0x3d23c4423ca98d5eU, 0xbd1921823e8d052fU, 0xbd9b06e3be551b7bU,
  0xbe188d75bce43169U, 0xbda0ac1dbe4d461dU, 0xbdd1b1c13c578ff5U, 0x3da1e29bbe0edc60U,
  0xbe8c4e7a3dc77270U, 0xbdebc7f1bd4a82dbU, 0x3e54596dbdf70379U, 0x3d82ea99bc128390U,
  0x3c4563edbe1d8bfeU, 0xbc87a14b3df26ed5U, 0xbd0ffcfbbde0ba44U, 0x3e2940313e27ac33U,
  0x3cb7adf1be21f7b2U, 0x3e9ee7aa3e3bf1cbU, 0x3e26bff53e602b75U, 0xbe3a6320bd19d9e8U,
  0x3e6375f8bc1cb5afU, 0x3cb83113be3b730fU, 0xbdc21ce8bddc99acU, 0xbd5079403a706a59U,
  0xbe22b25ebd565b12U, 0xbd3c464dbdb866b7U, 0x3ab976b13bd3d8c4U, 0xbd9d42c33caabc4aU,
  0xbe9fb7cebd825eb8U, 0x3eb36517be7c395eU, 0xbe1829933d150361U, 0xbe764ac7be051ea8U,
  0x3e54989f3cb563a5U, 0xbd8aabf9bdd5a4f9U, 0xbcc88767be23ed05U, 0x3de4b3df3e868686U,
  0xbda9690d3e3d44f7U, 0x3dffc861be4b95dcU, 0x3e38008e3e60568dU, 0x3d376fd2bded0bb1U,
  0xbcdf2e053ea5be02U, 0x3ce5fc9ebe10e713U, 0x3e9e2dc6bd0166a4U, 0xbde67299be123f9bU,
  0x3e7f5641be673aa3U, 0xbe829a9f3ea67228U, 0x3dc9a0bcbd4cd7f3U, 0x3e5f8ca53e2d09d2U,
  0x3bdfb9583cf2f49fU, 0xbd811c9c3cf14debU, 0xbe2b9017beec33fcU, 0xbe6698463d9672eeU,
  0x3da07cf13db8dda4U, 0x3d284609be703475U, 0x3dcbcda83de7c712U, 0x3d239a543cc8b579U,
  0xbc5338dcbda75ff5U, 0xbdf6440bbe26abd4U, 0x3d5b538f3e4d3cc1U, 0xbe1233bb3d67f27bU,
  0x3e00a5743e93036bU, 0xbed89c57bd9e7be4U, 0x3b6e5ae23dbba8b0U, 0xbe64e8d63e153f25U,
  0xbe86d497be69531fU, 0xbd69536ebe99d5eeU, 0xbe373eedbdc0c705U, 0xbd14b62c3e305d3fU,
  0x3cbff972bd9136d9U, 0xbee9e9d63d85286bU, 0xbea9ff5cbefb3820U, 0xbd0a4e50bec1001bU,
  0xbe07d1e5be8160bfU, 0xbd81e2893cfe0d53U, 0xbc1ce707beaf3683U, 0xbea35abb3dabdaaaU,
  0xbdc0ac713dc61ac2U, 0x3c4c2ef3be920e84U, 0xbe14fd973b9400c8U, 0xbe8319d6be52f73fU,
  0xbd73b2963d2c6967U, 0xbdf75a64bea144bfU, 0xbd33afd1be15591aU, 0xbe70739bbebed830U,
  0x3db27e173d3efccbU, 0xbea83854bdb1c2c8U, 0x3e6bb880bdae6cafU, 0xbd8f18e23abfcbfbU,
  0xbddeee3bbe6af1f7U, 0xbe0228d33d5d15ddU, 0xbdd35d56be3f525bU, 0xbe0108cfbc8f8257U,
  0x3d3f47953d479b31U, 0x3d047e1c3d8022a0U, 0x3e3fb31abe5b95d7U, 0xbec7e38cbdce4f43U,
  0xbdbe19c43c146ed3U, 0x3bf82de9bd9eda43U, 0x3e1fc8afbe880e9eU, 0xbf0171d839f94501U,
  0xbe2956463e6602e8U, 0xbdb6ce8dbdea19baU, 0x3d2823d1bf0748d8U, 0xbe16b30abf1f2544U,
  0x3ced8546bda2adf8U, 0x3e5afdc5bdd57405U, 0xbdb7a349be41bfdeU, 0x3c169127bc0a9c81U,
  0xbdfb7ccbbe8b6c3bU, 0xbbcff421bdeca6b0U, 0x3e7574e6bdf11675U, 0xbec3e8893eaaeac8U,
  0x3b1dabccbdeb6ba7U, 0xbe6dbc0dbe5a0c1cU, 0x3e090a5f3e507c56U, 0xbced0e06bc97243eU,
  0x3e3896463dd8120bU, 0xbb10052b3de297deU, 0xbea14ceebe2c28d3U, 0xbedbe1a1bc4b244aU,
  0xbe5380b6be220f91U, 0xbe33c3df3d25c7abU, 0xbe2a1e883e18b61cU, 0xbe7df18a3e7f133eU,
  0x3e68e1863e91e7f9U, 0x3e06b5ec3dc1ff6bU, 0xbeadb7993daeb149U, 0xbdb958f6bbd686b3U,
  0x3d1734143e0025cdU, 0xbc0a3472be5e8690U, 0x3d23eff2be043e70U, 0x3dfaf7313dbc794fU,
  0xbdd946a6bc21f90bU, 0xbd91fe77be060f68U, 0xbd3356453ca668d8U, 0x3e13cc42bd042318U,
  0xbd98f14d3d11be52U, 0x3de9cd613d126838U, 0x3be6e0003e052d8bU, 0x3e2a9e9b3d5f5475U,
  0xbc0cfda4bcd687aeU, 0xbcb948cd3d744958U, 0x3dcc9f2c3dfcae42U, 0xbaa5d2313e072a63U,
  0xbcaad0eabdb798cbU, 0x3d5736d0bd4a3688U, 0xbd354d04bcb666f6U, 0xbcc2f261bca2bf77U,
  0xbc099733bdae854eU, 0xbe077c91bd15b16bU, 0xbe0e0eff3d273898U, 0x3be23f653d623930U,
  0x3dcf471cbda4380bU, 0xbd18fdf6be58964bU, 0x3da7f96abd9cf725U, 0x3d3086eebda1b9f1U,
  0xbd38022cbe8ba07eU, 0xbd20c06abdc0100dU, 0xbc4421cbbc8af2c7U, 0x3db7483cbdb5c43fU,
  0x3ca77702bbe3069cU, 0xbd0fcdffbc3b371eU, 0xbe1b141fbb951ab8U, 0xbcab45283caee611U,
  0x3da5d7193cc435c7U, 0xbcdc870d3c2e2779U, 0xbdd80a13bd7383d0U, 0x3c6008013e66d70fU,
  0xbd88a2893deba67eU, 0x3dc90a9e3d9c1267U, 0xbde6d49dbe095855U, 0x3d1bf8f63d2ee896U,
  0x3e3cf0e83d3fffd0U, 0xbe75d569bd863bb9U, 0x3ddb390abe43194dU, 0x3cdb51cbbe37f631U,
  0xbda9ba25bd08b31aU, 0x3d178015ba930c9cU, 0xbdd7fe213d305e70U, 0x3dbdbab6be4b4086U,
  0x3ddc40b4be5e2fd4U, 0xbe2cb9453dbf03e7U, 0xbca68e4c3d190e63U, 0xbc8c0986be52c3b4U,
  0x3d19a598bcd0c08eU, 0xbe17393cbcc5cbc1U, 0xbe100181be03cf5eU, 0xbdf232df3ddfc9dbU,
  0x3c9aaf11bdd4ad39U, 0xbadeddb6be50be72U, 0xbd5381edbd86bf8eU, 0x3cb3c9043e29f6e7U,
  0x3e183bb83cdb2311U, 0xbde0fbe33dd1ff1cU, 0x3df2c265be0984f5U, 0x3ea9d610bd0a3aa5U,
  0xbd9f9d48bd4b05b9U, 0x3d877deb3db275d3U, 0xbe3b57483d99286cU, 0xbcd136f03da1a453U,
  0x3d124e35bd4f9ecfU, 0x3ce20a2a3e1d1c2eU, 0x3e096b7cbcf1f9c4U, 0xbc94dd91be46a2e0U,
  0xbd9689c03c8b5487U, 0x3d16c9fb3d0d1cf7U, 0xbe8ce4163dc31301U, 0x3bcd0edf3dc722fdU,
