/**
  ******************************************************************************
  * @file    network_data_params.c
  * @author  AST Embedded Analytics Research Platform
  * @date    Sat Jan  6 20:35:01 2024
  * @brief   AI Tool Automatic Code Generator for Embedded NN computing
  ******************************************************************************
  * Copyright (c) 2024 STMicroelectronics.
  * All rights reserved.
  *
  * This software is licensed under terms that can be found in the LICENSE file
  * in the root directory of this software component.
  * If no LICENSE file comes with this software, it is provided AS-IS.
  ******************************************************************************
  */

#include "network_data_params.h"


/**  Activations Section  ****************************************************/
ai_handle g_network_activations_table[1 + 2] = {
  AI_HANDLE_PTR(AI_MAGIC_MARKER),
  AI_HANDLE_PTR(NULL),
  AI_HANDLE_PTR(AI_MAGIC_MARKER),
};




/**  Weights Section  ********************************************************/
AI_ALIGNED(32)
const ai_u64 s_network_weights_array_u64[7747] = {
  0x400d32ae00000000U, 0x3fc2d3e33f8dd3b5U, 0x3de75e2b3ea6b58eU, 0x3d6c0f3a3e0e3d67U,
  0x3c3d36473d6e727eU, 0x3f9051ac4011ef61U, 0x3e55bc613e11d6dfU, 0x3e6c8c063e892695U,
  0x3e8473e03e56eb46U, 0x3e5237f13e57a328U, 0x3e689abb3e815d41U, 0x3e9a4ac63e3e3beaU,
  0x3df26afe3e71e574U, 0x3e87209c3e45ee69U, 0x3e312a373df7b8a9U, 0x3df20c3d3e8750caU,
  0x3e85ad1f3e2fef75U, 0x3e3b2cdd3deba259U, 0x3f09df8c3e89279aU, 0x3f30e1693f1aa0f1U,
  0x3f0e93b43f06323cU, 0x3f008fa13f202020U, 0x3f2100413f018674U, 0x3f18ff0e3efb6c14U,
  0xbd1771a63f2fec1aU, 0x3e261e543d14179eU, 0x39a79a95bb02081bU, 0x3996888a38ea2927U,
  0xbf7f1ed9ba7649f9U, 0xbbe9326f3c90c0aeU, 0xbc44ec103b08bc08U, 0xbebf7ea83e9a8aedU,
  0xbec04e2ebd8e44efU, 0x3d9262d03eb67008U, 0xbecacdfc3ea686aaU, 0xbe9a23eb3d279b40U,
  0xb9d411de3ea3a7c7U, 0x3c3f22f7bb2e4817U, 0x3a9e4241bb06d475U, 0x3a9f527bb9d96947U,
  0x3b734fc0bb0d905aU, 0x3b3051273aafacc9U, 0xbe053045bc203bcfU, 0xbe95705d3edc6117U,
  0xbf087060be8b757bU, 0x3e6a06893e987e2dU, 0xbea9de1d3f02a164U, 0xbeda8b173e83026fU,
  0xbef306043e1bef47U, 0xbeef5b5fbef130b2U, 0xbeebb0bbbeed860dU, 0xbee80616bee9db69U,
  0xbee45b72bee630c4U, 0xbee0b0cdbee2861fU, 0xbedc4541bededb7bU, 0xbed8f711bedb30d6U,
  0xbed5b0dfbed78632U, 0xbed2063bbed3db8dU, 0xbece5b96bed0b04fU, 0xbecab0f2becc8644U,
  0xbec6ec15bec8dba0U, 0xbec35ba9bec530fbU, 0xbebfb104bec21144U, 0xbebc428ebebddbb2U,
  0xbeb8cb00beba310dU, 0xbeb4b116beb66d19U, 0xbeb10672beb2e8ccU, 0xbead46fcbeaf3120U,
  0xbea9b129beab3f0eU, 0xbea5cb2ebea79d11U, 0xbea31dffbea3afc5U, 0xbe9e97e8bea0745eU,
  0xbe9bb871be9cdbe9U, 0xbe9737b2be99aa08U, 0xbe92e4f0be9542bcU, 0xbe9028a6be914171U,
  0xbe8d1fb5be8ee7dcU, 0xbe88ce8ebe8a5560U, 0xbe848f83be86c419U, 0xbe819282be82c62aU,
  0xbe7b52edbe7f848bU, 0xbe73266bbe7768a4U, 0xbe6cc16cbe7092a0U, 0xbe653c4bbe6930a9U,
  0xbe5e57abbe624836U, 0xbe562aafbe5a5940U, 0xbe4f36c5be51ab88U, 0xbe47d9febe4bcb0dU,
  0xbe407eb6be43c8acU, 0xbe396661be3d25d8U, 0xbe32013ebe35df02U, 0xbe2afb38be2ec78eU,
  0xbe23852bbe273b80U, 0xbe1c540abe20575aU, 0xbe1498d1be18895cU, 0xbe0d4002be10ac5cU,
  0xbe057219be0953daU, 0xbdfb8edebe0180f0U, 0xbdee29d6bdf4ab27U, 0xbddf8575bde6435bU,
  0xbdd1c9b6bdd914e8U, 0xbdc43186bdca91e8U, 0xbdb4f172bdbcb6fcU, 0xbda5f843bdadf7f3U,
  0xbd96bd27bd9e106bU, 0xbd885844bd8f81baU, 0xbd72f49fbd81229dU, 0xbd55f12ebd641f73U,
  0xbd39a745bd47ae4eU, 0xbd1b438dbd2af319U, 0xbcfacd54bd0c9b70U, 0xbcc03443bcdd37a6U,
  0xbc8661eabca23392U, 0xbc18d034bc534f89U, 0xbb09ae31bbbfecd4U, 0x3baaec6f3ad971e4U,
  0x3c48e0983c0d6403U, 0x3ca0787c3c82139aU, 0x3cdbdb3e3cbeeb09U, 0x3d0aafe73cf71e3eU,
  0x3d29a2993d1a700dU, 0x3d4870da3d38ac4dU, 0x3d635c463d54e347U, 0x3d7f7ec63d70d239U,
  0x3d8e54843d872a24U, 0x3d9c15d43d94fe31U, 0x3dacb7243da4a8c3U, 0x3dbaafd93db3d4aaU,
  0x3dc7c8c33dc0f581U, 0x3dd75fd13dcf90c3U, 0x3de584353dddef2aU, 0x3df4df683dedbeb6U,
  0x3e012cab3dfc1d39U, 0x3e08d0613e050afeU, 0x3e103d163e0c9b28U, 0x3e16ec2c3e13642fU,
  0x3e1ecdc43e1b3ef7U, 0x3e27055e3e23440eU, 0x3e2e10393e2a9842U, 0x3e3583023e31a88eU,
  0x3e3d1aad3e3a42b6U, 0x3e43c5ed3e40bbe4U, 0x3e4b40d43e47441eU, 0x3e520de33e4f4f1cU,
  0x3e5955a73e558c5dU, 0x3e617c033e5dbcd9U, 0x3e6a5e4b3e64b0c6U, 0x3e70695b3e6d384dU,
  0x3e7657c33e7339daU, 0x3e7e844e3e79a19fU, 0x3e82a5fd3e81014cU, 0x3e8685eb3e84bc9aU,
  0x3e8a3ce63e887784U, 0x3e8db7c13e8c3e90U, 0x3e91a2203e8ee7deU, 0x3e954cc43e93b290U,
  0x3e998dcf3e976cfdU, 0x3e9c8dc23e9a8a08U, 0x3ea010bc3e9dabe4U, 0x3ea3d3d43ea1b544U,
  0x3ea7dbae3ea53988U, 0x3eaba93b3ea9774eU, 0x3eaef7443ead21f2U, 0x3eb2a1e93eb0cc97U,
  0x3eb611843eb4773bU, 0x3eb9f7323eb821e0U, 0x3ebd7f5a3ebbcc84U, 0x3ec17b233ec0538cU,
  0x3ec4c3c63ec30b30U, 0x3ec8a1c43ec6cc72U, 0x3ecc4c693eca7717U, 0x3ecfb6b73ece21bbU,
  0x3ed3a1b23ed1cc60U, 0x3ed830363ed57704U, 0x3edaf6fb3ed921a9U, 0x3edea1a03edccc4dU,
  0x916850803ee076f2U, 0x2ada84869189a25bU, 0x61b6818f6c737b8bU, 0x696f669f92b46069U,
  0x828e53808b8e8a72U, 0x7290907b7d86828eU, 0x567279c261748e9bU, 0x764d588869787b64U,
  0x7758549b7fb5675cU, 0x708e608972756081U, 0x969487a06a73846aU, 0x8080725f747aa66bU,
  0xa0b458a07d856893U, 0x63f63a5b7a7f6c8bU, 0x937b89976682a593U, 0x837374929b8e8a92U,
  0x69a49282767d8397U, 0x8c988f817b91a58aU, 0x8c4ba7a46c868887U, 0x96807352a08a9e94U,
  0x9d839075664d6a72U, 0x7b898397c86c7150U, 0xac77b1507369897bU, 0x8a9196a8a4607d6aU,
  0x737e94a765576c90U, 0x5d7bce678e6c5c90U, 0x959455a6638a7a9cU, 0x7a92b18c72845d91U,
  0x82bba99e6e976e97U, 0x847276805c8f9372U, 0x686a81b9b85a7d6fU, 0x73758069718b5d5aU,
  0x8e6eaf5a6f786b84U, 0x81a8787582a39379U, 0x99908d76837a9899U, 0x8d8d66615079637bU,
  0x6a5d7c7c6a827f82U, 0x6a9f664d72757285U, 0x886a959ba1999a67U, 0x7f6d537fb5778995U,
  0x98ab945b7691938bU, 0x659d917f6d5c887eU, 0x5b62ba7da8806aa7U, 0x6b70aac58f726395U,
  0x72869f8177bca262U, 0x5581917d76656976U, 0x715e9180769c92bbU, 0x5c7b6eada36b7f84U,
  0xb373633d86989686U, 0xc56be25a8b8f7f5fU, 0x5f8f6089a3506d89U, 0x8e88997996a9954fU,
  0x817c948c5ea69990U, 0x8e838c8784929b8eU, 0xa37755987394717dU, 0x93b3d5c492897f6cU,
  0x7f8194ae877f888dU, 0x8073969d9399798dU, 0x75807874757c8186U, 0x9b899b9494906891U,
  0x6a9592ac80a36c9eU, 0xa971873b8f9b9b81U, 0x99a785a480a28078U, 0x6a8d937a95756cadU,
  0x607daca99e9e81a5U, 0x6f5966586b526c78U, 0x857780677494956aU, 0xb64da8848d794c8bU,
  0x49707669a1878d81U, 0x8470917592b87861U, 0x90ada58a8488805aU, 0xa2867197748f885dU,
  0x8273756570778275U, 0x6c87ac95735b8960U, 0x82ad668986515c50U, 0x7798698a6b8e7f4dU,
  0x997b7e88ae8692b3U, 0x799485919a628769U, 0x9f3282aaa07a6ca5U, 0x7e6d94b976736b5fU,
  0xbe7e83578b3cc673U, 0xa260cbb0b491b779U, 0x9c816a7b795fab86U, 0x9db264ae9c999d5aU,
  0x9f888c7879777cbeU, 0x599c7a3b658e7a71U, 0x9d9d6965b29a936aU, 0x56a96679a79e9aabU,
  0x6ba884786895926dU, 0x67727964ab5f98adU, 0x839fd33f6782a459U, 0xa9629c417b866a6aU,
  0x7187665d927b5c79U, 0x6e8e539aac6fa760U, 0x83698785a15e786fU, 0x8b7175a9898d5f80U,
  0x9a70a490649b8e91U, 0x687da46a746baf9aU, 0x8556787382c08098U, 0x4d725b9569898862U,
  0x7b80b99086838279U, 0xa3a09a939f6ca667U, 0x8bb18a6b849c648fU, 0x9261bb979281367cU,
  0xaa95889682b0898aU, 0x8f9198827aa5bbafU, 0x6a7b868180c0866dU, 0x7b7da298908c8e8eU,
  0x6ac3a6af99817e7fU, 0x9d6e9b3a8287997eU, 0x70ad847ca27f72b1U, 0x6e8d976769826f6cU,
  0x6674837e6377776cU, 0x6e8d8ba57361a66cU, 0x5a727d61909e776aU, 0x6aa3b6998d7dac84U,
  0xb2ab93756b94739eU, 0x8879776ea8b566a4U, 0x93877183958f988dU, 0x7e787f90707a866eU,
  0x559d9a7b747c687bU, 0xa5739c3f9d7e7f78U, 0x719677b15f5c6a70U, 0x8b894a725d9b6c99U,
  0x8b808e6f775e6fb6U, 0x87877c948a97727bU, 0x5d6f8573809f6b6fU, 0xb56aad4ca7a0a086U,
  0x71749e8897aca0a9U, 0x61746e6b7764847dU, 0x90925f7296a08e8bU, 0x9d7aac6087a89357U,
  0x9789b054996ea969U, 0x827bb7605783966dU, 0x628f686b9baba170U, 0xa563918db38e52a6U,
  0x696e8f7b76ac786aU, 0x696d76895a837e81U, 0x6c5b6c9fa86c7d94U, 0x76d5b7a29a79b8b4U,
  0x78817775897dbe75U, 0xa59a91a0a79d767aU, 0x949e7c81715e8583U, 0x66796fa196789492U,
  0xc17a885c887c7974U, 0x73b3d7bf898b608bU, 0x70967e939e72b397U, 0xa09a728b848ea065U,
  0x80a78e8393957b8dU, 0x758a89739b8a9072U, 0x54769d6b7a7092aaU, 0x7a81ad7ea1778176U,
  0x975f90a76682b28bU, 0xa160967c97836771U, 0x7b7d826ca48e999bU, 0xa2a48e955fada760U,
  0x908881479fa17eb2U, 0x7ea9a14c6f818074U, 0x74b98886ac948783U, 0x8d8b8d757b628584U,
  0x8b6a8f73a3975f5aU, 0x7aa785959f5fb4b7U, 0x9f5a6b868b91717eU, 0x60af5a958879595dU,
  0x8b5e8c6170869948U, 0x957e7e8e6e6f6286U, 0x98a38a9b84906375U, 0x816572b257a4638dU,
  0x84a68bbc9d755f5fU, 0x8176329b636e978cU, 0x8c7e73747b766e67U, 0x977a7b718871667eU,
  0x788970806c8f8c89U, 0x8b779d8696ab7879U, 0x6b5b84758e6b8f87U, 0x76c86263908f5653U,
  0x4d8491a47494976dU, 0x7e91846e6e739c5bU, 0x7d74a592678fa995U, 0x5873827f73787c74U,
  0x7d53b358aba76f7aU, 0xacc9ac407e644072U, 0x98965d8d6d8077abU, 0x77958b949b6e8d9dU,
  0xa198899a72a1899aU, 0x9a98976d808f7087U, 0x715a638566808871U, 0x7989abb5a795ce83U,
  0x7e948cad8a6f6e60U, 0x70ad9e9579676675U, 0x8ca38c848b75898eU, 0x6c81947a768b7672U,
  0x848299a18d7e817dU, 0x4e8c3c92957195a1U, 0x8460af5ea15a747aU, 0x89749f93a0759b7eU,
  0x859973797c9c6c7aU, 0x6b9269a88da47d6eU, 0x7f5d7e716f8da19bU, 0x8a73c9838f8aa35fU,
  0x547a6b9464c26c7dU, 0x74b04b8d62a2728aU, 0x8d6778659a906691U, 0xa980a65c85558c8bU,
  0x9396a86492925a71U, 0x7e529c3b646b8576U, 0x7a7d9d8d7154a3b0U, 0x8c929f9968a59765U,
  0x848e8a8caa9da19bU, 0x70549c927aae7189U, 0xbd72609769a19d79U, 0xa2778b6f89836a8bU,
  0xbb8285a5997b8585U, 0x7f8dc2827eca9e9dU, 0x7e5b8378a69d76b7U, 0x738fa9a4b58c8370U,
  0x417b44638fb68c6bU, 0xc1c9b48a7a757e8eU, 0x75889758755e5b4cU, 0x7a99666a8cb07a7fU,
  0x7992739b74738b74U, 0x89806c928a8a9b6fU, 0x76b567c191899172U, 0x6cdd4b5d7f8aab86U,
  0x758d9783699c9a76U, 0x5c8b887c93ab9064U, 0x9b685b7b9c8d879fU, 0x78a0915e97857d7fU,
  0x836b78a28f9694a6U, 0x9dd93c7983918354U, 0x8fa48292788e7986U, 0x799c86986374876eU,
  0x7864a1958d778191U, 0x837071877b768f6fU, 0x624c81726f9a797aU, 0x654e9fd57c918ac1U,
  0x799a75b5685e9c63U, 0x755aae8f87a072a3U, 0x987389779b7881b3U, 0x8978869388b0815fU,
  0x80a38176ba6e6970U, 0xa4a28a268d7b657fU, 0x7d6b748e939e8a92U, 0x816267b29e878771U,
  0x88957979836d8a77U, 0x808d717c84806f8dU, 0xae737aa25b707875U, 0x6013afa972896296U,
  0x7e88686296b5ad8dU, 0x83877094a4958064U, 0x997a998ea68d7f9aU, 0x647f9289846a7e83U,
  0x4ba69b906fa38e84U, 0x897bc132a3828a9eU, 0x6987a365a39b8a91U, 0x73916a8a6e75a48eU,
  0x6f7e7ca26673989bU, 0xab84957e7a7d809fU, 0xa4a2b38687948374U, 0xc88a7baf969eaf92U,
  0x8a83bbc674a07c85U, 0x5e7762a2a072a457U, 0x7293a48bb0918bc1U, 0xa9ba5c7171818f99U,
  0x7bb67b4a72649a93U, 0x8ea7b7d5826a6ea7U, 0x9a7088977ab27c5cU, 0xa9789b996f71826eU,
  0x6a936e7c796e7a60U, 0x7c776ca4a993848eU, 0x778c72b6a97e8e6eU, 0x9d91455598699874U,
  0x798861847d9c7c9aU, 0x64877c834a9b65a3U, 0x62938a865e82979aU, 0x7f5b9b866c508d96U,
  0x5f91739da27f6e60U, 0x6e84398c749b8966U, 0x75809b9bab61aea2U, 0x7e65776f6a836a6aU,
  0x8b929a7a8299798aU, 0x7a5a6192939a6f6bU, 0x564f60846b798594U, 0x6988a4929287a986U,
  0x98ac717b62965e73U, 0x778f5a73947ea195U, 0x7e8680926ab28961U, 0x8876838f6e6589b1U,
  0x82819ba19169826bU, 0x726c417d8b8c9f91U, 0x799d9f76b692a2a3U, 0x81938e6d826f6c62U,
  0x60b49e75737d8a7eU, 0x6e7d5c867e7d6f8fU, 0xa23c7d62637d919dU, 0xa37a8f4764a06788U,
  0x976bbb569b586e9cU, 0x7c7b90b79784796fU, 0xad6c9a616f758f7aU, 0x60886c8060af7d8cU,
  0xa38b6a61977888a4U, 0x788cd0d1806c75a4U, 0x70b27c86aeb28f9cU, 0x767b9e88777e61a6U,
  0x7893877c659394adU, 0x8b81929ca2756f74U, 0xa4b4c7cb75767e8eU, 0x8f3e4251717a6dbcU,
  0x7495a58697647c80U, 0x9874809a7fb9937eU, 0x789791868f789690U, 0x7c9e8f86869f837fU,
  0x887b638b9970829aU, 0x517367c979938660U, 0x949d8d63749cc280U, 0xa082918498709d74U,
  0x96575e776ba59b6eU, 0x70867d8470979375U, 0x8c9f84b58c8984adU, 0xb2af3c6274b1998dU,
  0x7ba57e839085ad71U, 0x627f9c9e94745892U, 0x8b7da4708871679aU, 0x7a84a98c85a46e8bU,
  0x70939e67918283a3U, 0x8c6654c87f72a15eU, 0x7682659767744497U, 0xa554688275637f73U,
  0x8d44736b937b8574U, 0x83816f9a6f955f87U, 0x94a5a28e9869a86bU, 0x7aaf55aa759c4e62U,
  0x936e65688674a0a5U, 0x64a3c89b568e818bU, 0x7396a889b378a29bU, 0xa6885b9764a36983U,
  0x7fa2a7b76988b077U, 0xa043aaa78f88417fU, 0x84a4a09d91b0ba7aU, 0xcb72b4be729890a4U,
  0x8b5e8279895d7e73U, 0x7170af778d73736dU, 0xa46070a965a57d8bU, 0x83c3334e7c7a8678U,
  0x679ad5989584a4a5U, 0x816f99ba8c94627bU, 0x9d7680877488937dU, 0x899f7d5cad838392U,
  0x8ca78f70759d719eU, 0xa1cc85ca8c746a78U, 0x8f5a7e7c8cbf6468U, 0x6e7e7c9271b686a2U,
  0x83979a7b81a66c6dU, 0x738aaa9aa27b859bU, 0x6d448551a3766c62U, 0x676eab546082b378U,
  0x8296a38f93796e76U, 0x9974578ba0678e79U, 0x916a61986d769894U, 0x938683a0868f9a70U,
  0x7a8cbabc82887683U, 0x3844b2a67e76ae7fU, 0xa778a3bf9770a26fU, 0x917d818484ab92a4U,
  0x9789687c7d66698fU, 0x6d99746e6c9a6c6cU, 0x9ba780776e6d7493U, 0x8595a352968c83b3U,
  0x6b7f7783796c6a7aU, 0x6d9688bd9258a96dU, 0xae736a8b977b6fadU, 0x909b9f8f5f959489U,
  0x82926e8e64a5716dU, 0xa9b5699784aa7a70U, 0x83706b796e778163U, 0xbf946165a0958d45U,
  0x8d796e91b18e88bdU, 0x45997b8288829d7dU, 0x62738e789b668dacU, 0x5b79aaa27a7ca97dU,
  0x789d8f7eb69a8e6aU, 0x977a9f519a97b07bU, 0x9e859c8e7a5a8fa3U, 0x79719d7e817a7c74U,
  0x81958752607ca360U, 0xb66cbe78848b587bU, 0x80947f767f757d8aU, 0x5c8a898b814b6c6fU,
  0x9f73805b8f937680U, 0x8a748f8681998b7aU, 0xaab67cbc6e7d8d53U, 0x8ba12a838785659eU,
  0x8d7c8c8e74966272U, 0x947a9b80ab6a6f7bU, 0xa88fa0878da9759eU, 0xac9b6a91a5a2aa6eU,
  0x7291899492908180U, 0xcc404c8580848c5cU, 0xa78093787a8fa06eU, 0x828586696846a698U,
  0x7981819578679e8bU, 0x797c6c928f7a9a85U, 0x827a69595ea07e8bU, 0x61548b538c5bbf78U,
  0xac808166a26a8a61U, 0x917986b6a889a773U, 0x737d9d769389a086U, 0x896a93707d8e5d83U,
  0x7c859c72709c9b89U, 0x5f0e94b57c898a8aU, 0x6ab46989556c6160U, 0x997373888e5d878cU,
  0x817483746c8e867aU, 0xa6708a8e8b9f8879U, 0x6bb1879a71ac8483U, 0x4c6fa2dd65888a70U,
  0x77a2b85f91925666U, 0x8582626fa89177a4U, 0x917d7d88717f7b55U, 0x5d8d5587909c6a8aU,
  0xaa5963706e85a0a1U, 0x4a94427b7c835c63U, 0x5f7b559a9d95928aU, 0x799d9b9947876bb2U,
  0x743d709e736e6f77U, 0x7f997d548d6dad90U, 0x818f8a7cc168726dU, 0x8f2147c89191957bU,
  0x8e96706b9aa8ad7bU, 0x749282996d5f8e6bU, 0x647d75988aaa8e9cU, 0x816b848d797b878aU,
  0x3e9b9c54947e8674U, 0x558ec9987e7195a1U, 0x6573a27b747e7469U, 0x7064798482a08a62U,
  0x7c8e6e7f8e99a08fU, 0x718a54878ead8d93U, 0x6a96656f858c998eU, 0xc8d8d0946a787f5bU,
  0x7c799f9199767265U, 0x98a0745d90536ed2U, 0x8282778faea07f8bU, 0x7481997e60a99899U,
  0x6ca06ead6c60a36dU, 0x5d8c9d8f99a36980U, 0x9a5f7689a573a173U, 0x6a7985a399918b4fU,
  0x829a6e71698c9b7dU, 0x7d618d9c99a6a394U, 0x749c899e8d779d88U, 0x76ec3f907d938a97U,
  0x878683646c64609aU, 0x7f7c7a97484b9299U, 0x86947e8f79867791U, 0x8f97697e969c957eU,
  0x546f776e968b6379U, 0x678e5a9461a2a376U, 0x81ac9a63b2907977U, 0x93bc4eb0ab8f8d8eU,
  0x7b9b9761978fb064U, 0x8b9c7c9e90757e6bU, 0x9b5e9ea85c806587U, 0x795c63695d8e8f9bU,
  0x89836f9b80975e7eU, 0xa27578a355a37b9aU, 0x6ca192a4b0699c7fU, 0x9169849d64979580U,
  0x8d72659da47c524bU, 0x4e496291a8956a9aU, 0xb3939ab676583b9cU, 0x6d778d8f966c8089U,
  0x956da26c98817a7aU, 0x739b80a3908e909eU, 0x63788064909e9482U, 0xbbc75359706c8f8aU,
  0x838364658765a679U, 0x9a78966fc0ba8085U, 0x8c93966380688846U, 0x8d8e7ea9569e9d6eU,
  0x6d829bd38d667bb5U, 0x7d564d7480877980U, 0x617d58593f8a768aU, 0x7e918487afcb8c90U,
  0x87a1898096737193U, 0xa4869a76857d7797U, 0x738e7a9170938367U, 0xc59ba7c5648db283U,
  0x80c1819272b46196U, 0x839a589953948d81U, 0x9475816093829e77U, 0x94869f8ea3438c8cU,
  0x6788a85d8d8392a0U, 0x7087b5ae93796189U, 0x847e9cbf6d70858bU, 0x867b617a86b0866eU,
  0x89a75a8a9fa68175U, 0x868fa6768f6f9f7bU, 0x936487a17c858874U, 0x9876a79e6ba48a8eU,
  0xa2919d5ea26da79eU, 0x9782649aaa669259U, 0x9c945b84a292bf7fU, 0x67928266a0929b8eU,
  0x898d649a877069a1U, 0xb16d854972755fa4U, 0xa8a0aa5b8d698f6fU, 0x56575b869e6ea985U,
  0x97898a74ab798c83U, 0x8a707eaa83979691U, 0x76775b536f936e82U, 0x4562cc6e8573b590U,
  0xb496785a9f9e6c9cU, 0x90a07a6a979b7d83U, 0x6b7f839a849a8477U, 0x778d6e889084a87eU,
  0x8a6d958d8a6b796eU, 0x6db7a0627caeb367U, 0x976781a9c0b17a7aU, 0x73859d84778f998dU,
  0x6d48a4739071928bU, 0xaf985da29e88be8dU, 0x84b06f60a4766c5aU, 0xae829e8067a54a6eU,
  0xb56d6ca569a56877U, 0x93a7889e69b8629cU, 0x9c879fbc5b87988aU, 0x8956aa739854798dU,
  0x8d732676a49f894fU, 0x8b9237839b9b5aa6U, 0x935fa3a0bb7e9290U, 0x597896885c877f86U,
  0x7b8992778c7b8e92U, 0x76718679837d728eU, 0x8faf84827899a38cU, 0x5178b17f627ea86cU,
  0x936a8a577a74b176U, 0x89759f8e99919e94U, 0x788a867e8b63ae5aU, 0x8685686b646d9d8fU,
  0xbc8b4c51888d788cU, 0x5d717dca96818c62U, 0x35976ca18490809aU, 0xb36e60a76c74917bU,
  0x946a796e859ea792U, 0x6e76b970999d7079U, 0x9e0049a46aa57991U, 0x578a8294ac625383U,
  0x7a687781a14b7c70U, 0x8d877d7eb79c7e48U, 0x865f8e6d8d937870U, 0x978c9f636c656b6dU,
  0x8e4f916f757f8d91U, 0x7298509c688b8aaaU, 0x8f8867857981567aU, 0x878a9e6656a09674U,
  0x987f677a7ba08e6bU, 0x88689c736c978e5eU, 0x6287caa59b66984dU, 0x881e4d49cc727073U,
  0x9a82807d8696778bU, 0xa0726f8a95a0aa83U, 0x85998891907d938aU, 0x9e7c9f7d6d9f9476U,
  0x63928b5474606b87U, 0x38ee61b2738f7a93U, 0x667672775d8e8495U, 0x717a74a56eb27f7dU,
  0x7368648064b29268U, 0x958479807a7da180U, 0xb7a230af7a7a8579U, 0x775660a989a0957eU,
  0x68b08e936cc06781U, 0x6f748c70b483a678U, 0x5da59b7b9c7a9392U, 0x5c93959882698d82U,
  0xa48f6fb7888ba57eU, 0xd0de65748d7988acU, 0x9b747a84a3877c6aU, 0x8d7b7f67837f99baU,
  0x6c798a81c0936d89U, 0x898c838e88918d93U, 0xce9d9d6c7e958392U, 0x7b0cc4738a9a6f65U,
  0x7e779b91a9879d95U, 0xb97c6b8a9072ba84U, 0x78948b8f7771a978U, 0x7c837960616c8c9eU,
  0x60a6799c8881a06fU, 0x6a885c6b7580bc93U, 0x566eabaf697961aaU, 0x79818a796c9b9573U,
  0x787a80707a9290adU, 0x817bac79718872a0U, 0x9f739341985a656cU, 0xba41b77ca2867a9aU,
  0xa96b68a18da0747cU, 0x826b6e797fb5a665U, 0x7f988d6ba6976e88U, 0x749f79956a69a6a9U,
  0xb87c72549f66948eU, 0x8385858a9a89a18eU, 0x7aa190a382949e7cU, 0x757f7fa2b39c9f58U,
  0x71867d91758ca681U, 0x8e7e79918e7f6e63U, 0x79699aa1739f8482U, 0x61f093779675585bU,
  0x59637c969c99817dU, 0x92965e735f857167U, 0x5a907ca18793797fU, 0x6964c37f756b8f73U,
  0x7ba58fada4899480U, 0xa278a47c9c957997U, 0xa383858d6a84a2aaU, 0xa4727384b55e6386U,
  0x9f6379a2926e7d8dU, 0x64a39f595c549d6bU, 0xbe9090c08c5c7ea7U, 0x6ab159997a7aa86eU,
  0x6e9e4369a2a09dacU, 0x8d968da2ae709985U, 0x809ca78a867e9ab6U, 0xa07c799197718781U,
  0xa578ba53586aa167U, 0x7f446abc9a89b98bU, 0x6b8b8970715671b5U, 0x8588917bb3638c67U,
  0x8f81907f5d929184U, 0x74767d8d85949999U, 0x49b06fa48a6c6e92U, 0x71a87a45af82a9a7U,
  0x8e938aa8a5777e76U, 0x8a948599a182867bU, 0x844961968d62939fU, 0x6d82906b95976b9fU,
  0xa1b99cb38fa6659cU, 0x94a96e6b8dac6f9eU, 0xa07e88997ec1799dU, 0x7277729c85a9847eU,
  0xb4a37f996c6ca29bU, 0x5da377b2969b6884U, 0x865e776c6893a191U, 0x956eae7c8085917aU,
  0x759eae5ba6649496U, 0x7a8b7e6579726199U, 0x7f6c649f9d9a7b9dU, 0x6089936764b0779fU,
  0x69768a768b6d7b9fU, 0x768834a8707fa687U, 0x90859f8783b6615fU, 0x6571889588b183bfU,
  0x7d7c9a7a66646c88U, 0x8275655d91806b9aU, 0x8891e052a778657aU, 0x8c4bb65796a28562U,
  0x6e4db5a08a609599U, 0x8d7d8d9d74697e6fU, 0x86857f7a748a9a7fU, 0xa96c5aa07f7a6c71U,
  0x46a2949b65849c78U, 0xa5839a6557a973a7U, 0x78ab9a91a1777665U, 0x8eab676a55aea9bdU,
  0x749e8b815d5270a0U, 0x9b8e7d8a72719d9dU, 0x8f86685c6795aa91U, 0x84d0974f60728f90U,
  0x8e8e686caaa0a698U, 0x868db19277927169U, 0x738a976b8a648a67U, 0x837b768281977b90U,
  0x6f53756c6d8a74b3U, 0x4b7e6792a3887786U, 0x677881536048b290U, 0x5f8ba0aa716c9398U,
  0x70b0777da5739ba7U, 0x8968689b917b7b74U, 0x319973a4a5657682U, 0xa7cd7391998f7b83U,
  0x7d7cb264765f9455U, 0x42928a838b899562U, 0x8482869b896f9b8bU, 0x819f8b7e81987992U,
  0x7a4b87a17c929488U, 0x8d5e7f746a9aaf89U, 0x6bb9b16a98919095U, 0x999197859479c098U,
  0x66897e80729b749cU, 0x719b89a19483716bU, 0x97af798da269a374U, 0x609b7f69a18ca2a9U,
  0x71636cb1a561ae7dU, 0x697985736ea27297U, 0x9e8570a16e868474U, 0x916ac17275a29282U,
  0x6189a080946e85a4U, 0x8c8d499c88ab787aU, 0x93696ca6a29176a4U, 0x4e82826a7c87a680U,
  0x8c5f866f98919981U, 0x7772ba8fb068b9a4U, 0x72be8a698378635aU, 0x5b98914a7b836fb7U,
  0x796a74908d7b81a2U, 0x778c7f9a967d9672U, 0x70c8aa91a27564b0U, 0x8a729b5db288ae6bU,
  0x83a87880a1895765U, 0x8172c8d9a59fab87U, 0x7f7f6ca35cbb9073U, 0x7474bb77ad688971U,
  0x827d94729a769195U, 0x85857c7c86a0ae90U, 0x69c270a48e927a7cU, 0x6fc46c985767b63dU,
  0x63947b976b999897U, 0x688d717c4a745165U, 0x744f838e7d7d7185U, 0x7d8cb0746e8a63a2U,
  0x49a59498b06c6271U, 0xefb788a86c966c58U, 0x8376b58c646bc09bU, 0x6b6f7fa16088837eU,
  0x838b79816f7e7068U, 0x969562a3608f8857U, 0xb1a98477726691a0U, 0xa28d62237e6e715dU,
  0x8f7d6fada1a55d7eU, 0xaaa178a555c7a9b6U, 0x94827f765ca58aa6U, 0x9b8aa47066677a9aU,
  0x9f4e87be6e82968eU, 0x7779b19b669b739aU, 0x94737fa07687b76cU, 0x888e7e658881779fU,
  0xa55e88817cad9772U, 0x6265616f918d787bU, 0x6baec1726e806f7bU, 0x735dbd42a38e8770U,
  0x7a8d908fac6b7977U, 0x689981986f6fa871U, 0x73869383a09677abU, 0x68797c7b688f6c85U,
  0x52a9876662615672U, 0x7f6b9d487aa66257U, 0x9575a8858e3c94acU, 0x756f5e857b936b76U,
  0x6f88937f68817e5fU, 0x779d6c7f639d6080U, 0x989b757880648888U, 0xa4b7a6a9a3766993U,
  0x89aba4735667a2b8U, 0xbb9a7990b28e6c4eU, 0x97756f9f6fa17c61U, 0x5d767ca4757d9358U,
  0x6893b68d55938081U, 0xbf5782b5858c6381U, 0x4e85798699a39956U, 0x758887678486b252U,
  0x867a8d5c90908470U, 0x816e857687617d8eU, 0xb0509953767865a0U, 0x9b5f9d58888e8257U,
  0x7d6c80867da78290U, 0x906f8e6e487f89b1U, 0x978d92758e9a876dU, 0x7497a35776409c7aU,
  0x7c607b48c75b7759U, 0x928eb29499ac6f66U, 0x6c73745f85678c62U, 0x5e6f89a2706a6c62U,
  0x84735e9e7aa39074U, 0x8788746b9c997861U, 0x866b979f5da26890U, 0x9f7d599ca47b865eU,
  0x968d6fa0549e7a78U, 0x867a859b62a35d67U, 0x9ab0955e81968b7bU, 0x9d84885b7082a28aU,
  0x94489691779c888cU, 0x7a32b0839d894576U, 0xa67585897f708680U, 0x917a9baca282ad4aU,
  0x817a7f909e91776cU, 0x6d8e86768b776671U, 0x98ac737f86a59f88U, 0x417ba3b986819697U,
  0x8d88795d6f7a715cU, 0x586665637b7d8f68U, 0x783c7c9c83af8d6dU, 0x9c696f7684a25a7bU,
  0x989b59ad7c9d7a8cU, 0xc24f7cb4847a8f9eU, 0x7d975789a29c6d78U, 0x7e7d9a7f76b39ca1U,
  0x8686808877907793U, 0x7c89a995787c8c78U, 0x989b9660b2737d8eU, 0xa594d2a76a8a6eb0U,
  0xa162868160aa8989U, 0x758e73a08c7c65b0U, 0x8a8f9b968f8c76a2U, 0x7ba28e76aaa88765U,
  0x3f98bb706d808c8cU, 0x7c99b18e796d877dU, 0x859365baa891ac73U, 0xb76fab7573a2b37cU,
  0x7c957572ae96836cU, 0x8ca6b96d9d7a9d81U, 0xa6827d8989909f74U, 0xc52ccda38f7f548eU,
  0x967e86698d8198a4U, 0x8366738b9a686f67U, 0x889d8f756086746aU, 0x929e7c8f9f998d8dU,
  0x8a69a6a48b96a085U, 0x4d7b95948b94aa79U, 0x66a281c1745c50a2U, 0x6e8b649a7da17b68U,
  0x80a09a7b726f8e75U, 0x958fac97988f8d7dU, 0x5660a68a8a7b786cU, 0xb48a61839880af91U,
  0x8f798a718a8560a1U, 0x6182987388874d6eU, 0x6fc6818471888fa1U, 0x8aaf6798966a939cU,
  0xa65c85aa93a861a2U, 0x74875998577ea9a3U, 0x9b5c837a78465da2U, 0x98888c817c99987aU,
  0x9a998b7d767c8479U, 0xa9926b7ea3899070U, 0x967f5caf798f8878U, 0xa0ff573f5a8a757aU,
  0x829b7ea982939067U, 0x9c807b82b07c9a82U, 0x71809b8460618a9aU, 0x868d8b6d6f9c7288U,
  0x8c7b628a8d8091a5U, 0xe0c3bbb4878c5781U, 0x8278866092a19a7dU, 0x887764749f59a69dU,
  0x978a8784a0867e7bU, 0x758a6d79a695628dU, 0xc3a472b969738487U, 0x535961966d787d58U,
  0xaf79785f8ab9ac91U, 0x99958c72748b63a1U, 0x777b947da2a26640U, 0x9981bb7f81866b6dU,
  0x4e769982878e7d77U, 0x7bcdce856895785dU, 0x3c557a8952b5807bU, 0x787b7c75898f7e4eU,
  0xa68f769f9c60809cU, 0x857b757c87759f83U, 0x8da1b689838c9b6bU, 0x7ab62961a765917cU,
  0x93886da394867c96U, 0x87869e8dbecc7b8cU, 0x7668a9807e8c8d8cU, 0x8e747d837f7e8788U,
  0x7b6db5799898657cU, 0x75b4957b669f94b5U, 0x5b78635b8f6f36b5U, 0x8c526879a27c8194U,
  0xa99b86987c6090a5U, 0x7080a1868ca46583U, 0x83854dca77947683U, 0xc7e87a96ba7d6e6cU,
  0x6c7a4f838077c0adU, 0x7177897d95737e5aU, 0x8197978278ae8f68U, 0x8b9f7a9084a37f85U,
  0x808f67a489767b5fU, 0x3ab3768c74749d81U, 0xa0ab8a9c8967817cU, 0x8b808a9c87438594U,
  0x868e8665898d9f93U, 0x65868a806d718275U, 0x88918b9c7b8098acU, 0x5fa29678a89f99abU,
  0x578b7484bbb06757U, 0xa299b07a816a6a94U, 0x5c9a639f9da96e7aU, 0x9d887e6d7896a774U,
  0x8d6da4ad5c649485U, 0x6b9ab8907a7dbf8cU, 0xb14a895ea768c183U, 0x8b7a8762aa788364U,
  0x877373718ea1947fU, 0x858e6da6606d996fU, 0x8e75863b8d7fa681U, 0x4dcc8f9f8c818268U,
  0x47768a81864d516dU, 0x7d7b849b6b866e63U, 0x8b8898816e7a8b70U, 0x898171816c917e89U,
  0x857bb47b839f829eU, 0x9dbba1a48291a75bU, 0x2d998f7e91be933cU, 0xb1899e9a645b812cU,
  0x856476738e65856eU, 0x7c99a0928b6da58fU, 0x88b55c9d827596a4U, 0x7a9ab89d7a9963b0U,
  0x5d9c8871857f7995U, 0x8a6b5d8c9a76857bU, 0xa1606b6872a97da6U, 0x61a291868d666c99U,
  0x5c99b57467985f9aU, 0x807947996e958496U, 0x9a6869616b7c5a64U, 0x809870726e7c95aeU,
  0x9aa16f9a87658b90U, 0x656680887b837b91U, 0x83b2726f5a8e8f7dU, 0x6b9a738493a154a4U,
  0xa07a7f859250a96fU, 0x8988a47fa7609357U, 0x97839f955f7f8a9bU, 0x717e696d64ae6e7fU,
  0x8599a0b68aa5917cU, 0xc775ca4f7a915980U, 0xaa72948c937c5d95U, 0x97878e7ea4a68195U,
  0x8072937c858e8279U, 0x7a83837e8ca18e98U, 0x7d6481a98f736690U, 0x8c8d5741887c929bU,
  0x75a7907a90789a74U, 0x8287997196938f84U, 0x70697495838daa6bU, 0x6c9067798f9ba55fU,
  0xaaa85a509b5da38dU, 0x958c9f18816e969dU, 0xa1639471637d9591U, 0x77868e767aa75b5aU,
  0x7b9a92615e9b72a6U, 0x9a6a8b748a9b7b91U, 0x65747d8c726ca6aaU, 0x70822e9367869683U,
  0x567d8f9f7494568bU, 0x66805e74548b84b1U, 0xa06295b0a48e7c67U, 0x64558b889a5c7878U,
  0x9695a7cc8584818cU, 0x89b471799077936eU, 0x9a95b69c844a6a6eU, 0x958fa8639f8e978aU,
  0x6d7b5a8a95a18e91U, 0x948c7a8e728e867dU, 0xb7836a5c8c697964U, 0x825e93919a759a9bU,
  0x738578bd6bc55695U, 0x7f8364a7569b6fb1U, 0x6f9b729ca1a36790U, 0x7683d175a972a371U,
  0x648367768b6b7177U, 0x97b9465d9b5d6294U, 0x6e886d558a78896bU, 0x987e9b5f9b83668bU,
  0x716d907d8770808cU, 0xac6da29a7090606bU, 0x745c6959688c7183U, 0xa798b2654e5f7a8fU,
  0x6d788980975e9f7dU, 0x9f62857ca5678772U, 0x8896996c69687b72U, 0x86746c9896bc758aU,
  0x757d876f598d7877U, 0x7a99c56daf716876U, 0xa1939667a6705997U, 0x83918f8574619a91U,
  0x9f97747d92909b83U, 0x82625f85a57e9573U, 0x926f96bb8e9b729bU, 0x8acd3b9976708e90U,
  0x767e608b628b9887U, 0x6b9c8c92bb89926dU, 0x8991a57a9b8f7986U, 0x76867d7073749275U,
  0xb19d7eac7564898eU, 0x757939c67c778164U, 0xa5955f8b8f7e8778U, 0xa588617bb26e8a76U,
  0x94a480988f8f7479U, 0x868899736e7d9d9dU, 0x5a6950716fa67a8bU, 0xa1dc8361a381688aU,
  0x9f609496c2486a6fU, 0x836257717b887b6dU, 0x8f8376706c629b7dU, 0x799985836b786384U,
  0x93b5908f66878b81U, 0x39b58e78817dbda2U, 0x8c4a62b370cab86aU, 0x5e9db172aaa87766U,
  0x548c99806e9b6d88U, 0xa188a39a736b7d86U, 0x7363a0cb916d918fU, 0x6c354f50667f72adU,
  0x675b84a0b1a6b498U, 0x9784848c7d8b8184U, 0x708f858277989492U, 0x8c8a638d887ba379U,
  0x8b6eab6d7e6d857eU, 0xa299b66da1af5f8eU, 0x94789c7a72a69598U, 0x969a938e9f8f9371U,
  0x618198738e658660U, 0x9a8e8e968567819dU, 0xaab17e7f9d9b979aU, 0x8c7f74bdab695e70U,
  0x5d797d83716c728fU, 0x83a46697b4747da9U, 0x878a8a9a517e82a7U, 0x6f6f5395905d7976U,
  0x5ca33ead5c849783U, 0x7cba99848e96bc70U, 0xb353a3a3bc7b7187U, 0x8b6dab89a66f93a7U,
  0xa99a6274b5a37d90U, 0x8167a0a66b817e8aU, 0xaa83c2709170689cU, 0xb83a7481858dbb88U,
  0x5d956a83a55e6eafU, 0x757b6b90a0807065U, 0x967f9b85a1ae736aU, 0x7c90a08777999d7cU,
  0x9d5f99777a676181U, 0x84a0b7779272c27aU, 0xa592829c669da55cU, 0xa77b6692a1747a79U,
  0x969d889995738f86U, 0x8767967f61867d7bU, 0x9fb9a57472a29b8dU, 0x6b7c654e6e6ea58fU,
  0x569e8574a77e989cU, 0x7f76837b7d6a90acU, 0x83b388ab5b8b95b6U, 0xa89878867e9b988aU,
  0xb26680ae9faaae71U, 0x7a705eb1778f506bU, 0x5a7d9a697f985b93U, 0x849b717f89a4a46bU,
  0x8482b98491b49772U, 0x6e646f917672717dU, 0xc7aaab8d817f698cU, 0x9958545b846b738cU,
  0x85604ca5827d6b82U, 0x81928d91919e8777U, 0x737daf9363a371a6U, 0x967a9f7da2806992U,
  0x7169749b7c9f6e70U, 0x797fa2bb7faa9784U, 0x78a1758f9b929890U, 0x6387a5737c9ba9a9U,
  0x6480959d68686f6aU, 0x768d6b73848898abU, 0x684567bb8c7e924fU, 0x5d973eac90a67471U,
  0x6eb4a488c17f8997U, 0x677c828861aea685U, 0x7f897f7e84857266U, 0xa977948a8d7c8f84U,
  0x9a899982ae817188U, 0xa9934d7276835b9fU, 0x917c6954995d8969U, 0x8a9374638e6b8a5bU,
  0x90758a8f9ba699b2U, 0x54868f959284987eU, 0x8b84bec36b7869adU, 0x64803b7f7c797574U,
  0x5b77766b86746882U, 0x6c92738ec0bb68a9U, 0x8c5f8c8b769b839dU, 0x786e987595768078U,
  0x9e4ca266628a9d6fU, 0x8496737da3987697U, 0x8f62642e8f8d3e95U, 0x7b63ae89769b678dU,
  0x9e7b647fb3708a66U, 0x9380875f77908972U, 0x8c60828a7c5c658cU, 0xa1ccb45673a88086U,
  0xb48f5c995d8bb19fU, 0x847e949da77e936fU, 0x7da095916f8f7ab3U, 0x886e6c53a172617eU,
  0x748b576e7c9a6f88U, 0x7dfabbaa8076b971U, 0x7782a2b57b87ab88U, 0x7d888f7d577676afU,
  0x6c58819c809f728fU, 0x8e7f649071746884U, 0x794b5b74a6885d67U, 0x90aa9f516b718299U,
  0x899085968f7e9d90U, 0x68736d8d5aa38a9dU, 0x5777a9929d5c8293U, 0x72709f8897a0a287U,
  0xad8955aeb0986f5dU, 0xc39664d77f6c608fU, 0x5a5e638587a36a8aU, 0x839da56c63517582U,
  0x8dae96605c767e9bU, 0x7763a5728e6da38dU, 0xca97a5aca38e7565U, 0x31779272aa8ca948U,
  0x77c29596a5ab9f71U, 0x79b875459baf5d61U, 0xa5919a807e828066U, 0x8c93888b83b2878aU,
  0x47863f9b5a95698bU, 0x3ec1907395a8a19eU, 0x6e7ca6b07e545b79U, 0x7c936d6f90738eaeU,
  0x6d628e745da77a9aU, 0x9e69888785777271U, 0xba76ce5987959f7dU, 0x6c47ca91707981aaU,
  0x8193718d8f9f9277U, 0x82a5a6747e8fa15fU, 0x617d9b926c9597adU, 0x85878768798b8298U,
  0xa4a53f46a2965d7fU, 0x5f8dc98d7a838893U, 0xb59a7061af7c66a8U, 0x708679707a6e77b0U,
  0x9ba39d8968777387U, 0x8fa9a58fad818e94U, 0x6e9a514e7483a99aU, 0x8edbb21890908561U,
  0x74ae70616c5d4e85U, 0x87897f6b9e96915fU, 0x85a98c7464815f9aU, 0x8e8b957175828e9bU,
  0x7a73ac65896ea085U, 0xa18743d29281b684U, 0x90a2877fa4b8aa6cU, 0x9b8ab2805f65b38aU,
  0x9b7f958c9c8d938bU, 0x959b998683947594U, 0x728354ad84948273U, 0xbb9c806568a5b59cU,
  0x8b687a6e87916097U, 0x6d95c2805ba75f80U, 0x6fa79097bb938088U, 0x7d8c777a7f59a0a4U,
  0x788a816f7d9f7094U, 0x6ba1c8388b9f677bU, 0x705d5d775da56672U, 0xa79d6175938a95a4U,
  0x7a916b93989886a1U, 0x8b7f9d9989896a86U, 0xbeae44475e69944cU, 0x5ea1baaa96858070U,
  0x72a68478715939a7U, 0x6a7ea1aa6fa6b7b7U, 0x88af888b9f8985a6U, 0x82786e79879b797fU,
  0x5e9da74a7594918fU, 0x87b95d799b7b3c57U, 0x749b6b6181b8b68dU, 0x9365bd7e5a6f6673U,
  0x8a9078908e5a865dU, 0x9789839e87798582U, 0x78636e47a46b96acU, 0xbc468a90827a7b97U,
  0x5a7fa2a6c0695f5eU, 0x7c9fa2735b4b9279U, 0x635d5c717b977968U, 0x817aa57482649173U,
  0xa5ae725f6e758b89U, 0x76c638837c6c90adU, 0x8a7ea48095929574U, 0x8f726d9e52558aa2U,
  0x6da585908a788a60U, 0x86849a8591af8886U, 0xae8d74b7959c7489U, 0xa5394d7c9f96a27dU,
  0xa98b64929e799dbcU, 0x6ba8b29b80808d77U, 0x9782a7a18aac9188U, 0x91977a707e8a7c99U,
  0x65a79c5f8a94877cU, 0x9caf737b99a55c87U, 0x7988a1a87f898c67U, 0x7a8c8577a2a16b8fU,
  0x6f6a7c8c81666d7cU, 0x888265648b478784U, 0x9363849698858a7dU, 0x7877697b9885b2aeU,
  0x8d56ac7aaf745491U, 0x8c6b6e7b9d8d9664U, 0x8f9993819f7579a8U, 0x8fbb9f946976647fU,
  0xa09e2d616491968cU, 0x61ed92768c9a5795U, 0x5da1976c75779299U, 0x9b9a9e8f627a994dU,
  0x6764957e7d808f64U, 0x878a77956c546c6dU, 0x58ab68659f768685U, 0x7b928b7478969f76U,
  0xac6b738b776ca9a4U, 0x84ae716893719cabU, 0x719aa68385955a8cU, 0x687e61aa70696f5fU,
  0x7f9d9a7047a9adb3U, 0x9c423aa390958f83U, 0x8b69756f93b18f98U, 0x9a74975590619d76U,
  0x8b8f7a888e636e70U, 0x6e9395669875909aU, 0x807a61808e90966dU, 0xa8adbc7f60696baaU,
  0x6678805b9ca7b584U, 0x8fa97989958cae75U, 0x8d5b65a3a18d8172U, 0xa66b90a276926f75U,
  0x40b169a9a0a07f81U, 0x9cda6890977a63b7U, 0x9c845f7a77778361U, 0x718e936874857485U,
  0x8899a8a6964f947fU, 0x9965a88e95947f68U, 0xc59ca34a7f947c6fU, 0x9a57ae45799ba7bfU,
  0x62865aaf50675e73U, 0xb082727095787861U, 0x896e988c6da183b2U, 0x77809f7d9a8a7686U,
  0x7474af655e7e6da6U, 0x6a4743807b9da489U, 0xa88d957a9b6b8381U, 0x6f599c638e589c7bU,
  0x8a62aa9095a8858aU, 0x66718b6b69888774U, 0x9073906881a26296U, 0xd0bfac859d9829a7U,
  0x607d52668c966080U, 0x628d876cad629096U, 0x96764b9753995aa7U, 0xa08e8c6a8b928c6bU,
  0x7c797da68486747fU, 0x8588399c958e6968U, 0x905d73616b609c9cU, 0x9a76a2a78482686bU,
  0x8e99837c8470889bU, 0x70739a6470856d84U, 0x5ba0948b69729a7aU, 0xae816fb295935d5bU,
  0x70a5a5838c7d8080U, 0x8391737da9666fa0U, 0x759e846e667d978cU, 0x7c5b84a6a0a455a1U,
  0x9c6d7eb6799f93a2U, 0x9b76539262749d95U, 0x69a889795a8e7796U, 0x7d695f78a48d719eU,
  0x90645e6f6da69c86U, 0xb4648097807d7385U, 0x7d7e92986194a88eU, 0x47913e889782b867U,
  0x877771529c607186U, 0x959370aaa7539097U, 0x736c5d9679807465U, 0x7a93887d7f81769fU,
  0x6978aaa578868677U, 0x937552b482855e59U, 0x83876c747c6e9b9dU, 0x636f6f8f5b73637fU,
  0x966a7f8f69ae7ba4U, 0x7d6aa78b758d7e6bU, 0x9470b55a81947a91U, 0x5b5e868aa294b0a9U,
  0x8f526b5c7371519aU, 0xaea095a164615a6bU, 0x5988908da28b6a6dU, 0x8d8d90746b5d857bU,
  0x9587acb474a38f6fU, 0xc31b79ac8c955c8eU, 0x809a6f5c8a709a85U, 0x8f88817cb8ae9598U,
  0x7b7094937472956eU, 0x9b8171897a956d8bU, 0x9c99c448878f706dU, 0xbc44b14473766083U,
  0x75aa99a19a50563cU, 0x84707b6380627762U, 0x6a997e937682706cU, 0x7a9b966c938f7992U,
  0xa47bbe9c9776b286U, 0xb08e628d7f74c584U, 0x93446d845e717393U, 0x83826095c1dc7a88U,
  0x867d667e6b90915bU, 0x986485938c7f8774U, 0xc62e77949b7c8f66U, 0x4b8c8636799ca64fU,
  0xa38c80906f6a678cU, 0x786f5ca1a7b68885U, 0x8a95937f7888877fU, 0x5f7e73879c85a3a0U,
  0x8c7c84b36a7680a7U, 0x7c80724f9f97629bU, 0x916594a28faba49aU, 0x9f5d91a1a2688b7bU,
  0x66927b7a826c9e7bU, 0x7e6f6b8c825b7ea7U, 0x59759fc1a2936a8aU, 0x519b659a77738bb1U,
  0x7573adb376b78e99U, 0x7d9274754e549873U, 0x7554839c778b9b9aU, 0x958e9492818e6f92U,
  0x8762a78287966e77U, 0x50d7d0817fa6825fU, 0x726e896b6b96aa9eU, 0x69a3897b81a1a77aU,
  0x87859c715f7b938dU, 0x7c716c6780898b83U, 0x69a19380948a8b85U, 0xaa709d4e865c5b6eU,
  0x88706d909b997879U, 0x6491628564996499U, 0x929871ae6882ab6bU, 0x897f7367a09d708fU,
  0xacbaafa0ad987494U, 0x4f1841659d95ba89U, 0x80576b9e7d858c7aU, 0x5a8472a3a5b18174U,
  0x847e5b716fb06c85U, 0x75778d808d97817eU, 0x7a94bba8877a9596U, 0x6c355b79656f7e7aU,
  0x839a9ebf7a809f9dU, 0x8a7faf7d817d7c62U, 0x66686e648a9d799dU, 0x7a7c8b888974a09fU,
  0x865da15ea8a897a2U, 0x897e8f5d95749a8fU, 0x67865e688382927aU, 0x696c939398556c5dU,
  0x8193767485a87f82U, 0x9364a1695f5a9e97U, 0x5c93ab9b886f968fU, 0x8c6aa6809896738aU,
  0xa27db273b8ab8986U, 0xa4876a6473818c92U, 0x77907aa297627c9aU, 0x9aa3978c88648179U,
  0x9683927c59967b5bU, 0xdb4aa79d8372715fU, 0xa45c9bb28f999f71U, 0xa09495a765677da8U,
  0x8a868179a4709a97U, 0x9b746f7779967a67U, 0x66b874ab866b9c9eU, 0xba75446ab5936465U,
  0x9770719563a4805fU, 0x9891697db57d966eU, 0x6d845e759fa0868cU, 0x807f8f8a85828b5eU,
  0x8d949b6c8574918fU, 0x9f7eaaaea394569cU, 0xa089a97aa2bc5d7fU, 0xa4967b6d808f5160U,
  0x8d7aa46c82867455U, 0x9b8d71a36e8d6a6dU, 0x839c9f69a1986c5cU, 0xa19b8a718d7fb37cU,
  0x8fa4b88c9ca19a8eU, 0x76828d70a5718c81U, 0x8183697b858e8d8bU, 0x83685f7671909670U,
  0xb182805c56646168U, 0x7d8fcec576885f98U, 0x8681647fa593728bU, 0x8e84919495a57da9U,
  0x96879b8b958e8f84U, 0x858291857a6e747cU, 0x60587b34679f7376U, 0x7271aa5a8491689bU,
  0x9479615e879c7aa3U, 0xa3919f6d8d7d8291U, 0x8d715684a7a07e48U, 0x89739e83904c8b73U,
  0x9dc381ba9aa6ae8bU, 0xb4af40ab7b705e7eU, 0x95a6848f86716c8bU, 0x9f5a7575708f995eU,
  0x8593927f776d7d7eU, 0x789d736e8caa9d89U, 0x917a4b9c689265a6U, 0x794a3d868276a4b1U,
  0x53a399a0828c8362U, 0x657f7badb89ca35dU, 0x9c6b90886f7b9294U, 0x9a7b707f88868d6aU,
  0x7d9ab6786c8b8277U, 0x926bb9a49285828eU, 0x779c9c6c9f5fa2a7U, 0x8e75768f8c92abafU,
  0x9a9177756e709279U, 0x6a649e737aa99c79U, 0x5e67ab757e6a7579U, 0x7d63669671945d61U,
  0x9e73bdc39d685893U, 0x96949c7c8273847dU, 0x70a55572b1576c88U, 0x9f768e978d7b9666U,
  0x9587a98686809971U, 0x79c1a8b7a3725083U, 0x7d9c7d8c74896b70U, 0x729eb2987d9993b2U,
  0x9767778a6c917b88U, 0x78739a658f77798fU, 0x9d725dd09c975d6bU, 0x88a4374a7676816cU,
  0x7d72978d648ea192U, 0x968598777d6e8a8bU, 0x8581749772aa6e81U, 0x968883909d7a6889U,
  0x60776e9e6a99a15fU, 0xdf85b077767b37a4U, 0x9d6abac1a08e8752U, 0x939e8a7b8393ab7fU,
  0x7e938489827a8684U, 0x88807d848770695dU, 0x518e71959f84757eU, 0x7bc843819b97a892U,
  0xa77883945e7f7b9bU, 0x8976a695708a8871U, 0x7a895c819b60706fU, 0x859099a780799c8eU,
  0xa0957c5daa738778U, 0x937d55a9969d8552U, 0x677db36ab478a290U, 0x6768518f93695386U,
  0x9a82707e94ac9180U, 0x8085839860af5981U, 0x81839e57736b7885U, 0x9f76b2497e869b87U,
  0x709e84947b7f96b1U, 0x628792a374717da9U, 0x8c89779287867c7fU, 0x9c97647d925b646dU,
  0x6d97aec581849c5cU, 0x205379ad707a9eabU, 0x95ac88ae3b8592a9U, 0x6982b28d856e6eb1U,
  0x8386629c7e81767dU, 0x776b8a70728c8b8fU, 0x627f649694748e6bU, 0x5c63a8739075b259U,
  0xa38d629d638052c4U, 0x7e7c6c498e8ea499U, 0x55789b9d84907479U, 0x8a69a39081669881U,
  0x7b856a797e9f7d7bU, 0x759e27cd91a18a84U, 0x637e78607899829dU, 0x8a7d7c5249635cb3U,
  0x8d7f8c8058959582U, 0x85937a806b778e95U, 0x8b7a62918a65a56dU, 0xa75c2b9176655d97U,
  0x61789d9da4619271U, 0x9182aa74737f996eU, 0x7d74666578948b60U, 0xa285569698ab8798U,
  0x8c66817d707477acU, 0x7fa24da479906778U, 0x7f7dab6eb17e8b8fU, 0xad98ae79ac488866U,
  0x9681976b8d6e9e4fU, 0x867d856581a59a8aU, 0x53a7a37a8094a883U, 0xb45e3c65757b796aU,
  0x92685481918b7464U, 0x60997d977d885d76U, 0x767d6c9672856a77U, 0x9290a7769a838685U,
  0xa3716ea39997946bU, 0xb5a2664f67813f80U, 0x8287998897877986U, 0x6c7f7c8480aa976dU,
  0x78aa9395689b6e74U, 0x979b9f90675ea67fU, 0x776aaace916d9468U, 0x7c8f676978a88f60U,
  0x4ab360919f9e60bbU, 0x96a55476518092a7U, 0x5f696fa589ae5195U, 0x8281944c96797da4U,
  0x6d6f9677967e885dU, 0x96bd3d7e74a186a6U, 0x9c8f8198565da47dU, 0x6f88817fae8a6b9bU,
  0x777b6aa2b0ac8490U, 0x817d737ba375816bU, 0x90794868798e906eU, 0x7ea9a0549b7b7c89U,
  0x8f8462a379629f71U, 0x687b7575ab987187U, 0x8f7e85768a928cbbU, 0xa16f8a7b9c8a6285U,
  0x68a9ab5c6971736cU, 0x786e948a8b67a591U, 0x556c7c948470b86eU, 0x846c756c82615d89U,
  0xa57fa18e8a9c7c83U, 0xa47c6aa0729b6670U, 0x9888807b71aa8c7dU, 0xa13939979b90a580U,
  0x97997b69799aa086U, 0x8084ba6aaca5ae60U, 0x919093688e937a8eU, 0x8b8b82887b9d745aU,
  0x5827bf89776f7e95U, 0x7433a86290983664U, 0xafaa9cae90836980U, 0x6b8fa7846b848a74U,
  0x9a9d6b7a7f669bbbU, 0x767f858e876a9983U, 0x8248889e847988b9U, 0xa370474982924779U,
  0x776c7a9c728e606cU, 0x997d907cad7f67b2U, 0x5f5f8a93787a7ba8U, 0x8774a37077769c9dU,
  0xbe45b2657281865aU, 0xbd4f09403e11ec0cU, 0x3dde29533dc58b50U, 0x3e2e56003e434df2U,
  0xbd4711f43dd375a1U, 0x3e4db2ffbe365f8aU, 0x3e002dfdbe279a9cU, 0x3e239f083e1e2ec2U,
  0x3e075d7d3bfd9b02U, 0x3e2674c5bddfafb9U, 0x3e087b3ebe2255e0U, 0x3deac0273e2256fcU,
  0x3d4f9839bafb3f9fU, 0x3e2e80c73e0a2034U, 0xbd8ac7cabd5af015U, 0x3dc50ebbbd8c4ae2U,
  0x3e202e053cdacf20U, 0x3e0012f33e00bd1cU, 0xbe1a0eda3e2b883aU, 0xbdd82d4dbd9e211eU,
  0x3e45ef523dd85049U, 0x3db9d33cbe3b4762U, 0x3ddeb74c3d7b0cc1U, 0x3e0ecf8a3e4a601fU,
  0xbdf3e0143e2f48d6U, 0x3d8dacfe3de6b82dU, 0xbe4f35debcf3d05fU, 0xbdfc44cf3cecf38eU,
  0x3dc6f9fb3dba185eU, 0xbd3b9c89ba96faebU, 0xbe13e0773df69963U, 0x3ce173ba3ddbb3a0U,
  0xbe4077183dddf7dcU, 0xbdf0a6293e03a36eU, 0xbe3796bf3e034b37U, 0x3d483d233d19d0eeU,
  0x3d9ddb90be2c116bU, 0x3e14fbcf3cb745ceU, 0x3e12db46be043281U, 0xbe505d283e257514U,
  0xbd860e5c3d1a0b97U, 0xbe05bdb13df92dc2U, 0x3e3e09fc3e19a0bdU, 0x3deb03f3bdb90902U,
  0xbe09757b3e07afcdU, 0xbe034d553e08d555U, 0x3e0a2e263e13fd61U, 0xbe167d8e3dade8e8U,
  0xbde18da8be12ec13U, 0xbdd96505bc0b5976U, 0x3e1829333da5fe96U, 0x3e09e90ebe078667U,
  0xbe1aca0fbdf55515U, 0x3e1880d23e172de9U, 0x3de2b5e63e0050e7U, 0x3da9cd23bc1ff4d0U,
  0xbdcfbf743c15ddf9U, 0x3e1d58ecbdab4d75U, 0x3e18c5b43e1786b6U, 0x3dfc4c663e1cd8f7U,
  0xbde176233e16f4f0U, 0x3e100bcb3e318439U, 0x3dcc8a313e09b09fU, 0xbdff4c463e1a5688U,
  0x3e08099b3e3449e1U, 0x3ddefab73e221126U, 0xbe3234513cc370c6U, 0x3e1465d63cfd6216U,
  0xbe3700cabde3c671U, 0x3e085119bdaa5b7bU, 0xbd9ab5bd3dbc11f3U, 0x3bf8b8cebd945067U,
  0x3d12bcb1bd29be9cU, 0xbe4520103e41219fU, 0x3e015f153de9b4f1U, 0xbc8170acbe3c5626U,
  0xbe2777703dab1925U, 0xbe190e0e3df717c3U, 0x3e284ab93e25176eU, 0xbe1112b83cc4387eU,
  0x3de215033e23797fU, 0x3e0b945c3e18f391U, 0xbd7523a7bd3eb754U, 0x3da1eb07be33801aU,
  0x3e1ceaeebcea92bbU, 0x3dd5a2823de2c642U, 0x3da324adbe15687dU, 0xbde708573e18df65U,
  0x3df0dbc7bc9522cbU, 0xbd1773963e03003eU, 0x3dda2c5cbcb7dc94U, 0xbe145c923d9e53baU,
  0x3e10d4c03e3f4f33U, 0x3baf37c0be10e094U, 0xbd0802493d96460cU, 0xbdea6203bd8e5fddU,
  0x3dcc2dfe3e36b0d9U, 0x3c31b8ba3db16f42U, 0xbdfeb9efbe1576f0U, 0x3e0f5d13bdfd4c1dU,
  0xbe45b0c0be146983U, 0xbe1632923daeb628U, 0xbcd903c13d88f5a2U, 0xbdca38613dcaa20dU,
  0xbc84105fbd361087U, 0x3e0e81f73e12cd78U, 0xbe0022653c7e6e49U, 0xbe1b11403dded6deU,
  0xbdc3b15bba578c69U, 0x3e1d10ac3db8183bU, 0xbdc5ab87be2e9edaU, 0x3cf11cd53e20ffe7U,
  0x3e24de91be1c63c3U, 0xbe12b9133e09234fU, 0x3e0ec3503d87a418U, 0x3d60ea3d3e04afb5U,
  0x3df893c8bc9f9787U, 0x3df77362be173debU, 0x3e232be5bde4fd9bU, 0xbe3eb3543d3fa573U,
  0x3d21f55a3dadcff5U, 0xbe1daef43e31a6feU, 0xbdaa11fdbcf78dbdU, 0x3e0bd4803e18b3baU,
  0x3e17005cbd2e0afdU, 0xbdf185063d917a83U, 0x3de51abf3e07d8f1U, 0x3d6a6241be0ad0f9U,
  0xbeae78503e129e0fU, 0xbeabf323bead51ddU, 0xbea935b0beaa946aU, 0xbea6783ebea835d2U,
  0xbea3bacbbea51984U, 0xbea0fd58bea25c11U, 0xbe9ddbe3be9f9e9eU, 0xbe9b8272be9ce12cU,
  0xbe98c4ffbe9a26d8U, 0xbe9674e4be96e55eU, 0xbe934a1abe94a8d3U, 0xbe904654be91eb60U,
  0xbe8e4d6ebe8ebae5U, 0xbe8b7421be8c707bU, 0xbe87f132be891b16U, 0xbe85c035be86f595U,
  0xbe82931fbe840e96U, 0xbe805021be81b4c3U, 0xbe7a94e1be7cf042U, 0xbe74c451be7704d9U,
  0xbe6f9a50be72a1aeU, 0xbe6a1a5ebe6cbda5U, 0xbe6558c1be680a2dU, 0xbe5ff637be63576fU,
  0xbe59f9f4be5c9894U, 0xbe54dca8be57a84dU, 0xbe4e7f5fbe520403U, 0xbe499dcabe4c4d94U,
  0xbe43be2dbe466800U, 0xbe3eb9b2be411587U, 0xbe38dbe7be3bd20dU, 0xbe337784be365a0cU,
  0xbe2d38d4be30d0b0U, 0xbe279f42be2a49e6U, 0xbe22ba09be253ce4U, 0xbe1d8769be1ff936U,
  0xbe179dc5be1ab9a6U, 0xbe12a08ebe1500c2U, 0xbe0d198dbe0fd038U, 0xbe07590ebe0a5105U,
  0xbe020ddcbe04ac52U, 0xbdf9b32fbdfee5f0U, 0xbdef63cabdf4b1dcU, 0xbde34f53bde91ff9U,
  0xbdd7c9d3bddd5874U, 0xbdcd901abdd2a534U, 0xbdc31f31bdc8b382U, 0xbdb78d4ebdbd92b0U,
  0xbdac2cbebdb1e145U, 0xbda1467dbda6bb4bU, 0xbd964a56bd9b5b56U, 0xbd8b734fbd90c383U,
  0xbd7fd56fbd85d59bU, 0xbd6af664bd750df5U, 0xbd555458bd5fcd21U, 0xbd4027dabd4adb8bU,
  0xbd299e74bd34ab12U, 0xbd1345a6bd1e61d8U, 0xbcfb2360bd089b7eU, 0xbcd07005bce5b2a8U,
  0xbca52429bcba71baU, 0xbc74eddfbc903027U, 0xbc1c67c1bc47e70cU, 0xbb851226bbe19e8cU,
  0x3abcec38baa6331eU, 0x3bda06603b802ec3U, 0x3c4558983c19cb4fU, 0x3c8d3d5d3c6fce82U,
  0x3cb971b93ca2d6edU, 0x3ce68cfa3ccf83ffU, 0x3d08a0ce3cfc81ffU, 0x3d1dba013d12f523U,
  0x3d34232a3d28b535U, 0x3d4ac47c3d3fb895U, 0x3d604e2a3d55af14U, 0x3d76ee553d6b6b0aU,
  0x3d8642353d80de0aU, 0x3d910fc53d8ba7e0U, 0x3d9bd2b13d9683f5U, 0x3da76e0b3da16c46U,
  0x3db2e48d3dad7d29U, 0x3dbd87eb3db81477U, 0x3dc83c5c3dc2edb5U, 0x3dd2cc933dcd6c23U,
  0x3ddd51e13dd84e3eU, 0x3de8a5cb3de2bda0U, 0x3df3ccbd3dee63c4U, 0x3dff0c583df97b02U,
  0x3e050fa63e025d98U, 0x3e09d1003e0749dcU, 0x3e0f4ef93e0c8739U, 0x3e1537663e1235ecU,
  0x3e1addeb3e1815feU, 0x3e200d463e1d69fbU, 0x3e2618133e230c1bU, 0x3e2b43643e28aac9U,
  0x3e30c9173e2dd044U, 0x3e35ba593e331d5eU, 0x3e3af0cb3e380804U, 0x3e4130783e3e166dU,
  0x3e47293f3e438e10U, 0x3e4bcb803e496f70U, 0x3e5138103e4ed7f6U, 0x3e56d1e33e5324b4U,
  0x3e5d65a23e595c02U, 0x3e625bea3e5fd642U, 0x3e6783253e64f206U, 0x3e6d44fb3e6a9e60U,
  0x3e731ecc3e6ff80bU, 0x3e7764d13e73d9d9U, 0x3e7c56133e7aaf89U, 0x3e81ccf53e7feb23U,
  0x3e84a1173e82d2eeU, 0x3e8692523e8551c1U, 0x3e89ac8d3e883a99U, 0x3e8c79363e8ac5a2U,
  0x3e8f27723e8db156U, 0x3e9163d83e90862cU, 0x3e94a2583e93439fU, 0x3e96f76b3e960112U,
  0x3e9a1d3e3e9913beU, 0x3e9ce4d93e9b7bf7U, 0x3e9f98233e9e396aU, 0x3ea255963ea0f6ddU,
  0x3ea513093ea3b450U, 0x3ea7d07c3ea671c3U, 0x3eaa8def3ea92f35U, 0x3ead4b623eabeca8U,
  0x7e78746b3eaeaa1bU, 0x89804c815a7c7569U, 0x566c9b718b6c8755U, 0x605e8a767938a465U,
  0x5eaa69838a59698dU, 0x7f9996627a798377U, 0x6a65747788797273U, 0x835e5994625f77a2U,
  0x9ec164a2a97a9175U, 0x7b888974ac696fa1U, 0x897a7c816e8c5b77U, 0x638ea390674e82b7U,
  0x5f96a5979645a48fU, 0x93808494778f4166U, 0x8399698a719f936dU, 0x6e828e6e49876291U,
  0x877a57928a938092U, 0x55716c628f67868aU, 0x7e89618c5e54988cU, 0x867e7695748761a3U,
  0x6b85b28a99648779U, 0xa19b6e70736390adU, 0x569b758a5f657671U, 0x41836a8e6e3b7487U,
  0xcc6c676f658e4e89U, 0x8fae996c934a8e89U, 0xa3a57e7b7e996d80U, 0x847f667698a46e5cU,
  0xac959e738b8e5e5eU, 0x7a9299848f457254U, 0x7f776f8e7899954fU, 0x68617f6e9e7d8767U,
  0x9d6b86647a6e7c96U, 0x7580706b95867aa2U, 0x5f9179917ca0767eU, 0x8a75a19278966e90U,
  0x7e88878d778d8661U, 0x97807a8d7c7c4e51U, 0x886a8e727a937b77U, 0x7d9f6e7c79618154U,
  0x9480887784738a83U, 0x568a988f55867360U, 0x6c8980837485a393U, 0x9f547b57927b5c95U,
  0x7d5a946f787f767bU, 0x6f8e5c587e82878dU, 0x747b737e7b98b374U, 0xa9a295ab7a749c74U,
  0x80b0a27f7b616986U, 0x76908479918f8c56U, 0x7a847e5a5e789072U, 0x897a7f6e78685f95U,
  0x7da48f7b738d6684U, 0x568372a0967d6a73U, 0x5c639680886d9093U, 0x9a6a8a7d86819868U,
  0x7a69898c83816d4fU, 0x83597b4f6593768fU, 0x706e696e7c7b5672U, 0x7f98756e94807e8dU,
  0x7f83a27a7e62997eU, 0x7e70616c6c7f9896U, 0x746d9f7c83936f98U, 0x6d607ea578886658U,
  0x7a7583b08f9f5c8dU, 0x726c835d747f6aabU, 0x71999ca08166895aU, 0x71769c9778915e29U,
  0x55807c8a82919f5dU, 0x846f9f6a7e8e8658U, 0x656982ab948f768fU, 0x8a4096888b8894cbU,
  0x895b5956486d7a7aU, 0x468d1f79978a5f80U, 0x949180519f825c77U, 0x888a8d6b916db166U,
  0x886f9a446ca47c86U, 0x55b48daf72a769afU, 0x78844968a04b8763U, 0x57857072997d5970U,
  0x6f8a72636d62c27eU, 0x8a78879f8e7e6a55U, 0x5b8e6d6e82659b36U, 0x80628246848b7790U,
  0xac4b566b84596c83U, 0x944158a89da885baU, 0x51526d8e766a7ca8U, 0x8f358f5a594db47cU,
  0x559b464a6a736161U, 0x89878c8f6373a288U, 0x907c62812ca29953U, 0xaba3a79c5193bd83U,
  0x6d7c5fa2ac8f70a6U, 0x4a62a9908b668295U, 0x7e9a8e649f6d747cU, 0x53918c6580895e8cU,
  0x665a5aa85a67767eU, 0xa25b99b45d68816cU, 0x9e6d9b5a7f68639cU, 0x638860795f896a63U,
  0x734bb356606f8584U, 0x5471a8528f708c85U, 0x7772715b7c503968U, 0x927d54754d904b7fU,
  0x8d896973a28f6278U, 0x635381947c6a7ca7U, 0x6b9a7a9d6c897d62U, 0x93a57161657db170U,
  0x968ba562a38d9470U, 0x6e4b789c72586e93U, 0x5f9971565a606175U, 0x64817f5e6967497fU,
  0xa193765382b57774U, 0x775b808882a250d1U, 0x6d5b4a7c889c678bU, 0x70905872907e825eU,
  0x5b795156727e6163U, 0x90756c80785f7b6cU, 0x945c7e7a79aa4d57U, 0x96798a6c50846a73U,
  0x8e3f989c467a9570U, 0x7a8a43977b627e58U, 0x7886595765838575U, 0x615f98a1b2947949U,
  0x6168634497875282U, 0x6067a7717b885d7fU, 0xad72555d45a55d7eU, 0x7a758e925a646750U,
  0x8857814d4e6d854fU, 0x9784826cb3888a7fU, 0x9089868068847578U, 0x8c7aa88a61958b6bU,
  0x7990956d63668d6dU, 0x798d59668e826f74U, 0x786b7f7f5e7f6998U, 0x728f467d9b5f4c58U,
  0x56787e70887e8a9bU, 0x687b71aa7b7c8352U, 0x819879758d7b8077U, 0x6b36884b829a6f66U,
  0xb07c6c6654877a89U, 0x6c7c56656b5e847aU, 0x59806d938496b97cU, 0x956693a6739f988bU,
  0x5c776d7e97906d95U, 0x568d74726583895fU, 0x68775b4d87ba5e77U, 0x827b6e717e646677U,
  0x88846f556f936a90U, 0x6262797d88a26266U, 0x5d7b77729b82848aU, 0xc256878859a9727aU,
  0x7f8f896f7b7b7d54U, 0x6a857680568a3b54U, 0x34476154807d6370U, 0x92765d7b81646389U,
  0x62768a72b58c76a7U, 0xbf635e6a948b8f9dU, 0x80718f6a667c5b86U, 0x797a738298807c58U,
  0x824e898680a7628cU, 0xa596b6e17d918d86U, 0xbe728db4907d78afU, 0x86898dccaeb5b2a8U,
  0x8c8fe246a6667d5aU, 0x948fa4779c6267d1U, 0x2da17e2fa16064b1U, 0xb08771706c687276U,
  0xa1622685b1b6659bU, 0x4d86b7aa815a8191U, 0x98c59363a955929aU, 0x8d80916f95a1c378U,
  0xc069c18a63806d68U, 0xaf805b6b2e9593a7U, 0x9a7d9f7a79878f6fU, 0x988884a1879c8d68U,
  0x978a79beb8957b9dU, 0x78626e85a494a0b9U, 0x7d5b6c7361ba95a9U, 0x6b7b606287afb28aU,
  0x69808165985c568eU, 0x77657ab45695af4cU, 0x47647283547d6ba8U, 0xb58f9e6dbacb7f65U,
  0x857aa1aa7986bfc3U, 0x93767ab37c844e4fU, 0x5954615f7971b270U, 0x533b8382ce787b67U,
  0x66a191a03f65a9b6U, 0x84b36f449db57aaeU, 0x8a4e8f7845a34282U, 0xa0536e877b48475cU,
  0x8999628b5a68868cU, 0x73ac6882375b94a2U, 0x7b88848796907665U, 0x7079956f6d9a7f97U,
  0x9dafb291637d6a89U, 0x678777a6606f9c55U, 0x955f785e82718a47U, 0x6c6e919790866d78U,
  0x9c6eb38e85778972U, 0x818a5d518b996d81U, 0x6f605ec487696a6cU, 0x82a17d6d927e7286U,
  0x7a9d89818f6daa89U, 0x85a09483ad935f7aU, 0x968d4c68725e5456U, 0x638e8b6296828d85U,
  0x98bb7e567f38956bU, 0x87875a949f8e7375U, 0x9b69a085964fab7aU, 0x9c9fa659715c4b70U,
  0x766d71a295846c88U, 0x6a7897877f8431a8U, 0x83867c7aa07f9f71U, 0x5c767771695ca38eU,
  0x4e8490d295728f73U, 0x937c936e6962bd56U, 0xa4b48185937fa754U, 0x7a969b995c7e8983U,
  0xce68638e77ae9e89U, 0x548c72926e68918cU, 0xae8f827c6d6ee099U, 0x8c909da26f765e89U,
  0x735b8c5bbd56a864U, 0x6b7380966a658a50U, 0x95857c66b0779d82U, 0x7b946e5a749e829bU,
  0x727f93607470708aU, 0xa57f468874a963a6U, 0xa27e97806e7c6ba5U, 0x8198718f6f9a9d6fU,
  0x88bb708d8d7e7b80U, 0x8956b09394738b9eU, 0x7a769e7ca1689f7cU, 0x4a866c9e9a795988U,
  0x8b8380ae736f9f85U, 0x8c61779d4c83718bU, 0x6e89936d8d94a37cU, 0x9a5e9eb35e628182U,
  0x8b6280a17b867d75U, 0x748794768092a57fU, 0x7f627f8374707890U, 0x71ab609676b4786eU,
  0x709e9e86849e7479U, 0x8f52808873388a4bU, 0x799373596e57638aU, 0x794b516d846277a2U,
  0x939a718a5d91737aU, 0x858a766d5ba87ba2U, 0x7093838690919380U, 0x9068686e9c938162U,
  0xa1ba867980599b5dU, 0xa6a06e889863a090U, 0x5c808d8c8ba9427cU, 0x7d9b6f5bad7c7c89U,
  0x826a62aa8593797fU, 0x787e7195508f685cU, 0x85984a69999b7695U, 0x7c90806f6e8e9077U,
  0xad9654929488776dU, 0x7e7457938594a58bU, 0x794b997268997670U, 0x8b70a7759d87957bU,
  0x844e73677f9a776bU, 0x5d736b78777b8949U, 0x7478576fa072888aU, 0x88706c9c7c948185U,
  0x92824471847c4c65U, 0x887e8d61615e8ba1U, 0x7e669b9591747491U, 0x767f848d70887f89U,
  0x787c7fa05c607ba9U, 0x8d7b697f3f943b71U, 0x5a6e8e60b35f6064U, 0x90659c736154796fU,
  0x657b6ea144a4738eU, 0x699a81595b808573U, 0xa08287827b799780U, 0x417c8d2a65855f6aU,
  0x5772714d765a895dU, 0x75608b85979b857fU, 0x8873996b347e5c88U, 0x747177996c666698U,
  0x6f776e6b93988566U, 0x7f57898978699485U, 0x734f879b907b7164U, 0x9e8d6b899270926dU,
  0x6a6b5caf587f9396U, 0x7e8ab8ba93848181U, 0xd3799c8e9c9b7c90U, 0x6a7c93ab789e7386U,
  0x8b888f72a9a27c6dU, 0x7a8f7b8b7f78548dU, 0x289d7c6bab7a469cU, 0xa966787f7e695b93U,
  0xa7644ca789788a6dU, 0x6e95b69f654c9384U, 0xa690773e6458698fU, 0x75848f4e91a0c29cU,
  0xad698f716e61405eU, 0xa2807e8567768da2U, 0x68658d7dae6eba55U, 0x99728c746caa8c5bU,
  0x8a945bb4735a9b90U, 0x7663816c8e6b955dU, 0x6b87787f379462a1U, 0x4f927c7f7d90a092U,
  0x57a6967a8e573aa8U, 0x6e7677885e708962U, 0x447c408065615a9bU, 0xa174934b939e937eU,
  0x728caaa1865da4b0U, 0xa84995815569496aU, 0x755f6c577673a65eU, 0x7654b75db8457d73U,
  0x4e9f80854c39ac81U, 0x7e915f558bb28e7bU, 0x6d719b7358782f84U, 0x8f5e487051844b69U,
  0xa48f7f8a517f6477U, 0x708d5b87927c8678U, 0x6f8a519a83838c8aU, 0x8b918f807f668f88U,
  0x927a9e8e78558770U, 0x68619d7588787a68U, 0x7958846ca796715eU, 0xb55f868073726b95U,
  0x88657e598ba98e4cU, 0x4f98358e7993816dU, 0x8677916d77896d7fU, 0xb4a7707f77656da3U,
  0x7d736f7c99788178U, 0x997b9798a4955899U, 0x78a4899195755b60U, 0x728d8856577f917fU,
  0xa4897876864c966fU, 0x96937c5b8065576aU, 0x6f7c7e998165797cU, 0xa8749f729e7c5e82U,
  0x8f707e7a7d7e8292U, 0x6e689c8a89746083U, 0x6e769d84756e9086U, 0x91757e85a95caa84U,
  0x6762698188757a40U, 0x99868f8d84807562U, 0x75aa6a828c87947fU, 0x6184b18a476c777cU,
  0x9163638990955b66U, 0x5187b088736d6a65U, 0x8f61696676649668U, 0x996d78744f9a915eU,
  0x7ca370af9e998a5aU, 0x8c5e93b97c82786eU, 0x8c537461a0978781U, 0x846d99997a857783U,
  0x7f697389b184a55dU, 0x7b7f657a618f7ba9U, 0x438d9c4e66827e83U, 0x7a8c943e7865a96aU,
  0x6f666392519b9e57U, 0x7093b6965a666c84U, 0xa16a79489a68617cU, 0x8596838d838f7c9dU,
  0xae7b79c77e6d396dU, 0x83886a764e83888cU, 0x8170ae7b9c76806fU, 0x738982a675896a55U,
  0x8b5b8da46a869886U, 0xbb547b8a866ba0a9U, 0x7d979e886c7b4fb6U, 0x7ca8a280939fc18aU,
  0x7c8391976b795b84U, 0x6a9a9870286bb050U, 0x52ac677b536a6e90U, 0x5a85597e8f7f8f62U,
  0x5171a08d9a6ad0b0U, 0x834389ab717f837fU, 0x5d618482b173bb6bU, 0x57548364ad4d3e6fU,
  0x66986d99223c8e8bU, 0x588166805d746e7dU, 0x71228092657f585aU, 0xa4854d7c77686d84U,
  0x527296a36b656a70U, 0x9c61c07c637a6e69U, 0xb8977c7d635d7b59U, 0x675d8e5466698573U,
  0x686f8e769846926dU, 0x64854f7476a58dacU, 0x776d5a626399949dU, 0x7697747f8d88828bU,
  0x657c7a8e89724a80U, 0x7e6d61936870858cU, 0x589a9881867e9791U, 0x586d7d84947b5650U,
  0x6f8c5f748b977e7fU, 0x5e9b8078525a8f96U, 0x815ba16794a98e9fU, 0x635969ab83a33895U,
  0x7e5f90936f948d97U, 0x5f7083b56f7c56aeU, 0x669781587f9b6b80U, 0x5e606375847f975aU,
  0x4768667b9089a85dU, 0x5768786b917aba63U, 0x6c4eb4946e7f6966U, 0x35a4817b7f9d6869U,
  0x7d756c4fa571544eU, 0x5b75668e9096757fU, 0x6e93a36065775993U, 0xa65f5f68738848aaU,
  0x73767f378f959985U, 0xaa749da0446f82a4U, 0xa98f717e9688756aU, 0x73946e699f789d9eU,
  0x758886976e9b886dU, 0x70938961a2828a4fU, 0x9974718e6b739a85U, 0x728b956283717679U,
  0xb29e70ab66546385U, 0xa46c867071a29a77U, 0x8d646c7275889783U, 0x778dacb99b7699bcU,
  0x8d99a747b5859298U, 0x889d718f91bd7480U, 0x706d93907a8b9e87U, 0x8059919070ab8e84U,
  0x72827b9486bc908bU, 0x8e99877ca3825b8fU, 0x878885679e959da4U, 0x6e81b09cbbab419fU,
  0x978b9c886372956aU, 0x8d856b5b68847ca4U, 0x7fad6f4ebb839b67U, 0x9e928d8a8f99887aU,
  0x737a8d8f72738795U, 0x39a98879a5926899U, 0x9973808c9c847068U, 0x5f848da07db57b80U,
  0x8583835e9bb54b59U, 0xb2aa838c6e829c60U, 0x96b86d88377f5888U, 0xa18677aa4d7a7688U,
  0xaca499739c8d5d7eU, 0x8d84ad884c708276U, 0x777c5a6b9c8eac7fU, 0x8f5a7885937d9fabU,
  0x68748e61a5899877U, 0xc48481a99e757a8dU, 0x8e87b763a0988c4cU, 0x7d887d955291708aU,
  0x717f647268885485U, 0x646fa35e8c604b91U, 0x99a1906c8f637789U, 0x77a23e7791978580U,
  0x83c16c9b7769678cU, 0x926d79759d6c6fb7U, 0x7a95828f9f828076U, 0x6875837395626582U,
  0xb274ad8c886b9695U, 0x6e6a41bd7c7b7491U, 0x658e6885559d9667U, 0x837193722e92568fU,
  0x76817d988fd5608cU, 0x637a9c7fc0799babU, 0x927780b65a7b94afU, 0x7ab283a66b78867eU,
  0x69919a7c87627178U, 0xd26599909762799dU, 0x938678928c969a5cU, 0x975b719c515d679eU,
  0x94708b9773a25ba2U, 0x64bc8a5793619a85U, 0x787ea889e589916dU, 0x8a66677eb4a29d99U,
  0x868591ada2a27f8fU, 0x939a7a57bca968a5U, 0x728c967d5fb25a88U, 0x5987af8b938a848bU,
  0x6f775d868fa0b56bU, 0xbe568da64b8b5147U, 0x82616357c5b28c84U, 0x7d8549a49fa87263U,
  0x7a64527a816271a2U, 0x336d949255717ac7U, 0x5256958b5a7c747dU, 0x599876698a9aac97U,
  0xa97e4fa68da3735aU, 0x858f827e81817d8aU, 0x665d547bb86e7393U, 0x7aaf8cbca93b866bU,
  0x7654928681ac7179U, 0x6b5e7b77a057897fU, 0x8e897c94a1796d75U, 0x6b2f8a8885586357U,
  0xa6857fbb67a89babU, 0xb07354678b7a54b3U, 0x6290a7816e7c8fd5U, 0x648fac9b7f98cf66U,
  0x7384af91526c4790U, 0x7486af623c6aa18dU, 0x95ab5a689e5b8771U, 0x54465e695386508eU,
  0x74c88d927e71d399U, 0xac838fe179817c8dU, 0xa966859db9918989U, 0x2d30768998ae529dU,
  0x8e9952784c7a827fU, 0x8a9f798bc3a65976U, 0x8c4e4bab718d876eU, 0x8f885f7aada89599U,
  0x6c40658e4241aa7cU, 0x809699deac816da0U, 0x8394878e9e9c9aaaU, 0x45bba69f91ab9f81U,
  0xb3b1b656ac927828U, 0x6eb76c939b495897U, 0x36c49b3ba86d839fU, 0xaf7a59a56e6c5b64U,
  0x904b248db381839aU, 0x32acb8a94695755dU, 0xa789ba26914d6b8eU, 0x9a759a4db0b2c180U,
  0xc04a867c566f7673U, 0xa783ae74659e77a5U, 0xa28a7268c49fba84U, 0xba99756080b5a38dU,
  0x9584619f9387a0afU, 0x7789808a778d9ea8U, 0x8354777b4d9c726cU, 0x83b47c4394b196b5U,
  0x59a2a25b8f585798U, 0x6d916aa26f958346U, 0x4466569f6b4b7cbcU, 0xb6876d749e729a7eU,
  0x92a79b838b83949fU, 0xc0528f8b5e9b8345U, 0x4c578f41806a906eU, 0x4d76859ca7678c58U,
  0x71a8a0a25665a4b3U, 0x6bb449587aba7fa9U, 0xa37d937154ad3698U, 0x9a6a6d6f53793b5eU,
  0x6b9b54a763906a84U, 0x4d75ab964d70775aU, 0x867d7b8d8188917fU, 0x5a826673626b6a6fU,
  0x9089617e74927961U, 0x756f569f5b9e9c6eU, 0x575470677d7e767bU, 0x9765aa6885aa778fU,
  0x8b788967607d8098U, 0x7c7e927f46958f61U, 0x71667c5397936a78U, 0x54688f8f8d9e748fU,
  0x648f51b67d9f486cU, 0x8396b175766d667eU, 0x966c726d8e61877eU, 0x6f7d768ca2826092U,
  0x9a59589d63509c8dU, 0x9aad729767899866U, 0x7a9c968c816b8f89U, 0x628f836b7f86a48bU,
  0x80a39a8a7d8b8475U, 0x60c06e634685a68aU, 0x6b73787b55557e90U, 0x33bb8c3f98a97ca9U,
  0x6f74a4828a72a190U, 0x8867b89c94639384U, 0xa087626e71918b77U, 0x6e80a6824b586e58U,
  0x5f728d617e5d6567U, 0x77696a76706e8e70U, 0xa964a46eab759f80U, 0x938d7b6359966672U,
  0x65936c9157626369U, 0x887ec08f827f7f8fU, 0xa26fa9948e82739bU, 0x748080a6998b8264U,
  0x7b6189587793985bU, 0x978b6e906e738ebfU, 0x45a56c5bb35852a7U, 0x818f567c71836883U,
  0x83836c9c819f7a98U, 0x7198acac6169856bU, 0x6e7d9e82b3733361U, 0x49768c767f9fb47aU,
  0x98738fb37d8c5679U, 0x8d6c9c6b8f9e8c83U, 0x745a855aa2968d46U, 0x7f9257947c99696fU,
  0xa7543f8e80918478U, 0xad6a577d8f8ab497U, 0x7f8dac8557b68ccbU, 0x79b86179a09dba97U,
  0x9ab3ab7f578c5494U, 0x61a68d8b6c8fb858U, 0x474d4a76376940a9U, 0x7aa662899fc8987bU,
  0x7c7f92a36975d8c7U, 0xb54a9fb17c8c7285U, 0x6b6d6f438f4e9a9fU, 0x7c6b818a758e5461U,
  0x738874646a4179c8U, 0x487d426e86a78186U, 0xae95894d82d76f7fU, 0x9274646e18664b56U,
  0x498e6890714c6392U, 0x8a5bc093a8594855U, 0xd263935f5974809eU, 0x867279aba471567dU,
  0x796b89669e617c71U, 0x67668c4fa98962b3U, 0x2bb282647e6559b0U, 0x6da1718c989665b3U,
  0x77a73e8f849c869eU, 0x9a868080aa7a99cfU, 0x73a69d4692906f84U, 0x579f909a926e9969U,
  0x953f738282a23b8bU, 0x7d725686778b789cU, 0x6d77b08fa292a778U, 0x58704cad76a2707cU,
  0x907a87916f9fb476U, 0x7785785cb087bfc4U, 0x6aa05f5c637a9998U, 0x4e7495957ec2ba71U,
  0x8669a1788a5e4979U, 0x6982937e579eafa2U, 0x466b65743d5e538eU, 0x815d6c9983cb786eU,
  0xa68b8a6491b39ec7U, 0x82778cb76e6b808eU, 0x6d886d828e7674aeU, 0x67526881738b8799U,
  0x56ad7a8a714a5765U, 0x838160916da45997U, 0x74895d7780a1468fU, 0x81993f635f78709dU,
  0x818586a54c739f8eU, 0x8a736c7e5a717752U, 0x829b695aa0916877U, 0x7e93525a86928270U,
  0x784a7e8c9c6e77a7U, 0x5f5a4983739a79a7U, 0x6c728c9e8da09c9eU, 0x8b95776192a56f94U,
  0x7991659871855f6eU, 0x926f806b9d977b8cU, 0x6c7c816f998f6e8fU, 0x6a8576a09a6da364U,
  0x66854c82699e6f9bU, 0x857ca1815e85937dU, 0xa1607b758e7d5e90U, 0x7c538d7b9d697185U,
  0x976193a0756b6e9aU, 0x7c64a17d7d925990U, 0x8d9f6d81b14d8e88U, 0x809080af6575ad72U,
  0x737271967d809c6eU, 0x81928d575870bd91U, 0x6273627886757960U, 0x4a867f8d8d85616fU,
  0x90955d5d82a1818eU, 0x7bb29085839073bcU, 0x98917f99848d72adU, 0x85646397a29a957eU,
  0x9169896f807f8f60U, 0xa6648e8da07e8b99U, 0x83826e889f995f8aU, 0x6a877971a0718dacU,
  0xb9647e8d7d688479U, 0x567e88579888b49dU, 0xa0825f78486dc58bU, 0x866a925ec07b877cU,
  0xa99155bc7a876971U, 0x537f45738a676871U, 0x8167b0839b7b8e60U, 0x753f807a7c7f6a81U,
  0x7c55904c7e7172bdU, 0x78a25d903683987cU, 0xb36862709d8f625bU, 0xbe7581623e89839aU,
  0x665c517976616678U, 0x9d91ab6a70984a65U, 0x749e8c7459724c57U, 0x66bf7283749d7f91U,
  0x799882967131a08cU, 0x7dc4a46c75617766U, 0x6f94a29d594e7d61U, 0xbc8fa44d9f7472bcU,
  0x78bfa26f45b0647cU, 0x39ca7b96876db57cU, 0xa377929c5c845c9bU, 0x66a1887da66895b4U,
  0x5d64888a9a407582U, 0x5a1ea26081557848U, 0x919286a65a75696cU, 0x75aacc8a32578381U,
  0x6b4b759068697279U, 0x69ae728a6d6e6d70U, 0x779a796a8d78be79U, 0xac74739c46938f55U,
  0x858b62a392924a62U, 0xb570c5a55b9b7b77U, 0xad8789774d73946fU, 0x6e899bb0b06a9065U,
  0x9283727da48b905cU, 0x8486867a855b97a4U, 0x3cb199737b8a6e98U, 0x8a92ad79665c6f6dU,
  0x745e609f86a26965U, 0x8876a3a34d745095U, 0x7fab834991746063U, 0x779891ad8c64a479U,
  0x96897eaf8ba14d80U, 0xb15e7387408f8593U, 0x72579088a0679357U, 0x697661857ca17f61U,
  0x574c638d9775b47fU, 0xa06187817382918eU, 0x9b8aa3893e856d7cU, 0x8d889b4f8c93938cU,
  0x678ab2889956629aU, 0x7daf7f68638ec453U, 0x3c8866624a6b698fU, 0x519671958ac58180U,
  0xac81797fa08aafa9U, 0x8a50a6b691666f83U, 0x4154737e615ea96bU, 0x6c70895c7b426974U,
  0x5e82808560397a72U, 0x8a8a7f7da9a57f5eU, 0x7e417588908c785cU, 0xa18c3f9a51937d74U,
  0x5938788c4f596673U, 0x8391ad8db6536299U, 0xa471a0608a686980U, 0x589e7e97997ca886U,
  0x717a9543ad8a6f40U, 0x70a4a96ea95b498dU, 0x39af8c70a9666cafU, 0x727751ac488a3092U,
  0x996d45a5b2657a85U, 0x3d73a8838f649287U, 0x7590984a66904e69U, 0x8c9281758e96cb6cU,
  0xa6839d709389786fU, 0x98729a83759f6370U, 0x6d7c776a759c9a8bU, 0x7da2839684a27883U,
  0x89998981988c6d7dU, 0x558b666f90919285U, 0x867d416959a77a9fU, 0x6c9c58517a9c777dU,
  0x6da08459ab62526cU, 0x4b8965a68480664dU, 0x331b589a4f586b96U, 0x849e5b8768987770U,
  0x748bafa3886087b2U, 0x8b80907e72688e56U, 0x6c77746c865b936aU, 0x7f846a9084787d59U,
  0x5ead8482863b7a87U, 0xb38d706993c47b7dU, 0x9ca4855b64b52e94U, 0x744f89584c714e5eU,
  0xa95c604e7bad6173U, 0x906e6790ae5d9c9eU, 0x54a5797bb35e7f70U, 0x6e7aa6686b8b8491U,
  0x68a248a55385699cU, 0x5e8c977567424b6bU, 0x965390734785546aU, 0x7e6c4667847f707cU,
  0x7d626c9c427d9d64U, 0x7175369f8932858dU, 0x7771588694884372U, 0x696a641f5a766d87U,
  0x7e72663e2c4d8d7eU, 0x918768a85a827066U, 0x838279847d8ab457U, 0xa87561754a4e7d63U,
  0x95a0678a707d999eU, 0x399489929977843dU, 0x8a4968b3754c5543U, 0x96778e8a955a7e9eU,
  0x7c79958e49615693U, 0xd83e6a9188827168U, 0x927d4c5496828a6aU, 0xb148751c4b3e819dU,
  0x67642b7551775151U, 0x5b558b2e7f7e754aU, 0x7c9d776f9d8cc257U, 0x86637288928d8d8dU,
  0x5c6f8d968ba48093U, 0x50987254747c9582U, 0x4474a388615d587fU, 0x8b85725a9c528365U,
  0xb27f957d68ac78abU, 0x67816468a49f90a9U, 0x9e9567968c88a9a3U, 0x916081767b956183U,
  0x717a536970609279U, 0x8094776e9c9d886bU, 0x788d8f9e7f6aae86U, 0x7b80608e8d90818eU,
  0x90a16b5884678695U, 0x966e2e899ea96f6cU, 0x5d727e7983b07c5aU, 0x777ea18c7e9a8086U,
  0x9b8487588a638d77U, 0x6d8a8f877b9a7f66U, 0xa96887a68873809eU, 0xa8837f7b8d7e6473U,
  0x717b796289776d92U, 0x635391746a7f69a0U, 0x948e4a57a47c744fU, 0x9d6d88948b6a7794U,
  0x766a458c7a636282U, 0x66607c7da8ac5a72U, 0x71867c9f7c5b7ba1U, 0xad619a6583717b8fU,
  0x7aa978556583729dU, 0x4b8f7284667d6375U, 0x8f6e639f788d8e87U, 0xb79d9e79948980a8U,
  0x878e6b959893a774U, 0x917a54777a51886cU, 0x7da7825e9e6a589aU, 0x79638569927c779bU,
  0x5a7349b56ed49892U, 0x8374a3849671586fU, 0xa052923f6e578b85U, 0x81954f9e62776b56U,
  0xa0666485a66f9e73U, 0x834c9c595d9c8a7fU, 0x769777a6778a579fU, 0xa07d817f749d7da2U,
  0x8d8586ad74648ba2U, 0xb562897d927c7e9eU, 0x737772595799656fU, 0x7aae63ba677e9a59U,
  0x8699947e94856a65U, 0x767673a05b557f9eU, 0x4e747b7c755db38aU, 0x7e746d626d8f5058U,
  0x84945f66766f7467U, 0x716a86929c5e7b9cU, 0x70b36864745f8e8eU, 0x697d77a2946aaf5eU,
  0x60868557808e705bU, 0x6a779b426d617c80U, 0x7b9672828c7e884aU, 0xae93978740ab7542U,
  0xc865bf6653b455b1U, 0x64967dbf916782b8U, 0x84597d646d8f7664U, 0xaa6b767da3867b7fU,
  0x51a2645c7f887f65U, 0x6b4ca2697e7b5b8eU, 0x70848b996c7d8562U, 0x65846e486a7e88a4U,
  0x6274919053689879U, 0x799b8c80737772a9U, 0x859f939a6b7c6f7aU, 0x7293806e7a767693U,
  0x6076a63d8ba29a68U, 0x67b6458c7ea2787cU, 0x7790664ea848aa85U, 0x6ea5898a75765646U,
  0x42676a946448786bU, 0x7a5f9f566183756eU, 0x7a94b09074579f7cU, 0x86577f67c1a7664fU,
  0x77897a90567c7e7fU, 0x5f67785b6e6fac63U, 0x9969677571688d5fU, 0x78b17a9fa47072a6U,
  0x7b829d83b76e7358U, 0xa96d79bf5a807f6aU, 0x906cbb6764af9e92U, 0x62864e726c856d7dU,
  0x7c9c507d827f9874U, 0x6a775f97759c8a62U, 0x6d6392a25e755991U, 0xa27169a49fcaa685U,
  0x5b8e9a929577a060U, 0x8c7263632b6b826aU, 0x60757f5cb34f53b9U, 0x9a8190826d847a7cU,
  0x6f78807d82359ab8U, 0x89914e579189857dU, 0xb9b091608f77a1a0U, 0x7373a4975e7d7470U,
  0x7791a97c7e723f5fU, 0x95779a654993aa8eU, 0x768c5a8f6694877bU, 0x835e728bac648c88U,
  0x756ea99f8e5f6692U, 0x658255a962919aadU, 0x9349ba916f8f7f66U, 0x7f717b4b634d6a5bU,
  0x98456a7274897b6fU, 0x7e906f8e6260826aU, 0x88827b7ea161878bU, 0xa88a997e5381a293U,
  0x898a7a978f747092U, 0x8a9a975363747e89U, 0x8381b06199866880U, 0x6c928c736f829b71U,
  0x7a9d896072557483U, 0x87b38f8c9e646c90U, 0x7f79956779808d65U, 0x909a70777a706d98U,
  0x7b72817984977ba5U, 0x83927895718d9c81U, 0x57748c815c756c84U, 0x447ebb92a0736c6fU,
  0x6d5e837f99659971U, 0x7c697a95ae61937dU, 0x7c8c70893b7a5aa4U, 0x699dac908b608f3bU,
  0x94736c773d808b71U, 0x6e588985905c84a5U, 0x6d506a80a7907954U, 0x816f9e826c84755cU,
  0x517c5cb65e737d6cU, 0x874fc69f4c686d9fU, 0xbe6cad9885559893U, 0x796088868e6e4490U,
  0xaca381666a717e84U, 0x7e59b75f76958d84U, 0x9b7171486a344f95U, 0x47a8758e896e6298U,
  0x89757c6b97999c8cU, 0x927e738e67777a97U, 0x88747aac72869151U, 0x479d7d7666928673U,
  0x797985aa9c6c6c6eU, 0x49995f6b88658489U, 0x6a5c826f8c7a9362U, 0x7f8d6b7a67958c57U,
  0x7c87656046978865U, 0x7d7967c3ae6696bcU, 0x48867fa08daa9ea4U, 0x3ed0727e88759193U,
  0x846b8259739c6779U, 0x8c927b6f5182b0a0U, 0x70746680a28f439cU, 0x9f5f85936e7bab7bU,
  0x575cabad687f878bU, 0x7c996692a43aa96eU, 0x3890497766549e8dU, 0x91739d8a6cac706cU,
  0x89ac782d83716b9cU, 0x667b8f8c67cb656bU, 0x9995534886b17291U, 0x7a796d825e4f5259U,
  0x936782a8516bac55U, 0x764d849362876f49U, 0x91845884ae875b6fU, 0x818c547d8f979670U,
  0x487387838a90947fU, 0x5480759d6b88899eU, 0x988d9baa92888384U, 0xb75e98306f916f99U,
  0x6f7f639e75498a4bU, 0x9d489874859a7ea9U, 0x6d77786f9a783a77U, 0x97be4cad57737d68U,
  0x75aa7e907e855b77U, 0x7e6e82b065828989U, 0x8e925a9783629972U, 0x8a4f894d696d7b63U,
  0x605243857a8e8084U, 0x698877956d4b696eU, 0x8c805b986c7b3c86U, 0x7561878776a8ca8bU,
  0x7974b37b7e7aad5fU, 0x856f7875785ab36bU, 0x6f8261896b7e8259U, 0x58806f8f72785a92U,
  0xd0808e79708aa588U, 0x779379c1928580b3U, 0xa69970849d8ba46bU, 0x7c718e8db872837cU,
  0x576661a6667b6e99U, 0x75618d618e698b7fU, 0x636cb28f6b688f5eU, 0x76709e7d829da4acU,
  0x628f789e6b57757fU, 0x7e5d746d9d9f9e5eU, 0x85616e866b726c6aU, 0x776f7692757f9453U,
  0x8092988e8b5da569U, 0x8974b38e8b5e959cU, 0x708ca889a9768b64U, 0xae65a64a538861a2U,
  0x676f5e77817f7771U, 0x65655c8670788478U, 0x989b837a7478738aU, 0x9c6d448458658584U,
  0x9791825d9f776290U, 0x917e6190606383a3U, 0x7da57c8d488b7390U, 0x4166715f596e4579U,
  0x7d6d917d907aa969U, 0x888f6896655a596eU, 0x6d7e76677077538aU, 0x956173657e748465U,
  0x885389768855a56aU, 0x6668a7868f677c7dU, 0x8762b9786dbe836bU, 0x929d856c857d6f5fU,
  0x80605f76765d5452U, 0xa56269998d664365U, 0x82ab917f797b7b56U, 0x94a2aa8f32655a6eU,
  0x77716f716b71667dU, 0x7c7ac970878b8688U, 0x666a898e77898062U, 0x908974834d8d8f82U,
  0x957a8499717f6773U, 0x6e765b6a918a7c4eU, 0x7f48678777866c93U, 0x957d635e61507473U,
  0x6f41835fb47e9397U, 0x9e736c728a955f7dU, 0x4f6f8c87ab707f54U, 0xa591776882798679U,
  0x7a7f92a8828b8886U, 0xa15c7761aebb5fa3U, 0x657b755e90888870U, 0x8d756692719ba67eU,
  0x847e698b868c92a3U, 0x8e5991707c669874U, 0x5e7b68b28b5f49a2U, 0x82636c8083836298U,
  0x9880658094873d53U, 0x756f728a6b5b5c65U, 0x7f8a617c7a616e77U, 0x86595e856e81a06cU,
  0x837876867f6fa05dU, 0x8271596d56766e91U, 0x79988d98659c7488U, 0x89876c847c9557a7U,
  0x9282567163aa9882U, 0x8f7d6d709f776a80U, 0x90676372809e7d84U, 0xac7d758355979881U,
  0x6b855d997d644464U, 0xa433776ea7708890U, 0x83827b8f9d75736cU, 0x7e93a2828f7f7ea3U,
  0x67a870bda4977668U, 0x7166b99587708f8aU, 0xc786647e654d8265U, 0x7a6c9f9ebb6b9668U,
  0x717d7c9d9f678872U, 0x728980748b8db8a1U, 0x518f56837e767cadU, 0x60a564ac7d8e71c4U,
  0x6b677273a07f7da1U, 0x8b93a2be9a698797U, 0x7d9b8677738b616aU, 0x499495964a7ca75dU,
  0x73957e8262c04c7cU, 0x66896f9f7a6ca370U, 0x6d90a8a3747a749aU, 0x8b8b4dc97fbe6b6bU,
  0x796e5f875d9ca996U, 0x647b8a6ca08b7b82U, 0x6d83ac657cba6a9aU, 0x68706e688f89b386U,
  0xa871a17348816379U, 0x72947e807089994bU, 0x454d4f9431625d7dU, 0x5e7b577f78c4846bU,
  0x75a88d6f9cac9293U, 0x916e91bf6d719482U, 0x9d5e7a736f544d83U, 0x8a5a406528716773U,
  0x8289834d85684c90U, 0x538a94904b81975dU, 0x7aa37573adb28c84U, 0x4a91427955716f96U,
  0x7a6b7a49321a7981U, 0x618e547eb1749586U, 0x7d787182717a86a0U, 0xa4669b6e67978990U,
  0x8a778c8d73737e7fU, 0x708f8252c68074b2U, 0x3e6f90529e5c607dU, 0x9f7c607272a26980U,
  0x79788b95a55f6e98U, 0x7750b9978376958bU, 0x7c8a9a677a9c9686U, 0x915078496ea1a390U,
  0x9c738c885b80aeb2U, 0xa848777b4995756fU, 0x6aa08e924b7c9295U, 0x98b83cab6b835585U,
  0xcf8086a1a6925b63U, 0x3e6b679c7e906e8fU, 0x7b635c7e4f756dadU, 0x90726f8864516e89U,
  0x6c94656f74998c63U, 0x835e58848e5c773bU, 0x8a74969e4897527aU, 0x99c66759a6c56a91U,
  0x9d5f698e3fa6746dU, 0xa88e79618483856fU, 0x99a77358aa856a67U, 0xb65d86859cb77288U,
  0x70886f689368728cU, 0x91a07b489160808fU, 0x9bb99178777d5999U, 0x909b954571797f7cU,
  0x5e767753a898659eU, 0x8a8c9b94688a7177U, 0x978585935a88677bU, 0x706a956f8876867bU,
  0x9d84717a81789768U, 0x8f6c8580956a5e72U, 0x716870856e849970U, 0x69826b7b5e6e7256U,
  0x8a74638f64716c7eU, 0x407488645f8a7180U, 0x8783977e838a9875U, 0x7c62757c8f6e9686U,
  0xb8878f7d79826874U, 0x656c5d585d849d88U, 0x7e79635c7074717fU, 0x8f966e7368808b88U,
  0x70889c7297867984U, 0x8297969b968d8b82U, 0x5c6a8b4c7b807682U, 0x6179824f74815c69U,
  0x8862886791757e95U, 0x878f866e78687f5eU, 0x5c5272a187986493U, 0x9179837c8698847bU,
  0x6c756c8193616876U, 0x836176617e80804eU, 0x468478777772747bU, 0x778f8587837f7159U,
  0x83936b7d67816870U, 0x736f966a7b7d926bU, 0x985d8683757f6382U, 0x947d5f8d768c867aU,
  0x68878782818a9567U, 0x38a2627a716e8166U, 0x44a962928d9e637aU, 0x759f656e637e86aaU,
  0x8e7e8e825a7c9292U, 0x6cb0398a4b9a8d63U, 0x8f68859369898f77U, 0x9267937292637247U,
  0x988165627c6b6e8aU, 0x8e6c5f6777805f56U, 0x6b48906373676987U, 0x878f65888e985e86U,
  0x6c95866c556e8d8aU, 0x819faf5c9186749bU, 0x916c6c7687868d87U, 0x8a72b85979639374U,
  0x90897c7892618379U, 0x8e6d6a5d536f794bU, 0x7e6c706ea1697163U, 0x9165736d8f766d5eU,
  0x7a7e838e916b919eU, 0x576b8e7f6a639681U, 0x7f8d93859451a77cU, 0x799d9e6a8c6e9084U,
  0x8e75759073616772U, 0x7b7b7e698b956788U, 0x846f745d507aa06fU, 0x688b7c908b698769U,
  0x755b8f7961848388U, 0x748f7ba361719d7cU, 0x8444a08186488772U, 0x828eba858f6b7273U,
  0x87934f8b72747c84U, 0x677b6c8884776179U, 0xa1746c5faa88518eU, 0x8f8c58667b96619aU,
  0x627a71649a997e78U, 0x908a7c7b6f8ca9b8U, 0x5ba34677777d7e9bU, 0x61a1616288939685U,
  0x8d56919983689276U, 0xb94f999173829c8fU, 0x4a77857e75857693U, 0x426773987ea69b5fU,
  0x4296665b85c1708aU, 0x6f72a48c9260827cU, 0x6c7a98759c7587a6U, 0x964d6a7e9773a597U,
  0xb24f736667767d84U, 0x876e82835b767279U, 0x9ba974a99d9e8369U, 0x66848aaf8b6a9967U,
  0x757c76a070957e81U, 0x7b8275755989798aU, 0x8376868079687976U, 0x7ccf8d7a78b170a5U,
  0x6f9797a48984e3c4U, 0x7c83a0bc63917c9dU, 0x906d8a6492778280U, 0x9a42377c57687f72U,
  0x7c7282626d836a8aU, 0x7d7c677294aa9b6fU, 0x74929a72836c54adU, 0x87a3963b98523281U,
  0x70855da965447f91U, 0x806eb4859b645394U, 0xae579076776972a9U, 0xafae8997a8766f82U,
  0x7b628263a6a2af5fU, 0x6776616476aa83b0U, 0x50b48b65a5629abaU, 0x76c77c51899f545bU,
  0x6a6e6ab753879754U, 0xae719d9389ac4d8cU, 0x8983995c81a06680U, 0x948b6ab2a290a265U,
  0x84738faba89e1e97U, 0x8f65616a82889b68U, 0x68907db4916e4a63U, 0x56806d7a75b0837bU,
  0x7b65509a925e7961U, 0xa782897e806e98adU, 0x8f9da87d7eb264bbU, 0x4a917f676caee690U,
  0x8cb28c6daa7a8170U, 0x65a7839d3c7ba86bU, 0x5271708c61917373U, 0x7c9666bf9ade80a4U,
  0x9da5d290ad77b6b4U, 0x9e7167ef89655698U, 0x683b514d834c7e92U, 0x85778d99995ca257U,
  0x80764c70464078bcU, 0x8866465bb0ca738fU, 0x957395648aaf7892U, 0x7e48918052647385U,
  0x888b9d8a5a56507aU, 0x7a7e73878b85917eU, 0x667f7587669f678fU, 0x886a8e9679815965U,
  0x8677649e6a757186U, 0x8c8e81758668a080U, 0x80908666696b8f82U, 0x617e6558785a8f83U,
  0x7a6291648b89a669U, 0x7f908ea381887679U, 0x8567718360648f6aU, 0xa08a7f8873836493U,
  0x67766f729b857e5eU, 0x789a866da3737299U, 0x8f7f8d94597f4765U, 0x729a84658b8c8b64U,
  0x888d7d637e698b71U, 0x9f628160806fb084U, 0x809797a16ca08c77U, 0x7e75a77c955a5f75U,
  0x848d8a7d8f777991U, 0x6791926c96b67fa6U, 0x818c617e9680a7a5U, 0x8d8180a76c548c62U,
  0x465d978997639f99U, 0x744c797c89735c6fU, 0x7c95856c8f6280a3U, 0x8173865c6d735e84U,
  0x94858393578a857fU, 0x3878a5985e8d8e67U, 0x6a55617575818762U, 0xa771629866837c75U,
  0x816993779256797cU, 0x838c6c5f66918563U, 0x55847195a0867361U, 0x7b818a8d66879d8aU,
  0x748d868c947f7887U, 0x8c8367b852859565U, 0x9f7e948d6e6d8697U, 0x83a89b9f638b905aU,
  0x7975a17c6a7d9a6eU, 0x6980977a556d8b77U, 0x867c727b666f9f79U, 0x8c93767a8c89649cU,
  0x9872797183569377U, 0x97968a74789d7d73U, 0x7e968468807c809fU, 0x929aa068759d7c9cU,
  0x798c9973767f6d7dU, 0xa76377708d918076U, 0x7e7091ab818484afU, 0x9e80807ea3766683U,
  0x90697c8676719d8aU, 0x8a878a9880837771U, 0xa572966d79758e7fU, 0x5a8786966b47a065U,
  0x617d7fb17b618b6fU, 0x9460854c908e6b7eU, 0x83868a7e8677938eU, 0x649965608f7f756eU,
  0x908792707c839b66U, 0x7a837f9d4b7f8f90U, 0x8d696e726a94797fU, 0x72619270897e8461U,
  0xa0563d5e846f7875U, 0x8e5072ae5dac5b60U, 0x99838a91ab807e97U, 0x6a918e9465966d8dU,
  0x94a383679b957857U, 0x9e917a9098796692U, 0x9d5e9b6e5487385aU, 0xbb6c7160658b607dU,
  0x96937468a4a8887bU, 0x875e82a68b7d6757U, 0x80a3716c98708779U, 0x768b7e878d9bbe71U,
  0xa97296684a6a7158U, 0x815d9ca95b5e7582U, 0x767a6579808ad066U, 0xb3777c6e5d55847aU,
  0x5e9c5e7b9685509bU, 0x797b8da193816765U, 0x83793e879e61577cU, 0x838c7a6c568d789eU,
  0x53969d706f896a91U, 0x9c7d61967a6ca267U, 0x9596514d9f5c6f88U, 0xb8777f3f7480828eU,
  0x756074745e9d7d9cU, 0x71977356c1778b7cU, 0x87466e4c7292be4eU, 0x74899e9b9e888a7cU,
  0x69887166967a8289U, 0x9183816ba686737bU, 0x6884786f5b814566U, 0x7f72806486686355U,
  0x7399776671a77985U, 0x75a06c7367576d66U, 0x8296755e938d566dU, 0x77784f63777b9d8eU,
  0x89888d70769e6871U, 0x9c9840a445827294U, 0x647367936588a294U, 0x569b989c73608b7aU,
  0x87c06fac447d946aU, 0x925a90699d624a43U, 0x7574847a8845756dU, 0x5e70898c923e7183U,
  0x79808baf5d8c818dU, 0x8f747fa491775a72U, 0x77809779a1768a69U, 0x8f5baca2706869a0U,
  0x687d6f989a938070U, 0x7468bf5e90908fa3U, 0x874f9580886678a1U, 0x64815e9676a9626cU,
  0x6a697a98ad86769bU, 0xa97b817159568b60U, 0x629341798f4e9586U, 0x7049719f9f9c628eU,
  0xb48e8683907f9771U, 0x839a9a6d826f9581U, 0x999a92a0a774947dU, 0x859637988e808387U,
  0x9e9d779e6c8b8c5cU, 0x6f8d707ca9488c80U, 0x6a869bad8f939a70U, 0x79727c86a16d8787U,
  0x8562aa649b657898U, 0x6176726a7782af8aU, 0x7aaea78f5e8c7a8cU, 0xb19f69677e8aa581U,
  0x9088b68788968f7aU, 0x628a28797a7e60a0U, 0x6a5e926ea966aaa6U, 0xc38ca07f7d796193U,
  0x9c8e848280567668U, 0x958463787bb2715dU, 0x7792a6567b5aa896U, 0x87409c74bda36b82U,
  0x69788e71619aa495U, 0x6c8b76514a957774U, 0x977f84777a997881U, 0x5b91c3847d4982a0U,
  0x74758f81bf6f9193U, 0x818d75784d864091U, 0x7984835d8b878c64U, 0xac6b896e6b9d8774U,
  0x6d866e9e9175768eU, 0x43776faa907b9087U, 0x7a77bc94706a7172U, 0x7a898c9ea687789aU,
  0xaf9b3b7a9984764cU, 0x998e7a8a3c92506bU, 0x8a985c8d748a4471U, 0x68a08d7f6d6d6a7eU,
  0x99817f8882938e84U, 0x8a9a7093ae4f837fU, 0x78668d77968e84a0U, 0x77749bcd8ea99d86U,
  0x7c6b8a92999e8250U, 0x85828dab7f786d65U, 0x7680776e816c5167U, 0x626e50586f92978eU,
  0x7d7eb37b913c8d84U, 0x5773bf7090997a8aU, 0x80747d90648a8164U, 0x91689b8c699f819eU,
  0x799f65a3767e747bU, 0x9c745e64ba75869fU, 0x5e638bae6a976087U, 0x899f5d8f7e688a65U,
  0x8ca69197a87f6e73U, 0x8a818d99806c6495U, 0x799d7e7170638577U, 0x766790477c955174U,
  0x9488718b7c9c758cU, 0x7c7b67838b467b95U, 0x6786606b8b577064U, 0x7c79777890888349U,
  0x754684849577968dU, 0xb37e86736a568b8bU, 0x9d6a6b799297767cU, 0x8a898f946b7c5973U,
  0xc86674758f80697eU, 0x749a53a688869b98U, 0x9d92739a71a7936bU, 0x937c89a69f8a9592U,
  0x6d875f7a94ac6c76U, 0x5c67aa8e774e7c70U, 0x7e9b779c71848969U, 0x608d7f75a87f848aU,
  0x9b9d867592679892U, 0x4e7f6f74677e9597U, 0x936f4e7e87827493U, 0xc4707146955b84b0U,
  0x7c74717b886d728bU, 0x937a6457ce7890aeU, 0x5c4c8e69907b7b76U, 0x947c725470858e69U,
  0xa7899c81848aaba9U, 0xb35e8077777186a4U, 0x5d735c7774b19c85U, 0x75548754788b959bU,
  0x678a80805a657aaeU, 0x7e8da16c3f73526aU, 0x897f7e8c5b7c768bU, 0x7ead6a818a868d7cU,
  0xc275717c7b457aa4U, 0x82ac747589609260U, 0x8e8d7d984e6a748eU, 0xa5579283673e8a7fU,
  0x889b767775779486U, 0x6db674746a658578U, 0x7d595a7e5887789bU, 0x7faa834f90b26898U,
  0x5556b175717a75b5U, 0x7660bc7b9d7c5d9aU, 0x8cb15e5e85877587U, 0x8f6aa86b70747468U,
  0x757e89633a757f65U, 0x588a6969814f7875U, 0x8b978984a474b382U, 0xa9bf83516e564556U,
  0x86ae9d65888072b1U, 0x689349646c62799aU, 0x719275925f947678U, 0x7a7c8d68976a6b8fU,
  0x988174917d9f61a0U, 0xaa864a738a7e8377U, 0x869278898e968c99U, 0x83877b80895ca787U,
  0x8a9794809f788772U, 0x90a4706d98807754U, 0x764575936678837bU, 0x6284789ea1818a8bU,
  0x5e8569857b7e888aU, 0x66acaa73cd874964U, 0x699a817b81ab4c84U, 0x8b5e7e606c8aa175U,
  0x706d866e86705f66U, 0xa79caf6b6a7b948bU, 0xa8a4899a9870786aU, 0x925fa286817b5382U,
  0x84687f8e7a7e858dU, 0x7b9196718aaa4d79U, 0x74679d8d8877b97fU, 0x6db077ae8c5fba7fU,
  0x8e76499091877498U, 0x65949b6c6b97848bU, 0x738d858ba0918f96U, 0x8584624f594e856bU,
  0x8c777c928a757174U, 0x7c869b9692648473U, 0x7e757553a66ba765U, 0x868499787d839a8eU,
  0x786975b68c959766U, 0xb75d6e9c58697e70U, 0xac46836ba1606d7aU, 0xa56286696877669eU,
  0x83979f7a78996e7dU, 0x6e6d8681a67c6bbfU, 0x6754a0559d616972U, 0x8c8d71706c915e7eU,
  0x8d8f5c8b698a5a60U, 0x897a77947b5e7d99U, 0x639863a6a7a18b9bU, 0x81787b9e945a8d7cU,
  0x8f83777c81a58789U, 0x8660619b76797f6aU, 0x696390927d848e8aU, 0x6574758763626e79U,
  0x748d7c83736a7e7fU, 0x5e977e8280668cadU, 0x5b786f9762826b63U, 0x758f70937476b26bU,
  0x7e61999f8f7b9e99U, 0xa3647e7b785f9a6aU, 0x787162636fab636dU, 0x6a7f686785838aa1U,
  0x777c8ba17c7da172U, 0x758881966f6a8e77U, 0x6e84749f74969386U, 0x7b49ae897c8f9a93U,
  0x7c79457a70726f8eU, 0x8d6aaa6aa6956477U, 0x8b926f8b7e815779U, 0x98ab5d8277648487U,
  0x9a7978619b81a179U, 0x72825f5562666275U, 0x6ab0637d90705937U, 0x72434f407e7c6c87U,
  0x6a6088996e5b56bcU, 0x7872627371978ec0U, 0x89596991636a926cU, 0x64a27b5976aa8e86U,
  0x6579a8886082687aU, 0xb6877c6f88849a65U, 0x4c686d86838a7c8eU, 0x345d6e5f8c807165U,
  0x6dba5f90559d9788U, 0x7f7f9d9a6e746476U, 0x797a887e748e7fadU, 0x6f627fa29c4063aaU,
  0x86538d46687c7c91U, 0x6670959c5c677b7dU, 0x7a7557a2926d6f61U, 0x7c8857b98954527fU,
  0x8e5f579c90ac8e89U, 0x7590704a8f787c87U, 0xb3817c817b6e6953U, 0x43a65f6e6879746cU,
  0x675f4774736ca149U, 0x7c646d5382a28589U, 0xa59a7c86a9806182U, 0x8f7851b15e80677aU,
  0xa86d663a899c975eU, 0x8f7a97896c6e8a85U, 0x67a880879e62657bU, 0x6fa3a971af74609cU,
  0x9250519f95505f6fU, 0xa72e937c91545476U, 0x986492858b528c8cU, 0x7f5e969b7773615cU,
  0x9690697f9a715a9cU, 0xa460ce6b976e5477U, 0x92c26b6f2a7141beU, 0x8888546b8a9c7291U,
  0x758990878a8f968dU, 0x867786969f549bceU, 0x9eaf995468896670U, 0x79b4929056809a6bU,
  0x8b81999883696d8aU, 0x86616ea98274a2a0U, 0x6d60646e7466a57dU, 0x878d52546f9e9186U,
  0x9f8b5867369e9361U, 0x5c8a7da7a0729f8aU, 0x9a9f50825473a57dU, 0x4e65927d81b89795U,
  0x67809e629f879686U, 0xaa6495746f6b8f7fU, 0x5d7650548d7b7b97U, 0xad55707f53796652U,
  0xa272a05f45af628bU, 0x8a998361b14584a1U, 0x597161716d6fb77bU, 0x833f6082af9eae73U,
  0x749995657dac648eU, 0x97aeaa8658b18ea8U, 0x5b8a71935a73288fU, 0x73715d4d79797e85U,
  0x67812fd324609ab3U, 0x7060d4af6c3a7e92U, 0xb468b5396e8e907dU, 0x56684aa37f314070U,
  0x9784626080a95e77U, 0x7c4eaa5d62b26d72U, 0x809f6d62835c4e72U, 0x807786836b71599eU,
  0x846f6e8d975e98a7U, 0xaa5f6b8d7c7366b7U, 0x6a98909e73bd675bU, 0x5b89747e59779271U,
  0x74889b85c0a46d82U, 0x5d6d7598a4418086U, 0x449261625d6d9063U, 0x856576627f694840U,
  0x7b8c7d521776825fU, 0x976b6bc7945691adU, 0x57ca5e6c818b5d8dU, 0x5d9c5e979f709968U,
  0x6e7967477da86366U, 0x85798a4f355e97a5U, 0x8b7677929a895688U, 0xa8959a5648a3a64aU,
  0x7a55bc6d5d9487b9U, 0x6d6a6abc9a6ea480U, 0x667e5c5074738a7bU, 0xa04dc66992ad3e71U,
  0x3d84552eb770449eU, 0x8067989740af625dU, 0x9aa159556a9673a2U, 0x8574709742474b64U,
  0x5a818898668aa037U, 0x8f6f86518e7f6ba3U, 0x9b7381a08388766bU, 0x918e8e9b965a7c71U,
  0x72775689967d7c62U, 0x8588ac6d8464846dU, 0x97987a8c74755490U, 0x8060707392536781U,
  0x6b93849291578cabU, 0xb59d7e999c865a87U, 0x7999408b7c978e70U, 0x8b7184a442a6b567U,
  0x6d78a25d8697a375U, 0x8c7c7d778861965dU, 0x938873a4ac7a828dU, 0x8f90585874659e7aU,
  0x7c84476c715f658cU, 0x64627b997f96ac75U, 0x8aae6284ad7b9c78U, 0x6b8a7f8c7b7c9f80U,
  0x78aa8466816f678dU, 0x749e5c6ac9a06d63U, 0x868e795d8777676aU, 0x9494796a7fa6859bU,
  0x84947ca7809765a7U, 0x879a9c868c6a6396U, 0x82415b8555a74392U, 0xbfab8b8969639572U,
  0x7a8f818a96867797U, 0x7e686d579a92826eU, 0x759b66858392718bU, 0x82957563646f4669U,
  0x798f9b83637a4d94U, 0x8d877c5cb6a49d8fU, 0xa9798288a3957180U, 0xa69a976e9f8d8f6aU,
  0x43816f8e945d7c70U, 0x59969a8a7f74838aU, 0x5a7490b9878a7a7aU, 0x8b6d927898848486U,
  0x628f80a29d758cb0U, 0x8b886999988e7eaeU, 0x8b5c7ba77085588dU, 0x613b957554ad8d6eU,
  0x5c7d9056839b8281U, 0x90707d94978f845eU, 0x578f8e9b7a53966fU, 0x7b8d0097a1905da5U,
  0x9360749d7d916f9aU, 0x565395487d755e70U, 0x75bea1639fb9877fU, 0x5f7e90978d959080U,
  0xa980858940606956U, 0x899c7b83c991797eU, 0xa9845a80507d7b69U, 0x7c64897552928d7bU,
  0xa69e78768b9c8893U, 0x99a7719a70756e7dU, 0x987a839870891283U, 0x9db8669881988998U,
  0x98938797b48562b0U, 0x85806e35aa6b8365U, 0x8db199879b8e9576U, 0x68815f47b0796296U,
  0x7c646aa574978aa3U, 0xa94fa69a83798194U, 0xa07d988898738a9aU, 0x717fa7ab9e7b8365U,
  0x75a46b6172ae8e51U, 0x956d9b8879524f7aU, 0x64a09e65855e249bU, 0x8f7a53507a8f637aU,
  0x946466a8757da668U, 0x6da17ba7666577a5U, 0x82895b5c92915f75U, 0x888c8b675d8d9c75U,
  0x956b8d50797d6f8dU, 0x7f787f7a8a918479U, 0x434e7f729b71ce62U, 0x84716c804288877fU,
  0x878b509e617b8f99U, 0x6d6580839481b875U, 0x60885d947a9b4783U, 0x7095a07e739589aeU,
  0x6b9fad7b4f8d4b7fU, 0x946085a25d85a258U, 0x6e745385985b6f8dU, 0xb8617f426a62907dU,
  0x87786b9e5c8ea692U, 0x8a799291886f4654U, 0x5a566158a190a270U, 0x64759376b579a266U,
  0x56847ea1786b698eU, 0x75716d716fb19474U, 0x5b72a5695f7b2375U, 0x9394404a62706350U,
  0x7d8a769959836b9cU, 0x746ead7d7a7d7889U, 0x7968957586537d52U, 0x6f4c8375715ba386U,
  0x64876c5d6d86957fU, 0x7f85b76860747364U, 0x6c5780913f856361U, 0x5d6b80a3707b8e8fU,
  0x70a562703d7384b1U, 0x8682826c6a86538dU, 0x989954944b747c41U, 0x7b577f9f538a737bU,
  0x758a8285604e953dU, 0x8a656f6e9499b263U, 0x7667878c8561954bU, 0x878d449466598170U,
  0x54a45655639b5f8cU, 0x7d688278a6618078U, 0x48878464768da5a1U, 0x59b35d82687a8879U,
  0x896b5f705e89785cU, 0x96835c8fb1818769U, 0x7d6652596a6f3d9dU, 0x71838d647d8e8872U,
  0x6070487d58909c6eU, 0x7d866b75a8659f7aU, 0x7666749f6f737863U, 0xb3b4708c8f8f6081U,
  0x8ab49661cb926889U, 0x7c805e6e8b61703eU, 0x90ab587278aaa95cU, 0x96908c658f6b8472U,
  0x9668645f7f7d7f88U, 0x87668591766e6b78U, 0x57788a63a09b8880U, 0x918f7b9088867f62U,
  0x859c65746b898375U, 0x666770636f6a5d62U, 0x7e7d98907e6f4b6dU, 0xaa4f7c7169607b7aU,
  0x97858ba5827b9d49U, 0x5b7f6d6e64817376U, 0x7a72503e6d886d72U, 0x997074858b819590U,
  0x843a6b5c726e5685U, 0xa467867f747a5c93U, 0x49957e838d7e9265U, 0x8c725c6e386d685dU,
  0x5ba46cab5e70a590U, 0x8a616b60907f826cU, 0x78678359586e6b82U, 0x8b5f89608c44636bU,
  0x718eba946d664194U, 0x576693a08e55605aU, 0x536c79819f729276U, 0x8e5471507b638c79U,
  0x90737179596c7285U, 0x996f92aa82858b5fU, 0x646f9186ae8b9f74U, 0x4d7c5f3b746b7a7aU,
  0x826d7b9c97645b62U, 0x805c7e72ae928c8cU, 0x6b6368985f769171U, 0x8f854b876a9fa473U,
  0x5599ad7885a2a079U, 0xa65d735205a65a74U, 0x5f6485678e945f57U, 0x718e45728d7f8584U,
  0x7f5bb1806658849fU, 0x687b64b85f7d7a84U, 0xad2e5b917f838c96U, 0x63857ead667e8b74U,
  0x8f7f90536e758958U, 0x74724f50a59d6061U, 0x857681bda2509b6fU, 0x8fae6283ac715b7dU,
  0x8e6d9dab9173ae9fU, 0x5e8b817a886776aaU, 0x9c7b5f5c767751a4U, 0x626ea75f86678176U,
  0x6e7b875e7e937984U, 0x9c9c34886c884790U, 0x814c87808e5aa993U, 0x986d946f7180544bU,
  0x96298369a15f8571U, 0x713c758f9e9888a3U, 0x6b65929a9c868b9aU, 0x7f3d7f7b7c5f7071U,
  0x797b547870895d2aU, 0x86c16e709d82869dU, 0x8581767876909d61U, 0x73b563bd93a5805aU,
  0xc074796c66b8a373U, 0x7583a28d774b799fU, 0x796274868d7f8b7dU, 0x7d6b91aeb185b1a2U,
  0x746da27f92389056U, 0x77a9644797819385U, 0x9891989770889189U, 0x56946a649c8f8764U,
  0xa570747f6f1f4189U, 0xb2889e8474719187U, 0xaa93528198639190U, 0x628063a677799590U,
  0xa8897c4ea24b759bU, 0x638b6a818972b376U, 0x6d46a39096758581U, 0x6f689e867f7b8686U,
  0x9071ab9fad4e9780U, 0x81b193848f9e4180U, 0xa08a933d8e886595U, 0x66799c6268a69171U,
  0x8a936c5689a07f5dU, 0x63be7857726d9fcaU, 0x957174648c55bc67U, 0x7f89696776a85199U,
  0x8b656045a2797ab2U, 0x84af7094afba7e9fU, 0x72437eb370788775U, 0x8383ae716c597c91U,
  0x906f9c65a09b3c9fU, 0x7482a2686e85c071U, 0x6cac56674e927f7aU, 0x6b9681a675777360U,
  0x7681a08795cc7565U, 0x858b9e706668a076U, 0x94809b529f895f69U, 0x966e6c7e6e687d75U,
  0x7a7b76ab5968828aU, 0x8870a99475756588U, 0x81758153736b4577U, 0x955d579172717460U,
  0x667c7986817fa377U, 0x8282916f48805d95U, 0x7b6e7a824a6f4f48U, 0x6a83796355995b79U,
  0x5f6d648e6e8a7f71U, 0x9a518a9b7859719aU, 0x50654b9075ba6f58U, 0x7280517e456d7c50U,
  0x7ba5847faf7e684bU, 0x70677da58e5baa6dU, 0x4b7b7e8172528061U, 0x89544887686a565dU,
  0x7e8a5c5678b15184U, 0x735d95ae9b667288U, 0x5c8b6798759c6e71U, 0x6bb350796d7bbc62U,
  0x6d977e3b58ac7f67U, 0xa37e6b6d855f8473U, 0x907b5e688db94955U, 0x96ae926062797c67U,
  0xa33f6c6b5c6ead83U, 0x617f4fafaf559361U, 0x8869666d81987659U, 0xb18a8e8ba699718aU,
  0x77605443a35b4a7eU, 0x786e767d6d875369U, 0xad7d5e6d4d9e8878U, 0x6d798c6c6157796fU,
  0x685785779c8f6e70U, 0x9c8b876592617ab5U, 0x4984748874627079U, 0x8e618d777b7c966fU,
  0x74788969a1896372U, 0x6ba59e6387766463U, 0x5ca27b9081658276U, 0x72685374795b7873U,
  0x7f588d74866d916fU, 0x61805d78577d6877U, 0x936c747e676f976fU, 0x81637b8382638b7cU,
  0x98596a807f367b75U, 0x73635058a8928376U, 0x7f8a695f7a877a6bU, 0x8991555f6c7a7b83U,
  0x72897f6c926b585cU, 0x559c759e79728a77U, 0x99638a7b4576748bU, 0x957b6b696e786c7bU,
  0x758c8e7290625b80U, 0x72805ca7ad865c65U, 0x5b6287a25793788bU, 0xaf767199a9629a7bU,
  0x757a6e7d90816c89U, 0x9c487a627c559a77U, 0x4d7683826c5c7e70U, 0x8fa770767f738279U,
  0x679c839f866c8a88U, 0x5d5a5b6982906b8cU, 0x8d769752647a8381U, 0x754d9c8f6c6e6c5fU,
  0x613e8c82749e6865U, 0x9191b7a69a567192U, 0xa071b29d91798080U, 0x5a7b9a9ba896957dU,
  0x9391a873a2907080U, 0x699ebb58d1657188U, 0xa7be798b8443717eU, 0x8d6e59a16f775393U,
  0x68767b78976a92beU, 0x67829186907a95d2U, 0xa2789a9c7b799890U, 0x52858568837a9e69U,
  0x896b938783618c91U, 0x98835e8487886069U, 0x6ea574618f8a8d67U, 0x98af56866ea76e48U,
  0x8977758381a29167U, 0x55789087a792a09cU, 0x8f9d528e4d7e929aU, 0x64b9616d94a89390U,
  0x5895735eb0845c77U, 0x877d6f83ae766d73U, 0x724861826f62618bU, 0xa4a3948f657f789fU,
  0x8059abb5867687afU, 0x78909d7a8c678c5fU, 0x6eb48b6c64559967U, 0x927f7297a8b48e7dU,
  0x5e9b9678b4766f93U, 0x7679556c75886b9aU, 0x8bb5aa4959a1878eU, 0x7b42a63b69436261U,
  0x5b7a697e6a9d7781U, 0x8e6895af779f5f7dU, 0x727783838a947f7dU, 0x98867fc699bc8083U,
  0x7374907f7b9a995aU, 0x81a8899b70505779U, 0x48b1895aa0666d9bU, 0x8d795e7f635c6379U,
  0x86635b9c9f698571U, 0x648e81935c607085U, 0x7ba1736485546c95U, 0x657575418683988eU,
  0x894e975c5979696fU, 0x9e735a776168939cU, 0x658d76927c96a96aU, 0xb46279677998a36eU,
  0x827888a8828684a1U, 0x5f7368797896a15eU, 0x6e6672992b8a619aU, 0x63777e60a0718089U,
  0x60b2ad757355577dU, 0x767276ab3d73895cU, 0x45605f845666a399U, 0xaa8b895e6b8daa6bU,
  0x7782a0b57b78c2acU, 0x925c9c736c8a5769U, 0x975b975599669555U, 0x76748775b16d6a6eU,
  0x745988a92a648d9bU, 0x74af5255869f8197U, 0x6b59a98e447c3378U, 0x7a5262756574676fU,
  0x906d917061816aaaU, 0x818f71606ca87ca0U, 0x777b717c78a56b85U, 0x9b898782809697a3U,
  0x749a7d908ea8726dU, 0x7c926faa875e8685U, 0x635e9c70ab819362U, 0x8a6e7a677a878a80U,
  0x7d6783944f6e796aU, 0x5f9a7b9376668272U, 0x94a9678e665c8a6eU, 0x895993768f565b82U,
  0x728475735c786c72U, 0x907d746a63999d7eU, 0xa47f707a6e7eaa84U, 0x9696968c745d867aU,
  0x5d7d927d8b708fa2U, 0x737d788d95776d3cU, 0x8c6d9391527d7780U, 0x915d9068665b5a71U,
  0x8477856c6c677aa2U, 0x87688081886b7281U, 0x7e72759d7f7781a0U, 0x736078798463a183U,
  0x6a567ca0624d874cU, 0x6a5d905c6d946c6cU, 0x74927a7679626a7eU, 0x68999c6f785f6676U,
  0x767777a071979c9cU, 0x6d896f795b7b847bU, 0x65649a877f867377U, 0x956d969e778b6265U,
  0x878882e06da36983U, 0x764c8a74887f5c90U, 0x92757786846f967aU, 0xa9c077bca78b628bU,
  0x6f6bad598f90c46fU, 0x815988828a838c94U, 0x847f90806f667680U, 0x9494a2888b618dabU,
  0x6f628b7d7b938a7dU, 0xad734e7192aa5a85U, 0x7a93848d7d78619dU, 0x87b4798a71859658U,
  0x576d617679b4578aU, 0x778268748085b59aU, 0x98925c9ba37b9590U, 0x739f65508f889167U,
  0x6391948467797147U, 0xab7374bf7c8b7a87U, 0xa69f84a296c58582U, 0x7d678a5587d3dd7eU,
  0xad69a37f987a6177U, 0x7d5f597d7aae7398U, 0x948b7a917b6279afU, 0x8864b4608b90b679U,
  0x7692809f66859f89U, 0x8f81468396737699U, 0x6e578472796a9466U, 0x8667ac9b6f8d7887U,
  0x747863827f7267abU, 0x8c667a77a389798fU, 0x52946e82867a6e81U, 0x75959e865c8f6c7eU,
  0xa462687b718f7a76U, 0xb75e73687b51a1a3U, 0x79aab063ab859d65U, 0x8da4a2a174937188U,
  0x5eaa798e4a826380U, 0x698189768b6b7070U, 0xba687b8b5e805a7aU, 0x9c6d669a9f6584adU,
  0x7a86757076765ec9U, 0x807b41b36f6f86b1U, 0x9b8b7483a281677dU, 0x76828c4785799d6bU,
  0x605ba1647a799a6eU, 0x6f745f856c866d59U, 0x8b7a848092859f6fU, 0x91828e5c5887a65fU,
  0x91a88f9c938095a7U, 0x607e777991788083U, 0x87864a7f898bb96fU, 0x7688928770b7929eU,
  0x54847c806d914582U, 0x9d445e8a7f8d8288U, 0x7b994e72996ba178U, 0xa460d14a69567678U,
  0x8ead65936e768e8dU, 0x77a77d4974827279U, 0x69676e86509c9b78U, 0x705ab196afb6926fU,
  0x6e8e899f8dc296afU, 0x96986e87cd6b7c90U, 0x82a2806a79675f79U, 0x4c888063977f774cU,
  0x6e8e72ae4f96af8fU, 0x7eafa29a607e9578U, 0xb3847e995d924a71U, 0x84b647769d936866U,
  0xb551b456a3b1934cU, 0x6671617952a57599U, 0x4b8a975a9e4cc54bU, 0x72adab7e73416e5cU,
  0x54649d607d726474U, 0x774e93205bb5576eU, 0x5969b57e84557b7fU, 0x9d7f7786aaa5a656U,
  0x80747ab1817b44a4U, 0x907e784c769bcd64U, 0x899b706f7e664194U, 0x479aa45a6b64698bU,
  0x527aa462ba618744U, 0x9798a27e55627fadU, 0x805c7e81b9bc9273U, 0x90a8434a72b6a670U,
  0xab6a5580c988a87dU, 0x776184b94fb09f75U, 0x8f4e7b8a879c8089U, 0x8793a7b59cc7c395U,
  0x8a806aa7a974c688U, 0x908b809b6e99af61U, 0x64986565c5777473U, 0x8e85b3be49729574U,
  0x5a748a90696264a1U, 0x7c52683bd7916888U, 0x8877ac5fa1a3c4c3U, 0x92a4bdb367825496U,
  0x7956aa6dae818136U, 0x9683987eb7959668U, 0x67775ca98d88a773U, 0x8567b06f718b9278U,
  0xae897573826d8247U, 0xb986978fbf7b7b52U, 0x8b9c6b4f68767787U, 0x8e9489b49b7f637cU,
  0x77698e82754095d2U, 0x4da2498a909f789bU, 0x7a9b88a75386a367U, 0x7a73927657c46d71U,
  0xa683825c7b7b8a7cU, 0x7c97767b756f9cadU, 0xb16b7b7a8b7bd493U, 0x93ae7a747bb17ea4U,
  0x50b1a26989a35d67U, 0x6b859c9993917789U, 0x8b8876718c967055U, 0x7f7f6a7f86857192U,
  0x927d7a6d886b727aU, 0x76926993da9b5e7dU, 0x7e497496888e7994U, 0xad725da7745e9586U,
  0x86978c5eabb14397U, 0x7b9b863f6c7e6588U, 0x5d6c8c56767f7858U, 0xbdc596ab5da68b99U,
  0x8db88673b3a4888eU, 0x8a69a36b419e7b79U, 0x6baf906a81927d9fU, 0x7c81698197688e70U,
  0x864c547171a67e9bU, 0x8d72a4a982876471U, 0x817e7693a39b8f7eU, 0x7a9d75806f9a896fU,
  0x9188678363895e79U, 0x6589718c8c6d6e81U, 0x6e98977cac755871U, 0x868186793a776197U,
  0xa05f6754b0636f90U, 0x4180648e7b55a79cU, 0x8ca19c6f907a6ea9U, 0x917a8b6264727f87U,
  0x855a9363806a736dU, 0x895076a3798d759bU, 0x4e95956d8a7e7179U, 0x6397a6866e877f86U,
  0x709c789986919379U, 0x79967c859a9f6566U, 0x657c5c7b716f75a3U, 0x7ba96c6e82988a85U,
  0x6b92956a616e7f63U, 0x8a8b929c684f7f68U, 0x8f7875a084887a91U, 0x8e79965a84797b7aU,
  0x4c5a996c77618879U, 0x8f738a647e636c83U, 0x7a9277556c776d6dU, 0x7f699c91779e6648U,
  0x686c71848b798e89U, 0x67b3778783b38c6fU, 0xa26c9f87617a5d82U, 0x775c777c7492634aU,
  0x9e618b8b627d7d8dU, 0x63656d54758e8e5eU, 0x87564e72928d947eU, 0xab899153a38e767fU,
  0x89779694a562726cU, 0x5c5f987c9d73808eU, 0x7a6b757795788d83U, 0xa192708c586e8289U,
  0x96657566978d8f6aU, 0x58825f755b7f6b81U, 0x87787f8d6873ae83U, 0xb8557771786b739cU,
  0x718f52927d598a99U, 0x728b827059867f87U, 0x749089946d7b469dU, 0x4d99695f626b8b7eU,
  0x857e6b7e776f7c67U, 0x6ea0856b7f73666cU, 0x9364638492927993U, 0x8d7767687392777dU,
  0x63738186747c7a7bU, 0x4a84509474669180U, 0x5791a66a717a61abU, 0x6f71979a967a75a0U,
  0x6b6857937c825b67U, 0x8d8362529c92297aU, 0x819f88878387859eU, 0x61989a71787a9182U,
  0x93518272595c7b7eU, 0x89936b7aa2978896U, 0x7b605f7b799f5c84U, 0x7c9360867d6a7e68U,
  0x48bd6ea380af6e7bU, 0x818a8e785f5f846fU, 0x916e69696e82822fU, 0x6b6271766c6e5a89U,
  0x7c9c40a3617b4e7eU, 0x9173808d61917f7fU, 0x7b535e6f7b949d5dU, 0x5872858480677566U,
  0x977b8e4376489b7fU, 0x829989716770775eU, 0x758055ba65758e62U, 0x486d768e7f847080U,
  0x7c718a9997bb856dU, 0x7b7690569e645c7eU, 0x857d978f8b936c74U, 0x745f77999b98807aU,
  0x9174886e515d6b87U, 0x849f4c876a94848dU, 0x6ba58560928a6d83U, 0x7d7d83a07f2a5d51U,
  0x8f758a7572867b85U, 0x51a3af88926d58a7U, 0x8162907f935b8ca2U, 0x698e6f668175a67eU,
  0x2c7978747d69815bU, 0x747e9e7788789e8bU, 0x9fa8979e9f795e98U, 0x79b7876a3d747a76U,
  0xb3677c66837c675fU, 0x87838ea35a757538U, 0xa89e8c7ba687c179U, 0x808d639261947e92U,
  0x5d887987a06d8754U, 0x6c869d74ae727caeU, 0x958b898c705b7193U, 0x5b64a4ad6c7096afU,
  0x9b9073728c819946U, 0x99977555c07da87dU, 0x787a498b599f6776U, 0x51877291676f8e72U,
  0x42847c679f639ab1U, 0x9b92969e68577a7eU, 0x61be7d765f80825eU, 0x51597d7b728e744fU,
  0x6aaa68857e8e886fU, 0x6080ac7851798095U, 0x90688d8072b2af79U, 0xa79361ab7b98ab89U,
  0x6f615d69609c798eU, 0x745e4a9a6c9684a2U, 0x92a3876a92917284U, 0x70a88966838d9f8aU,
  0x738b4c718da78373U, 0x63895e8ca5a49237U, 0x5b58697e69848792U, 0xa8b78b5e98afb44fU,
  0x86668e68796c9466U, 0x655f9d685ea78883U, 0x2753773078798da4U, 0xba986877a0604f85U,
  0x90a57d2ccf728cabU, 0x8d8e758656766c6bU, 0x81b6854d82d67f8aU, 0x709c746966347b52U,
  0x987d717a6ea47388U, 0x7390978094887862U, 0x8faf84979c78a88cU, 0x4d857187ac8a6080U,
  0x986a9b9090669c85U, 0xb1637ea352818570U, 0x8c7576938a989e97U, 0x8983926789808d98U,
  0x827871817faa7e88U, 0x4f9c6b8e8167a07dU, 0xa884894e9c754b73U, 0x9e787f5685967f8fU,
  0x7a735c8d80746a5dU, 0x74b1ac898d8e8883U, 0x7e827e66928a8577U, 0x857a9c7a7fa35b88U,
  0x829e98704d969a8dU, 0x9e6b977c70827193U, 0x6f939e74945d7d84U, 0x9c84915fb69e71a5U,
  0x9e667f565f867c77U, 0x7c6ca98b89819ea8U, 0x9f9d68769f8d618cU, 0x777ba77283627d52U,
  0x685e6f5c6e82593fU, 0x7068897f9596635bU, 0x68a180916c8ea764U, 0x8486938d938a6592U,
  0xa6777f809c8b8283U, 0x6c6375c13a5f8d9aU, 0x825d5c928972896fU, 0x997e758482789364U,
  0xaf58825a5f779483U, 0x81b1775f5e6e9563U, 0x7a7c786d9e9f8361U, 0x7e6b71798f8a817aU,
  0x807f169f7c945585U, 0x7f997192776d518dU, 0x8b708797989d537cU, 0x8a8b6f9a658c8d8cU,
  0x95a7827299766171U, 0x677a9781514fbe74U, 0x915f705d71855ea5U, 0x79777c3c685b558cU,
  0x5f3b49967f4b9a73U, 0x6d9a9177ae906676U, 0x498e9a5d7a9e7798U, 0x8c7c7d9b546d667bU,
  0x7b79847c676aa189U, 0x7a8f62709d858543U, 0xb99b9592593b69c5U, 0xa65a8d8b855f4d7aU,
  0x798dbb8d4789715fU, 0x7999bb6c724e7d96U, 0x9778888a5d827d9aU, 0x5d764570473c8375U,
  0x616f57646b805465U, 0x8577821f7e70627aU, 0x9896be8ec5597979U, 0x5ea35164748c687eU,
  0xb78c9d797b3b7f4cU, 0x90a281a562758fa5U, 0x6887727f7a94a58aU, 0x677f797d7ba0936bU,
  0xa3887ab26e9c858cU, 0x9e86c4945c888aaeU, 0xa4a5989a66867a5dU, 0x707b6d577f777470U,
  0xa778736c7b8d6684U, 0x5865b05d81765c72U, 0x827791848c959044U, 0x66788d8968568c88U,
  0x8986828e48454ac4U, 0x777b6b3f607f8d98U, 0x7f7d75ac7f9b9573U, 0x9c82a2a9769caa8eU,
  0x6e608e9b77546a67U, 0x696c5d7aa9908463U, 0x6a6b5f657f618453U, 0x79a9708972784b5eU,
  0x5e986e4a7f555f9eU, 0x60a47cb0c969767fU, 0x6aac7d668c65d09bU, 0x97e7514d86798479U,
  0x6f8f56616fbb596cU, 0x847c656aa150859aU, 0xa65788845d84506cU, 0x6892835a978ba492U,
  0x443789847d708ca4U, 0x5b5e696e7358da7eU, 0x91747ea06f713c89U, 0x78a1bfa590bd6273U,
  0x487f7f32897084a0U, 0x806574636d8d5592U, 0xa3c07a6c7e84b17cU, 0x9682a09d6b6f6d62U,
  0x735c83968b9f6f68U, 0x968d81a393a58d65U, 0x7b70938252969a9dU, 0x8497938d756a7a75U,
  0x898bb076847f9c71U, 0x4d75b3629190586bU, 0x808c8c6c826e7d60U, 0x7f61a08f6a657b72U,
  0x7c6a7a708d8e8160U, 0x418f416e5d996a73U, 0x72728b9b8a769b6bU, 0xc7695ea67b787372U,
  0x956284807b88898eU, 0x7d506f6978629b90U, 0x56ad778286794b96U, 0x4e8d8d466e6f697dU,
  0x75aca79993999052U, 0x97889877829e5cb3U, 0x67617e727c6f7063U, 0x9d7d845290897270U,
  0x8f7c99897b416f82U, 0x70586a86bb76816eU, 0x9d88beae81a37b5eU, 0xa6726faaa5678361U,
  0xa77d527c9f896e4fU, 0x8d76509b828b8b5eU, 0x51b0749385877664U, 0x6e8c877860735b80U,
  0x796f749f9c446f90U, 0x716c9e539e817867U, 0x7a3f854f67899470U, 0x806881b67973a37bU,
  0x7257b665acb89064U, 0xb5956b748f57799aU, 0x8c719592978a4b87U, 0x956c70626ca9737dU,
  0x5e7dc02e7a9c587eU, 0x678bc16b977d4372U, 0x689d5371a950808cU, 0x869556aa7a9c6a70U,
  0x6e7f6083b45b678fU, 0x7d749a6e86757196U, 0x798e88cf6d74c173U, 0x675d726a8b95a864U,
  0x9e82b5907586c39dU, 0x5d607287aa87897fU, 0x5e7a726c807a7878U, 0x8873627679866686U,
  0x6e85926a75996659U, 0x6e7070aaa8ba8891U, 0xa4617b958abfa191U, 0x4aa55c7e39937b73U,
  0x989a76797a5a7448U, 0x9a7159819f8a6081U, 0x776c578287817b80U, 0x886787767d9a68a3U,
  0x697c72c15da07999U, 0xa2a7796181808f5bU, 0xa16a7e4b867a57a1U, 0xbf9c669c89b0b17fU,
  0x768684998d62916fU, 0x74707d49acbc6b97U, 0xb0ad7d6963967064U, 0x676982609d744561U,
  0x9c5c6860a4956b92U, 0x886fa7ad958b75baU, 0x67a8917f66919c82U, 0x79829394a290945aU,
  0x87698b569994756cU, 0x54a37575777c5d70U, 0x8394905f8b656180U, 0x618262936f4c546eU,
  0x6d446e95805a8380U, 0x4994897c36707b56U, 0xa869567a72447054U, 0x7756a052836d809bU,
  0x873e8f8f85434d5eU, 0x817753696c909e55U, 0x8a76647d9a89865eU, 0x9e9568708797745cU,
  0x6571746b97827b8bU, 0x888387808267935dU, 0x94599264339d8286U, 0x8a958055747553aaU,
  0x8a81aa60568a618aU, 0x5c8775be6585715dU, 0x5363759e5b84689dU, 0xa0649d987871926aU,
  0x6e8380aa945e7963U, 0x8543878d4e766953U, 0x6d6e5670994c6677U, 0x6a9a87698761994aU,
  0x3e647e9a6a4a8aafU, 0x7d87525a86a27b87U, 0x8084706051a47b95U, 0x774a5f8e5976674dU,
  0x7d54518597934672U, 0x976a7bb87d97838aU, 0x976f8d9d969f739cU, 0x819d8cca77937c95U,
  0x9b9f847e6fb87c63U, 0x7f8483978b435487U, 0x6e9a7d5d92757d74U, 0xbf80595e635f6664U,
  0x9e4b5e55a46c8e66U, 0x316d6fa17a807f8dU, 0x71ae6d5371727e79U, 0x68837964857aa97cU,
  0xc754b9464f856c81U, 0x8a5d5c954a836db0U, 0xa68845867b80b87fU, 0x8d7385667b8ca788U,
  0x688d7b8d8a5d7d9eU, 0x5367627e9aad8845U, 0x7f4c577f67777860U, 0x566d7957893e6496U,
  0x56a69e5da15782b1U, 0x8f6d96a35978807bU, 0x4d6e747b7d417ba4U, 0xd981776caa777f70U,
  0x6f7b807a676d9dadU, 0x7d73937b9d84786eU, 0x7b656b5a8d6d9941U, 0x59648a7498519a55U,
  0x626295b368707e8cU, 0x85b3575f99ab8088U, 0x935cb37a4b514d8fU, 0x88617e7e5e8c595cU,
  0x878a75c3798e7387U, 0x957884835c886a7bU, 0xa665496a896e836dU, 0x747f6f809e598153U,
  0x806e877fa5898667U, 0x777f628257ba8fbaU, 0x5067a5918eab6271U, 0xa26bad4c897e917eU,
  0x766a5c7685857083U, 0xa1919d6b6c88716eU, 0x886391739c6c676fU, 0x8e797dbc5a9e8a7bU,
  0x6d9858bf788c6a7aU, 0x7177856a9265878cU, 0x7e869b8794617e6bU, 0x4d767a738557605aU,
  0x626d6478725d987cU, 0xaa9476a1725e7b66U, 0x7199b091919e6c95U, 0x7f8f6b8475a5b29dU,
  0x9a958d8c5eab7a71U, 0x88a05e799776b776U, 0x85838f7f5e7a568fU, 0x4497927fa4929a93U,
  0x6c857388887fbc91U, 0xa26077ab9e918584U, 0x958c6a887b626f90U, 0xa287b3906c67816cU,
  0x7b6f7a7e464c5790U, 0x7e556e81816d7772U, 0x87716c97978b8c6eU, 0x8896856a5b899182U,
  0x8679596a71546861U, 0x7581967c80946da4U, 0xb483858972627e8cU, 0x91b1849f938ba19eU,
  0x61b1ab71b7a16d65U, 0x5ca75f8892645da1U, 0x4db19555815e6b98U, 0xac747b6365507e5eU,
  0x95476a7591649b66U, 0x724badb74d5d7a5eU, 0xa08d8d537c70a190U, 0x86767f4668798f90U,
  0x70946e6f7864686aU, 0xa0777141447e7087U, 0x79905e948d89736dU, 0xa79f41836c89b159U,
  0x5a7d80a3834d8f8fU, 0x66607f5c879ca368U, 0x8960808e25b03a93U, 0x7e6e6e738463686cU,
  0x49aca884845d5d8dU, 0x6e8f617a6560632fU, 0x3d606c84487a6ca8U, 0x7c8f7965c6a1889eU,
  0x717ca994835da595U, 0x9b4f947176794d71U, 0x607a7f3d95708e78U, 0x8171932878208c4cU,
  0x4067898e47286e76U, 0x7bad4e7593b880aaU, 0x7560bb7d5c5d637aU, 0x9e5d7b80456c3e53U,
  0x87766960787d6c90U, 0x9c779dac657e8773U, 0x8d5e6883878aa496U, 0x848d79936eb370a2U,
  0xa48da78d807f7172U, 0x7e7c509d776e5885U, 0x51708c48927c8a96U, 0x9d816745858c6251U,
  0x845e646d8792805eU, 0x59817e7d498c7548U, 0x72856b4f7f6c9d66U, 0xa38d757d888a8681U,
  0x9c56749386565383U, 0x956f4e4c5d6c8490U, 0x6f8d779187658f71U, 0x8983856378848f8cU,
  0x759f7981a33d7477U, 0x717b706264878354U, 0x737d9b7f4d825078U, 0x7d6d965f8c5f8c90U,
  0x68af9d7f918b7187U, 0x5f8e78974d619850U, 0x4f80769b7a77718eU, 0x79795c59b883a49bU,
  0x5f778d8884528664U, 0x9b43867e8f7e5f50U, 0x805b6e846d716c67U, 0x4e679b7387559663U,
  0x647a849b60637179U, 0x9a845359a2928897U, 0x92559e887e87716aU, 0xae687b66766f7255U,
  0x6e9c9d8499897682U, 0x54904061698f5f79U, 0x5585586f7395668dU, 0x9d7b8a5d4c82679eU,
  0x6d6461717e518ca0U, 0x766d2e7e9a867e86U, 0x815c588a79adae4fU, 0x74716a568d5e9c87U,
  0x969f9d8970bb4976U, 0x99708e707f8e8268U, 0x5b7d6e5b8480886fU, 0x76668264994e7992U,
  0x7787618d7452a98aU, 0x8b7d845a826e6179U, 0x9e9484ab6c975368U, 0x8367aa6b9a51958dU,
  0x807578749454507aU, 0x9d7a89654d805b67U, 0x86885b51ac579870U, 0x92549c8964605858U,
  0x565077a4759c7f7eU, 0x68927f39858b74b8U, 0x6b879e7a9e63a38dU, 0x566ab46f6e866378U,
  0x64805282666c755fU, 0x648785736a8e7c85U, 0x9265948e68958b72U, 0x577b6e5d90577485U,
  0xbf87869d75999f58U, 0x7f7460987f1f9859U, 0x96857388746baf75U, 0xa89a8f98a08c9995U,
  0x817d866286999a8bU, 0xc19083a99d829165U, 0x705eb177a59a977fU, 0x6570828b727f8295U,
